{"version":"1.0","truncation":null,"padding":null,"added_tokens":[{"id":0,"content":"<|bos|>","single_word":false,"lstrip":false,"rstrip":false,"normalized":false,"special":true},{"id":1,"content":"<|eos|>","single_word":false,"lstrip":false,"rstrip":false,"normalized":false,"special":true},{"id":2,"content":"<|pad|>","single_word":false,"lstrip":false,"rstrip":false,"normalized":false,"special":true},{"id":3,"content":"<|unk|>","single_word":false,"lstrip":false,"rstrip":false,"normalized":false,"special":true},{"id":4,"content":"<|eod|>","single_word":false,"lstrip":false,"rstrip":false,"normalized":false,"special":true},{"id":5,"content":"<|startoftext|>","single_word":false,"lstrip":false,"rstrip":false,"normalized":false,"special":true},{"id":6,"content":"<|endoftext|>","single_word":false,"lstrip":false,"rstrip":false,"normalized":false,"special":true},{"id":7,"content":"<|endofprompt|>","single_word":false,"lstrip":false,"rstrip":false,"normalized":false,"special":true},{"id":8,"content":"<|im_start|>","single_word":false,"lstrip":false,"rstrip":false,"normalized":false,"special":true},{"id":9,"content":"<|im_end|>","single_word":false,"lstrip":false,"rstrip":false,"normalized":false,"special":true},{"id":10,"content":"<|system|>","single_word":false,"lstrip":false,"rstrip":false,"normalized":false,"special":true},{"id":11,"content":"<|developer|>","single_word":false,"lstrip":false,"rstrip":false,"normalized":false,"special":true},{"id":12,"content":"<|user|>","single_word":false,"lstrip":false,"rstrip":false,"normalized":false,"special":true},{"id":13,"content":"<|assistant|>","single_word":false,"lstrip":false,"rstrip":false,"normalized":false,"special":true},{"id":14,"content":"<|tool|>","single_word":false,"lstrip":false,"rstrip":false,"normalized":false,"special":true},{"id":15,"content":"<|function|>","single_word":false,"lstrip":false,"rstrip":false,"normalized":false,"special":true},{"id":16,"content":"<|observation|>","single_word":false,"lstrip":false,"rstrip":false,"normalized":false,"special":true},{"id":17,"content":"<|eot|>","single_word":false,"lstrip":false,"rstrip":false,"normalized":false,"special":true},{"id":18,"content":"<think>","single_word":false,"lstrip":false,"rstrip":false,"normalized":false,"special":true},{"id":19,"content":"</think>","single_word":false,"lstrip":false,"rstrip":false,"normalized":false,"special":true},{"id":20,"content":"<analysis>","single_word":false,"lstrip":false,"rstrip":false,"normalized":false,"special":true},{"id":21,"content":"</analysis>","single_word":false,"lstrip":false,"rstrip":false,"normalized":false,"special":true},{"id":22,"content":"<reasoning>","single_word":false,"lstrip":false,"rstrip":false,"normalized":false,"special":true},{"id":23,"content":"</reasoning>","single_word":false,"lstrip":false,"rstrip":false,"normalized":false,"special":true},{"id":24,"content":"<commentary>","single_word":false,"lstrip":false,"rstrip":false,"normalized":false,"special":true},{"id":25,"content":"</commentary>","single_word":false,"lstrip":false,"rstrip":false,"normalized":false,"special":true},{"id":26,"content":"<final>","single_word":false,"lstrip":false,"rstrip":false,"normalized":false,"special":true},{"id":27,"content":"</final>","single_word":false,"lstrip":false,"rstrip":false,"normalized":false,"special":true},{"id":28,"content":"<tools>","single_word":false,"lstrip":false,"rstrip":false,"normalized":false,"special":true},{"id":29,"content":"</tools>","single_word":false,"lstrip":false,"rstrip":false,"normalized":false,"special":true},{"id":30,"content":"<available_tools>","single_word":false,"lstrip":false,"rstrip":false,"normalized":false,"special":true},{"id":31,"content":"</available_tools>","single_word":false,"lstrip":false,"rstrip":false,"normalized":false,"special":true},{"id":32,"content":"<tool_call>","single_word":false,"lstrip":false,"rstrip":false,"normalized":false,"special":true},{"id":33,"content":"</tool_call>","single_word":false,"lstrip":false,"rstrip":false,"normalized":false,"special":true},{"id":34,"content":"<tool_response>","single_word":false,"lstrip":false,"rstrip":false,"normalized":false,"special":true},{"id":35,"content":"</tool_response>","single_word":false,"lstrip":false,"rstrip":false,"normalized":false,"special":true},{"id":36,"content":"<function_call>","single_word":false,"lstrip":false,"rstrip":false,"normalized":false,"special":true},{"id":37,"content":"</function_call>","single_word":false,"lstrip":false,"rstrip":false,"normalized":false,"special":true},{"id":38,"content":"<function_response>","single_word":false,"lstrip":false,"rstrip":false,"normalized":false,"special":true},{"id":39,"content":"</function_response>","single_word":false,"lstrip":false,"rstrip":false,"normalized":false,"special":true},{"id":40,"content":"<|tool_sep|>","single_word":false,"lstrip":false,"rstrip":false,"normalized":false,"special":true},{"id":41,"content":"<|fim_prefix|>","single_word":false,"lstrip":false,"rstrip":false,"normalized":false,"special":true},{"id":42,"content":"<|fim_middle|>","single_word":false,"lstrip":false,"rstrip":false,"normalized":false,"special":true},{"id":43,"content":"<|fim_suffix|>","single_word":false,"lstrip":false,"rstrip":false,"normalized":false,"special":true},{"id":44,"content":"<|fim_pad|>","single_word":false,"lstrip":false,"rstrip":false,"normalized":false,"special":true},{"id":45,"content":"<|repo_name|>","single_word":false,"lstrip":false,"rstrip":false,"normalized":false,"special":true},{"id":46,"content":"<|file_sep|>","single_word":false,"lstrip":false,"rstrip":false,"normalized":false,"special":true},{"id":47,"content":"<|vision_start|>","single_word":false,"lstrip":false,"rstrip":false,"normalized":false,"special":true},{"id":48,"content":"<|vision_end|>","single_word":false,"lstrip":false,"rstrip":false,"normalized":false,"special":true},{"id":49,"content":"<|vision_pad|>","single_word":false,"lstrip":false,"rstrip":false,"normalized":false,"special":true},{"id":50,"content":"<|image_pad|>","single_word":false,"lstrip":false,"rstrip":false,"normalized":false,"special":true},{"id":51,"content":"<|video_pad|>","single_word":false,"lstrip":false,"rstrip":false,"normalized":false,"special":true},{"id":52,"content":"<|image|>","single_word":false,"lstrip":false,"rstrip":false,"normalized":false,"special":true},{"id":53,"content":"<|video|>","single_word":false,"lstrip":false,"rstrip":false,"normalized":false,"special":true},{"id":54,"content":"[IMG]","single_word":false,"lstrip":false,"rstrip":false,"normalized":false,"special":true},{"id":55,"content":"[IMG_BREAK]","single_word":false,"lstrip":false,"rstrip":false,"normalized":false,"special":true},{"id":56,"content":"[IMG_END]","single_word":false,"lstrip":false,"rstrip":false,"normalized":false,"special":true}],"normalizer":{"type":"NFC"},"pre_tokenizer":{"type":"ByteLevel","add_prefix_space":false,"trim_offsets":true,"use_regex":true},"post_processor":null,"decoder":{"type":"ByteLevel","add_prefix_space":true,"trim_offsets":true,"use_regex":true},"model":{"type":"BPE","dropout":null,"unk_token":"<|unk|>","continuing_subword_prefix":null,"end_of_word_suffix":null,"fuse_unk":false,"byte_fallback":false,"vocab":{"<|bos|>":0,"<|eos|>":1,"<|pad|>":2,"<|unk|>":3,"<|eod|>":4,"<|startoftext|>":5,"<|endoftext|>":6,"<|endofprompt|>":7,"<|im_start|>":8,"<|im_end|>":9,"<|system|>":10,"<|developer|>":11,"<|user|>":12,"<|assistant|>":13,"<|tool|>":14,"<|function|>":15,"<|observation|>":16,"<|eot|>":17,"<think>":18,"</think>":19,"<analysis>":20,"</analysis>":21,"<reasoning>":22,"</reasoning>":23,"<commentary>":24,"</commentary>":25,"<final>":26,"</final>":27,"<tools>":28,"</tools>":29,"<available_tools>":30,"</available_tools>":31,"<tool_call>":32,"</tool_call>":33,"<tool_response>":34,"</tool_response>":35,"<function_call>":36,"</function_call>":37,"<function_response>":38,"</function_response>":39,"<|tool_sep|>":40,"<|fim_prefix|>":41,"<|fim_middle|>":42,"<|fim_suffix|>":43,"<|fim_pad|>":44,"<|repo_name|>":45,"<|file_sep|>":46,"<|vision_start|>":47,"<|vision_end|>":48,"<|vision_pad|>":49,"<|image_pad|>":50,"<|video_pad|>":51,"<|image|>":52,"<|video|>":53,"[IMG]":54,"[IMG_BREAK]":55,"[IMG_END]":56,"!":57,"\"":58,"#":59,"$":60,"%":61,"&":62,"'":63,"(":64,")":65,"*":66,"+":67,",":68,"-":69,".":70,"/":71,"0":72,"1":73,"2":74,"3":75,"4":76,"5":77,"6":78,"7":79,"8":80,"9":81,":":82,";":83,"<":84,"=":85,">":86,"?":87,"@":88,"A":89,"B":90,"C":91,"D":92,"E":93,"F":94,"G":95,"H":96,"I":97,"J":98,"K":99,"L":100,"M":101,"N":102,"O":103,"P":104,"Q":105,"R":106,"S":107,"T":108,"U":109,"V":110,"W":111,"X":112,"Y":113,"Z":114,"[":115,"\\":116,"]":117,"^":118,"_":119,"`":120,"a":121,"b":122,"c":123,"d":124,"e":125,"f":126,"g":127,"h":128,"i":129,"j":130,"k":131,"l":132,"m":133,"n":134,"o":135,"p":136,"q":137,"r":138,"s":139,"t":140,"u":141,"v":142,"w":143,"x":144,"y":145,"z":146,"{":147,"|":148,"}":149,"~":150,"¡":151,"¢":152,"£":153,"¤":154,"¥":155,"¦":156,"§":157,"¨":158,"©":159,"ª":160,"«":161,"¬":162,"®":163,"¯":164,"°":165,"±":166,"²":167,"³":168,"´":169,"µ":170,"¶":171,"·":172,"¸":173,"¹":174,"º":175,"»":176,"¼":177,"½":178,"¾":179,"¿":180,"À":181,"Á":182,"Â":183,"Ã":184,"Ä":185,"Å":186,"Æ":187,"Ç":188,"È":189,"É":190,"Ê":191,"Ë":192,"Ì":193,"Í":194,"Î":195,"Ï":196,"Ð":197,"Ñ":198,"Ò":199,"Ó":200,"Ô":201,"Õ":202,"Ö":203,"×":204,"Ø":205,"Ù":206,"Ú":207,"Û":208,"Ü":209,"Ý":210,"Þ":211,"ß":212,"à":213,"á":214,"â":215,"ã":216,"ä":217,"å":218,"æ":219,"ç":220,"è":221,"é":222,"ê":223,"ë":224,"ì":225,"í":226,"î":227,"ï":228,"ð":229,"ñ":230,"ò":231,"ó":232,"ô":233,"õ":234,"ö":235,"÷":236,"ø":237,"ù":238,"ú":239,"û":240,"ü":241,"ý":242,"þ":243,"ÿ":244,"Ā":245,"ā":246,"Ă":247,"ă":248,"Ą":249,"ą":250,"Ć":251,"ć":252,"Ĉ":253,"ĉ":254,"Ċ":255,"ċ":256,"Č":257,"č":258,"Ď":259,"ď":260,"Đ":261,"đ":262,"Ē":263,"ē":264,"Ĕ":265,"ĕ":266,"Ė":267,"ė":268,"Ę":269,"ę":270,"Ě":271,"ě":272,"Ĝ":273,"ĝ":274,"Ğ":275,"ğ":276,"Ġ":277,"ġ":278,"Ģ":279,"ģ":280,"Ĥ":281,"ĥ":282,"Ħ":283,"ħ":284,"Ĩ":285,"ĩ":286,"Ī":287,"ī":288,"Ĭ":289,"ĭ":290,"Į":291,"į":292,"İ":293,"ı":294,"Ĳ":295,"ĳ":296,"Ĵ":297,"ĵ":298,"Ķ":299,"ķ":300,"ĸ":301,"Ĺ":302,"ĺ":303,"Ļ":304,"ļ":305,"Ľ":306,"ľ":307,"Ŀ":308,"ŀ":309,"Ł":310,"ł":311,"Ń":312,"Ġt":313,"ĠĠ":314,"Ġa":315,"he":316,"in":317,"re":318,"on":319,"Ġthe":320,"er":321,"at":322,"Ġs":323,"Ġo":324,"en":325,"Ġc":326,"Ġw":327,"ĠĠĠĠ":328,"is":329,"or":330,"it":331,"es":332,"nd":333,"Ġf":334,"Ġp":335,"ed":336,"al":337,"Ġb":338,"an":339,"Ġof":340,"ou":341,"ing":342,"ar":343,"Ġm":344,"Ġin":345,"ion":346,"Ġd":347,"ic":348,"le":349,"Ġto":350,"Ġand":351,"as":352,"ro":353,"Ġh":354,"Ġth":355,"ent":356,"ct":357,"Ġn":358,"st":359,"Ġe":360,"om":361,"Ġre":362,"et":363,"Ġl":364,"ll":365,"ve":366,"ly":367,"im":368,"ĠĠĠ":369,"ut":370,"id":371,"Ġis":372,"se":373,"ot":374,"Ġg":375,"ĠT":376,"ĠĠĠĠĠĠĠĠ":377,"ĠI":378,"ce":379,"ra":380,"ow":381,"ig":382,"Ġbe":383,"ation":384,"ol":385,"Ġu":386,"ĠA":387,"ĠS":388,"Ġfor":389,"ur":390,"am":391,"ch":392,"Ġon":393,"ad":394,"Ġ(":395,"Ġthat":396,"ver":397,"il":398,"Ġst":399,"Ġ1":400,"Ġy":401,"ĠC":402,"ay":403,"ith":404,"if":405,"ir":406,"ul":407,"Ġas":408,"Ġit":409,"od":410,"her":411,"Ġan":412,"Ġcon":413,"Ġ\"":414,"Ġwith":415,"ter":416,"âĢ":417,"ge":418,"um":419,"ate":420,"ĠM":421,"Ġwh":422,"Ġyou":423,"Ġpro":424,"Ġwe":425,"ri":426,"th":427,"Ġ=":428,"ab":429,"em":430,"ĠP":431,"qu":432,"Ġ2":433,"el":434,"ist":435,"Ġare":436,"Ġhe":437,"ac":438,"pp":439,"ĠThe":440,"Ġv":441,"us":442,"est":443,"res":444,"Ġor":445,"ĠB":446,"os":447,"ht":448,"ect":449,"ers":450,"op":451,"Ġex":452,"nt":453,"ld":454,"Ġde":455,"ess":456,"rom":457,"Ġha":458,"ore":459,"Ġwas":460,"Ġcom":461,"ke":462,"ill":463,"ĠF":464,"ĠH":465,"ort":466,"ment":467,"00":468,"Ġat":469,"Ġby":470,"ain":471,"ĠĠĠĠĠĠĠ":472,"ity":473,"un":474,"iv":475,"ĠD":476,"Ġr":477,"ĠW":478,"ĠR":479,"ant":480,"ive":481,"Ġsu":482,"--":483,"ew":484,"and":485,"Ġse":486,"oc":487,"Ġfrom":488,"Ġnot":489,"ĠE":490,"ight":491,"ies":492,"Ġthis":493,"Ġal":494,"pe":495,"ĠN":496,"pt":497,"art":498,"'s":499,"pl":500,"ud":501,"Ġ{":502,"ĠL":503,"red":504,"Ġsh":505,"Ġch":506,"end":507,"Ġcan":508,"Ġhave":509,"ĠG":510,"all":511,"ould":512,"og":513,"ure":514,"ction":515,"te":516,"Ġle":517,"ine":518,"age":519,"ame":520,"ial":521,"rou":522,"ich":523,"ag":524,"out":525,"ard":526,"our":527,"ust":528,"Ġus":529,"ical":530,");":531,"ass":532,"ost":533,"The":534,"imp":535,"ĠO":536,"ated":537,"iz":538,"Ġk":539,"ff":540,"Ġab":541,"ome":542,"ind":543,"Ġne":544,"per":545,"ue":546,"Ġcl":547,"ult":548,"Ġwhe":549,"ide":550,"ther":551,"Ġwor":552,"Ġall":553,"Ġdo":554,"act":555,"Ġwhich":556,"orm":557,"ans":558,"Ġpl":559,"ast":560,"ack":561,"Ġme":562,"Ġbut":563,"##":564,"cl":565,"ib":566,"Âł":567,"ile":568,"Ġres":569,"ap":570,"able":571,"ĠĠĠĠĠĠĠĠĠĠĠ":572,"ak":573,"ions":574,"Ġ3":575,"ub":576,"Ġ0":577,"ous":578,"int":579,"ok":580,"ong":581,"Ġhis":582,"ĠJ":583,"Ġ<":584,"Ġj":585,"ear":586,"Ġcomp":587,"Ġ}":588,"ĠU":589,").":590,"con":591,"Ġad":592,"\",":593,"are":594,"ip":595,"..":596,"du":597,"ex":598,"Ġ-":599,"cc":600,"one":601,"Ġwere":602,"Ġint":603,"ase":604,"gh":605,"ry":606,"Ġen":607,"av":608,"Ġthey":609,"ations":610,"Ġwill":611,"ary":612,"ĠâĢ":613,"ime":614,"Ġdis":615,"Ġcont":616,"ĠIn":617,"ice":618,"ord":619,"Ġhas":620,"ber":621,"Ġif":622,"Ġone":623,"Ġ'":624,"ign":625,"Ġso":626,"Ġtheir":627,"ep":628,"âĢĻ":629,"ance":630,"Ġapp":631,"ress":632,"Ġgo":633,"ere":634,"ose":635,"ach":636,"Ġper":637,"ally":638,"Ġmore":639,"ount":640,"ace":641,"ĠTh":642,"Ġout":643,"Ġyour":644,"so":645,"Ġup":646,"ĉĉ":647,"ents":648,"vel":649,"ia":650,"ence":651,"Ġ[":652,"Ġman":653,"ition":654,"ite":655,"Ġun":656,"ire":657,"Ġother":658,"Ġqu":659,"ru":660,"ake":661,"very":662,"ory":663,"Ġar":664,"//":665,"Ġ$":666,"ell":667,"Ġhad":668,"ang":669,"lic":670,"own":671,"form":672,"au":673,"ĠĠĠĠĠĠĠĠĠĠĠĠĠĠĠĠ":674,"ound":675,"),":676,"Ġsp":677,"ook":678,"\":":679,"Ġsc":680,"ata":681,"ens":682,"urn":683,"Ġ4":684,"ks":685,"reat":686,"ike":687,"ĠSt":688,"ph":689,"ie":690,"Ġtr":691,"Ġthere":692,"ild":693,"ail":694,"Ġimp":695,"Ġev":696,"Ġwho":697,"we":698,"ree":699,"Ġ5":700,"'t":701,"Ġpart":702,"ors":703,"ath":704,"Ġthan":705,"com":706,"Ġ19":707,"Ġmy":708,"Ġwould":709,"ĠV":710,"iff":711,"ĠK":712,"Ġabout":713,"=\"":714,"Ġwhen":715,"ater":716,"erv":717,"Ġpre":718,"Ġkn":719,"01":720,"Ġthem":721,"ĠĠĠĠĠ":722,"ces":723,"wo":724,"ject":725,"Ġalso":726,"Ġbeen":727,"Ġpo":728,"row":729,"Ġsy":730,"ays":731,"Ġ*":732,"Ġag":733,"Ġsome":734,"ish":735,"Ġtime":736,"Ġno":737,"Ġany":738,"Ġnum":739,"ari":740,"----":741,"ft":742,"Ġnew":743,"lo":744,"ĠIt":745,"ont":746,"Ġsa":747,"Ġuse":748,"Ġ+":749,"ring":750,"Ġinto":751,"ove":752,"nder":753,"cre":754,"Ġstud":755,"irst":756,"get":757,"Ġbet":758,"Ġspe":759,"ates":760,"Ġlike":761,"old":762,"ys":763,"ric":764,"Ġher":765,"vers":766,"Ġfo":767,"ck":768,"ms":769,"the":770,"Ġits":771,"Ġro":772,"Ġdiff":773,"In":774,"Ġover":775,"ĠCh":776,"Ġ\\":777,"stem":778,"Ġra":779,"lect":780,"ings":781,"Ġmay":782,"Ġpe":783,"ble":784,"ĠY":785,"xt":786,"Ġ.":787,"ink":788,"ull":789,"Ġget":790,"ific":791,"les":792,"Ġcomm":793,"Ġind":794,"amp":795,"Ġtwo":796,"Ġob":797,"Ġyear":798,"**":799,"Ġam":800,"Ġco":801,"Ġonly":802,"Ġwork":803,"Ġwhat":804,"hed":805,"Ġhow":806,"Ġi":807,"ution":808,"fter":809,"Ġdes":810,"ian":811,"eth":812,"ty":813,"Ġclass":814,"ons":815,"Ġbec":816,"mer":817,"ener":818,"ual":819,"ause":820,"Ġtra":821,"ient":822,"Ġexp":823,"rit":824,"Ġthese":825,"Ġacc":826,"sel":827,"clud":828,"tern":829,"()":830,"iew":831,"ative":832,"Ġmod":833,"rib":834,"Ġte":835,"round":836,"Ġcons":837,"Ġcol":838,"ick":839,"Ġval":840,"âĢĿ":841,"Ġrel":842,"ef":843,"Ġset":844,"Ġrep":845,"ange":846,".\"":847,"ark":848,"ec":849,"Ġpos":850,"Ġthen":851,"olog":852,"igh":853,"ĠThis":854,"Ġunder":855,"Ġ6":856,"Ġret":857,"Ġfirst":858,"erm":859,"ough":860,"ov":861,"ize":862,"ram":863,"Ġact":864,"ople":865,"ng":866,"ert":867,"Ġpr":868,"ĠĠĠĠĠĠĠĠĠĠĠĠĠĠĠ":869,"ced":870,"ied":871,"ular":872,"ublic":873,"Ġsuch":874,"Ġhim":875,"Ġoff":876,"Ġass":877,"Ġim":878,"Ġadd":879,"Ġshe":880,"unction":881,"Ġused":882,"Ġrec":883,"Ġdiffere":884,"Ġour":885,"Ġjust":886,"Ġneed":887,"Ġmost":888,"oth":889,"put":890,"Ġph":891,"iss":892,"cess":893,"Ġcould":894,"ps":895,"ne":896,"ween":897,"Ġsub":898,"ating":899,"ise":900,"ode":901,"Ġfe":902,"ĠHe":903,"ics":904,"Ġback":905,"ffect":906,"ning":907,"ments":908,"ss":909,"ax":910,"ious":911,"Ġ10":912,"rough":913,"Ġform":914,"__":915,"Ġwhere":916,"Ġreg":917,"ext":918,"ock":919,"Ġdef":920,"Ġfl":921,"Ġpeople":922,"ower":923,"Ġshould":924,"==":925,"ility":926,"Ġ200":927,"ible":928,"ond":929,"fore":930,"hat":931,"St":932,"Ġknow":933,"Ġbetween":934,"Ġx":935,"Ġbl":936,"cept":937,"ased":938,"ities":939,"Ġtrans":940,"ob":941,"Ġrem":942,"Ġnumber":943,"Ġsaid":944,"itt":945,"cy":946,"Ġem":947,"ren":948,"als":949,"llow":950,"Ġinter":951,"ade":952,"px":953,"sh":954,"Ġspec":955,"ict":956,"aw":957,"uch":958,"Ġinst":959,"import":960,"Ġsm":961,"',":962,"Ġ7":963,"Ġ201":964,"Ġthrough":965,"Ġac":966,"Ġconst":967,"Ġafter":968,"hen":969,"Ġsystem":970,"Ġprodu":971,"ĠâĢľ":972,"Ġmany":973,"Ġinclud":974,"ures":975,"Ġdata":976,"gin":977,"Ġreturn":978,"</":979,"ational":980,"Ġresult":981,"Ġatt":982,"its":983,"Ġprov":984,"hes":985,"Ġ8":986,",\"":987,"up":988,"Ġsee":989,"velop":990,"10":991,"Ġeach":992,"Ġequ":993,"other":994,"(\"":995,"ample":996,"ĠUn":997,"arch":998,"ÂłÂł":999,"to":1000,"Ġusing":1001,"Ġke":1002,"Ġpres":1003,"Ġinv":1004,"Ġdist":1005,"Ġsur":1006,"Ġ|":1007,"ever":1008,"wn":1009,"Ġfunction":1010,"ix":1011,"self":1012,"Ġsol":1013,"cent":1014,"Ġinf":1015,"iel":1016,"Ġwell":1017,"ues":1018,"app":1019,"Ġsupp":1020,"ract":1021,"Ġsame":1022,"Ġvery":1023,"Ġty":1024,"Ġdet":1025,"Ġway":1026,"pr":1027,"Th":1028,"io":1029,"Ġfind":1030,"uring":1031,"oy":1032,"Ġfollow":1033,"Ġmake":1034,"ork":1035,"Ġbu":1036,"de":1037,"Ġ/":1038,"ife":1039,"sp":1040,"ily":1041,"Ġvari":1042,"Ġgra":1043,"Ġpoint":1044,"Ġcur":1045,"Ġlong":1046,"Ġresp":1047,"ght":1048,"Ġend":1049,"Ġdifferent":1050,"Ġsign":1051,"ident":1052,"Ġ#":1053,"Ġyears":1054,"Ġbecause":1055,"Ġ9":1056,"Ġcor":1057,"Ġgener":1058,"ages":1059,"Ġdoes":1060,"ful":1061,"Ġcall":1062,"Ġchild":1063,"Ġhel":1064,"Ġshow":1065,"ield":1066,"Ġ&":1067,"Ġeven":1068,"sc":1069,"Ġfound":1070,"ton":1071,"ĠWe":1072,"ten":1073,"\">":1074,"ĠPro":1075,"ool":1076,"riv":1077,"ited":1078,"Ġdid":1079,"Ġcent":1080,"Ġhigh":1081,"Ġevery":1082,"Ġright":1083,"Ġext":1084,"ature":1085,"read":1086,"alth":1087,"Ġdown":1088,"text":1089,"Ġlook":1090,"Ġdevelop":1091,"Ġâ":1092,"ave":1093,"inal":1094,"Ġmin":1095,"Ġfact":1096,"Ġnow":1097,"12":1098,"Ġinte":1099,"ined":1100,"ĠIf":1101,"led":1102,"Ġrequ":1103,"ĠRe":1104,"vent":1105,"ĠâĢĵ":1106,"Ġ18":1107,"Ġmuch":1108,"ody":1109,"imes":1110,"Ġpublic":1111,"Ġproble":1112,"000":1113,"Ġpat":1114,"ER":1115,"19":1116,"ĠAn":1117,"ute":1118,"ually":1119,"ather":1120,"Ġent":1121,"sw":1122,"Ġmat":1123,"ines":1124,"ward":1125,"Ġcount":1126,"ically":1127,"rent":1128,"Ġlar":1129,"Ġimport":1130,"Ġear":1131,"Ġthose":1132,"Ġgiv":1133,"Ġref":1134,"ting":1135,"Ġdi":1136,"...":1137,"uth":1138,"Ġagain":1139,"eng":1140,"Ġcar":1141,"cond":1142,"ince":1143,"Ġgreat":1144,"ox":1145,"ants":1146,"Ġ:":1147,"ĠAl":1148,"20":1149,"gg":1150,"nce":1151,"Ġchar":1152,"Ġbel":1153,"ood":1154,"div":1155,"der":1156,"ts":1157,"Ġincre":1158,"Ġsl":1159,"cul":1160,"--------":1161,"ption":1162,"ection":1163,"pro":1164,"Ġ20":1165,"uc":1166,"ness":1167,"ists":1168,"air":1169,"Ġboth":1170,"Ġeffect":1171,"lex":1172,"Ġbeing":1173,"Ġtest":1174,"of":1175,"gan":1176,"Ġgood":1177,"ĠHow":1178,"formation":1179,"aking":1180,"Ġbefore":1181,"Ġhand":1182,"ized":1183,"Ġpers":1184,"ruct":1185,"ins":1186,"land":1187,"Ġed":1188,"ĠFor":1189,"Ġche":1190,"meric":1191,"Ġhelp":1192,"roup":1193,"be":1194,"val":1195,"Ġmon":1196,"ĠAnd":1197,"err":1198,"ases":1199,"Ġel":1200,"Ġdep":1201,"oci":1202,"ern":1203,"oid":1204,"Ġmade":1205,"ale":1206,"ĠCom":1207,"ger":1208,"ash":1209,"col":1210,"lement":1211,"Ġwant":1212,"ner":1213,"Ġquest":1214,"Ġ//":1215,"ource":1216,"Ġloc":1217,"ism":1218,"11":1219,"gy":1220,"Ġdon":1221,"Ġread":1222,"add":1223,"Ġsom":1224,"Ġprog":1225,"play":1226,"Ġdisc":1227,"ier":1228,"und":1229,"bers":1230,"Ġpar":1231,"Ġthink":1232,"Ġpartic":1233,"Ġwhile":1234,"ĠBut":1235,"ared":1236,"Ġcre":1237,"Ġown":1238,"Ġop":1239,"Ġwater":1240,"('":1241,"ator":1242,"ethod":1243,"Ġcell":1244,"ray":1245,"ved":1246,"It":1247,"Ġdire":1248,"rol":1249,"Ġexper":1250,"port":1251,"ience":1252,"any":1253,"Ġposs":1254,".,":1255,"Ġdec":1256,"Ġser":1257,"Ġconf":1258,"Ġcal":1259,"Ġstudy":1260,"set":1261,"Ġmodel":1262,"Ġappro":1263,"Ġprocess":1264,"ices":1265,"ural":1266,"``":1267,"();":1268,"over":1269,"ĠAmeric":1270,"Ġthree":1271,"Ġstr":1272,"],":1273,"Ġname":1274,"Ġvalue":1275,"Ġstate":1276,"ology":1277,"Ġet":1278,"Ġstart":1279,"ven":1280,"].":1281,"Ġmar":1282,"way":1283,"Ġ</":1284,"Ġmed":1285,"Ġline":1286,"pos":1287,"Ġsmall":1288,"ĠFile":1289,"atic":1290,"Ġworld":1291,"par":1292,"chn":1293,"50":1294,"ĠAr":1295,"))":1296,"ired":1297,"not":1298,"Ġlevel":1299,"Ġ_":1300,"me":1301,"Ġplay":1302,"Ġpol":1303,"Ġmust":1304,"ĠYou":1305,"chool":1306,"let":1307,"ĠĠĠĠĠĠĠĠĠĠĠĠĠĠĠĠĠĠĠ":1308,"right":1309,"rest":1310,"ank":1311,"},":1312,"cial":1313,"ĠAs":1314,"dd":1315,"ĠĠĠĠĠĠĠĠĠ":1316,"ON":1317,"ĠX":1318,"Ġrese":1319,"arm":1320,"Ġ12":1321,"cont":1322,"ouse":1323,"Ġsim":1324,"Ġexpl":1325,"ĠQ":1326,"ider":1327,"ctions":1328,"Ġstill":1329,"ify":1330,"view":1331,"min":1332,"Ġhere":1333,"Ġhum":1334,"ving":1335,"ets":1336,"Ġlife":1337,"ser":1338,"Ġlet":1339,"man":1340,"Ġtake":1341,"Ġsay":1342,"ides":1343,"ected":1344,"Ġmain":1345,"ittle":1346,"Ġday":1347,"Ġpass":1348,"Ġav":1349,"Ġca":1350,"Ġinformation":1351,"ĠSe":1352,"line":1353,"Ġduring":1354,"Ġart":1355,"This":1356,"ug":1357,"Ġless":1358,"AT":1359,"ters":1360,"Ġmem":1361,"Ġrun":1362,"IN":1363,"Ġanal":1364,"ential":1365,"ished":1366,"Ġest":1367,"Ġtri":1368,"Ġgu":1369,"less":1370,"ĠThey":1371,"Ġsecond":1372,"ivers":1373,"Ġexample":1374,"Ġpower":1375,"stand":1376,"ĠThere":1377,"ality":1378,"Ġmight":1379,"Ġfam":1380,"âĢ¢":1381,"rac":1382,"Ġcase":1383,"Ġmet":1384,"akes":1385,"for":1386,"name":1387,"uss":1388,"ron":1389,"elf":1390,"ret":1391,"Ġold":1392,"ency":1393,"ah":1394,"ains":1395,"Ġmethod":1396,"://":1397,"Ġocc":1398,"Name":1399,"here":1400,"Ġwithout":1401,"ĠNew":1402,"ffic":1403,"ote":1404,"ross":1405,"ves":1406,"Ġpop":1407,"Ġlast":1408,"###":1409,"ained":1410,"acter":1411,"ĠEx":1412,"Ġ>":1413,"Ġserv":1414,"lear":1415,"oh":1416,"Ġmeas":1417,"Ġtext":1418,"ety":1419,"Ġgiven":1420,"ral":1421,"Ġ=>":1422,"lete":1423,"ars":1424,"ead":1425,"ulation":1426,"13":1427,"ration":1428,"swer":1429,"idth":1430,"Ġword":1431,"alk":1432,"ability":1433,"day":1434,"ivid":1435,"Ġstand":1436,"}{":1437,"ought":1438,"ered":1439,"ision":1440,"ane":1441,"Ġhealth":1442,"ems":1443,"ason":1444,"ystem":1445,"Ġlead":1446,"iles":1447,"ization":1448,"Ġ,":1449,"ives":1450,"Ġ15":1451,"Ġtem":1452,"Ġdesc":1453,"iqu":1454,"imate":1455,"Ġsk":1456,"Ġperson":1457,"Ġlittle":1458,"Ġbo":1459,"ense":1460,"iron":1461,"Ġlear":1462,"Ġcalled":1463,"order":1464,"ows":1465,"18":1466,"itions":1467,"AR":1468,"oss":1469,"ĠCon":1470,"ression":1471,"Ġtype":1472,"tt":1473,"ames":1474,"ott":1475,"ĠĠĠĠĠĠ":1476,"Ġcond":1477,"atch":1478,"reen":1479,"):":1480,"itive":1481,"Ġz":1482,"Ġanother":1483,"ĠSc":1484,"son":1485,"Ġlist":1486,"irc":1487,"oint":1488,"We":1489,"Ġins":1490,"serv":1491,"Ġproblem":1492,"ified":1493,"15":1494,"25":1495,"Ġlarge":1496,"16":1497,"Ġcurrent":1498,"ik":1499,"Ġgen":1500,"ĠWh":1501,"Ġpresent":1502,"aj":1503,"Ġreport":1504,"duct":1505,"Ġtoo":1506,"Ġplace":1507,"ES":1508,"ument":1509,"Ġ--":1510,"med":1511,"ivity":1512,"ength":1513,"Ġrest":1514,"Ġ@":1515,"Ġmult":1516,"Ġtechn":1517,"Ġself":1518,"Ġchildren":1519,"ium":1520,"Ġaround":1521,"ĠSh":1522,"Ġcontin":1523,"pon":1524,"Ġhead":1525,"met":1526,"Ġfollowing":1527,"orn":1528,"rid":1529,"Ġcour":1530,"Ġgrow":1531,"raph":1532,"Ġfew":1533,"ole":1534,"****":1535,"rop":1536,"Ġtry":1537,"Ġopen":1538,"Ġsupport":1539,"Ġimportant":1540,"ways":1541,"Ġmean":1542,"Ġ16":1543,"ertain":1544,"az":1545,"->":1546,"Id":1547,"Ġ`":1548,"yle":1549,"igure":1550,"Ġleft":1551,"tr":1552,"Ġchange":1553,"$$":1554,"Ġorder":1555,"Ġhist":1556,"Ġwom":1557,"rain":1558,"ground":1559,"ĠDe":1560,"Ġmen":1561,"ients":1562,"Ġdirect":1563,"Ġreal":1564,"Pro":1565,"cer":1566,"ĠIs":1567,"Ġ)":1568,"Ġperform":1569,"Ġturn":1570,"ĠApp":1571,"roll":1572,"Ġtreat":1573,"ccess":1574,"14":1575,"OR":1576,"agn":1577,"bl":1578,"hem":1579,"ĠÎ":1580,"ird":1581,"yn":1582,"wh":1583,"âĢĶ":1584,"Ġdev":1585,"Ġchang":1586,"oun":1587,"Ġ100":1588,"Ġtop":1589,"ital":1590,"ination":1591,"ĉĉĉĉ":1592,"Ġcare":1593,"\")":1594,"Ġeas":1595,"ript":1596,"Ġdem":1597,"Ġwrit":1598,"Ġsince":1599,"Ġinc":1600,"ĠInd":1601,"Ġredu":1602,"ury":1603,"arent":1604,"Ġcommun":1605,"ĠâĪ":1606,"Ġbeh":1607,"====":1608,"Ch":1609,"Ġquestion":1610,"To":1611,"Ġobject":1612,"type":1613,"NA":1614,"vern":1615,"ĠÂ":1616,"Ġoften":1617,"Ġelect":1618,"ĠWhat":1619,"els":1620,"ither":1621,"Ġgroup":1622,"face":1623,"Ġvis":1624,"Ġbre":1625,"ething":1626,"ior":1627,"Ġtrue":1628,"Ġdesign":1629,"ĠLe":1630,"Ġschool":1631,"Ex":1632,"ĠÐ":1633,"resent":1634,"::":1635,"bo":1636,"Ġoper":1637,"hip":1638,"Ġcommon":1639,"Ġprot":1640,"Ġstudents":1641,"ran":1642,"ery":1643,"ĠTo":1644,"Ġide":1645,"Ġpur":1646,"rad":1647,"ends":1648,"Ġcalcul":1649,"Ġinterest":1650,"Ġhy":1651,"lu":1652,"Ġ199":1653,"ples":1654,"ware":1655,"requ":1656,"Ġresults":1657,"Ġlight":1658,"Ġgovern":1659,"lish":1660,"Ġadv":1661,"Ġarea":1662,"ional":1663,"ĠCl":1664,"Ġnon":1665,"ently":1666,"Ġpost":1667,"Ġnever":1668,"ilar":1669,"by":1670,"ask":1671,"frac":1672,"30":1673,"Ġpossible":1674,"Ġcap":1675,"viron":1676,"Ġproper":1677,"Ġunderstand":1678,"ably":1679,"ived":1680,"Ġlo":1681,"Ġris":1682,"Ġbetter":1683,"Ġsimp":1684,"Re":1685,"olution":1686,"ww":1687,"Ġput":1688,"Ġhapp":1689,"iod":1690,"ope":1691,"att":1692,"Ġproduct":1693,"'m":1694,"Ġvol":1695,"eter":1696,"Ġanswer":1697,"vious":1698,"EN":1699,"aterial":1700,"ault":1701,"outh":1702,"alse":1703,"Ġwithin":1704,"Ġident":1705,"Ġve":1706,"Ġgl":1707,"Ġprob":1708,"error":1709,"ĠEng":1710,"17":1711,"Ġknown":1712,"Ġunt":1713,"Ġlim":1714,"Ġconn":1715,"ek":1716,"Ġfield":1717,"Ġincluding":1718,"Con":1719,"Ġbook":1720,"ots":1721,"Ġcontrol":1722,"Ġsignific":1723,"Ġkey":1724,"Ġlaw":1725,"Ġ17":1726,"Ġbest":1727,"thing":1728,"Ġelse":1729,"ĠSp":1730,"Ġhuman":1731,"str":1732,"'re":1733,"ured":1734,"Ġgoing":1735,"ergy":1736,"Ġlow":1737,"Ġhard":1738,"ording":1739,"Ġsum":1740,"An":1741,"li":1742,"Ġfull":1743,"cell":1744,"Ġfin":1745,"Ġhig":1746,"Ġagainst":1747,"Ġcome":1748,"Ġland":1749,"If":1750,"ann":1751,"rc":1752,"log":1753,"rivate":1754,"osed":1755,"Ġant":1756,"Ġthings":1757,"lood":1758,"Ġiss":1759,"Ġsomething":1760,"Ġlog":1761,"uthor":1762,"Ġprof":1763,"Ġaut":1764,"Ġview":1765,"Com":1766,"vert":1767,"ST":1768,"Ġsing":1769,"iversity":1770,"Ġbody":1771,"Ġmark":1772,"ume":1773,"But":1774,"Ġ14":1775,"Ġfour":1776,"mb":1777,"Ġbuild":1778,"esc":1779,"ule":1780,"Ġsw":1781,"Ġbelie":1782,"Ġask":1783,"Ġdeterm":1784,"raw":1785,"Ġabove":1786,"comm":1787,"inc":1788,"Ġbas":1789,"angu":1790,"use":1791,"Ġter":1792,"idd":1793,"ĠZ":1794,"Ġorig":1795,"Ġresearch":1796,"Ġtimes":1797,"bs":1798,"ateg":1799,"24":1800,"Ġtyp":1801,"ysis":1802,"Ġsays":1803,"Ġcolor":1804,"ries":1805,"mod":1806,"conom":1807,"ĠSo":1808,"data":1809,"AN":1810,"ention":1811,"aps":1812,"ats":1813,"Ġorgan":1814,"ava":1815,"Ġbased":1816,".âĢĿ":1817,"vironment":1818,"Ġsever":1819,"Ġcomput":1820,"Ġcorre":1821,"####":1822,"80":1823,"Ġdel":1824,"ctor":1825,"abel":1826,"ĠAmerican":1827,"33":1828,"ised":1829,"Ġwar":1830,"Ġfood":1831,"work":1832,"Ġfile":1833,"ĠRes":1834,"ggest":1835,"rem":1836,"Ġhome":1837,"Cont":1838,"Ġprogram":1839,"itle":1840,"Ġenergy":1841,"Ġ30":1842,"Ġbro":1843,"essage":1844,"version":1845,"Ġreally":1846,"gs":1847,"\";":1848,"Ġfar":1849,"Ġapplic":1850,"Ġnext":1851,"Ġsit":1852,"Ġpercent":1853,"ĠPh":1854,"Ġdise":1855,"Ð¾":1856,"ission":1857,"Ġalways":1858,"Ġtot":1859,"ocial":1860,"Ġnear":1861,"Ġpot":1862,"ĠWhen":1863,"____":1864,"ee":1865,"py":1866,"htt":1867,"dis":1868,"For":1869,"Ġwr":1870,"urther":1871,"Ġproject":1872,"Ġaddition":1873,"ources":1874,"ĠHowever":1875,"orth":1876,"iness":1877,"ining":1878,"ler":1879,"ards":1880,"ailable":1881,"ream":1882,"used":1883,"Ġkeep":1884,"Ġmeans":1885,"plic":1886,"Ġside":1887,"cur":1888,"hers":1889,"Ġmov":1890,"Ġsize":1891,"22":1892,"ided":1893,"Ġupon":1894,"uro":1895,"Ġfree":1896,"Ġnumbers":1897,"Ġ{\"":1898,"Ġphys":1899,"Ġsignificant":1900,"Ġcells":1901,"ajor":1902,"left":1903,"Ġele":1904,"icle":1905,"ID":1906,"Ġopp":1907,"Ġwind":1908,"Ġ11":1909,"Ġmove":1910,"ush":1911,"')":1912,"rove":1913,"cing":1914,"{\\":1915,"Ġmonth":1916,"ged":1917,"Ġsuggest":1918,"Ġthought":1919,"ables":1920,"ended":1921,"Ġfore":1922,"Ð°":1923,"atus":1924,"âĢĵ":1925,"Ġpract":1926,"ories":1927,"Ġseveral":1928,"Ġallow":1929,"ĠĠĠĠĠĠĠĠĠĠĠĠĠĠĠĠĠĠĠĠĠĠĠ":1930,"umn":1931,"ians":1932,"ĠOn":1933,"Ġ==":1934,"Ġable":1935,"You":1936,"List":1937,"Ġey":1938,"Ġparticular":1939,"ividual":1940,"Ġplan":1941,"Ġair":1942,"ering":1943,"imal":1944,"Ġrad":1945,"Ðµ":1946,"ape":1947,"Ġshort":1948,"Ġdays":1949,"idence":1950,"'ve":1951,"rist":1952,"Ġamong":1953,"word":1954,"Ġfont":1955,"Ġcertain":1956,"ĠThese":1957,"ploy":1958,"ological":1959,"Ġcost":1960,"ively":1961,"Ġmill":1962,"alf":1963,"Ġ13":1964,"âĢľ":1965,"Ġ25":1966,"Ġuntil":1967,"ene":1968,"Ġstruct":1969,"arget":1970,"Ġspace":1971,"200":1972,"though":1973,"size":1974,"Ġhour":1975,"ormal":1976,"Ġcho":1977,"date":1978,"40":1979,"Ġgive":1980,"count":1981,"aster":1982,"af":1983,"Ġleast":1984,"ĠMac":1985,"reg":1986,"ĠCol":1987,"Ġoccur":1988,"ius":1989,"Ġperiod":1990,"Ġrece":1991,"Ġcharacter":1992,"most":1993,"Ġnull":1994,"erence":1995,"||":1996,"Ġtell":1997,"Ġinvol":1998,"ĠAll":1999,"ĠShe":2000,"oms":2001,"ait":2002,"co":2003,"AL":2004,"Ġappear":2005,"print":2006,"RE":2007,"\");":2008,"lease":2009,"ember":2010,"Ġvalues":2011,"As":2012,"Ġnet":2013,"ribut":2014,"ĠPl":2015,"ÂłÂłÂłÂł":2016,"Ġthough":2017,"AS":2018,"Ġsimilar":2019,"br":2020,"Ġaway":2021,"Ġpa":2022,"Ġpress":2023,"Cl":2024,"ĠAt":2025,"={":2026,"Ġpath":2027,"Ġobserv":2028,"Ġcr":2029,"ina":2030,"Ġrepresent":2031,"Ġconsider":2032,"ey":2033,"iver":2034,"Ġcountry":2035,"this":2036,"aken":2037,"....":2038,"Ġmaterial":2039,"ately":2040,"ending":2041,"Ġuser":2042,"23":2043,"][":2044,"color":2045,"new":2046,"Ġcomb":2047,"Ġopt":2048,"And":2049,"Ġcirc":2050,"ĠĠĠĠĠĠĠĠĠĠĠĠĠ":2051,"ref":2052,"Ġindividual":2053,"Ġlocal":2054,"rodu":2055,"Ġgovernment":2056,"?\"":2057,"Ġmus":2058,"Ġdescrib":2059,"ml":2060,"ification":2061,"fo":2062,"ences":2063,"Ġavailable":2064,"Ġindic":2065,"Ġtotal":2066,"Ġstep":2067,"Ġtre":2068,"Ġassoci":2069,"60":2070,"ograph":2071,"By":2072,"head":2073,"lished":2074,"ances":2075,"ĠUS":2076,"Ġdevelopment":2077,"my":2078,"Ġdisplay":2079,"icro":2080,"Ġdone":2081,"ibr":2082,"Ġaccount":2083,"ype":2084,"ĠThat":2085,"Ġearly":2086,"Ġwomen":2087,"aces":2088,"Ġwhy":2089,"Ġbackground":2090,"Ġinvest":2091,"Ġbi":2092,"Ġsure":2093,"ental":2094,"load":2095,"ma":2096,"Ġfeel":2097,"What":2098,"ĠÃ":2099,"yl":2100,"LE":2101,"but":2102,"Ġsqu":2103,"Ġdri":2104,"osp":2105,"Ġsuccess":2106,"Ġclear":2107,"Ġmass":2108,"iter":2109,"Ġposition":2110,"Ġterm":2111,"----------------":2112,"Ġpatients":2113,"Ġenough":2114,"atural":2115,"Ġyoung":2116,"Ġprivate":2117,"ohn":2118,"fl":2119,"Ġcame":2120,"aining":2121,"verage":2122,"Ġhaving":2123,"une":2124,"Ġkind":2125,"bal":2126,"Ġinclude":2127,"Ġfamily":2128,"Ġpred":2129,"There":2130,"}}":2131,"Ġfil":2132,"Ġmajor":2133,"ids":2134,"Ġgeneral":2135,"'ll":2136,"lection":2137,"lected":2138,"ĠOr":2139,"itor":2140,"Ġlater":2141,"Ġeng":2142,"ling":2143,"Ġproblems":2144,"ĠUniversity":2145,"Ġdue":2146,"omet":2147,"ready":2148,"arc":2149,"mp":2150,"Ġmargin":2151,"Ġinit":2152,"Ġamount":2153,"ude":2154,"Ġgot":2155,"Ġexist":2156,"Ġeduc":2157,"';":2158,"Ġ50":2159,"Ġexam":2160,"back":2161,"aut":2162,"Ġage":2163,"Ġcourse":2164,"Ġeconom":2165,"action":2166,"ĠAd":2167,"ĠCan":2168,"ME":2169,"Ġeither":2170,"etic":2171,"201":2172,"epend":2173,"Ġprom":2174,"Ġcreate":2175,"pecial":2176,"Ġhigher":2177,"Ġrange":2178,"Ġabs":2179,"ored":2180,"Ġrate":2181,"Ġprint":2182,"ĠMr":2183,"ĠUnited":2184,"HE":2185,"oney":2186,"eb":2187,"Ġalong":2188,"anguage":2189,"iving":2190,"Ġrisk":2191,"Ġbus":2192,"ĠSystem":2193,"\".":2194,"Ġbecome":2195,"inter":2196,"IT":2197,"Ġenvironment":2198,"Ġid":2199,"por":2200,"Ġfri":2201,"unt":2202,"String":2203,"Ġreason":2204,"su":2205,"Ġaccess":2206,"Ġmax":2207,"ĠâĢ¢":2208,"def":2209,"Ġthing":2210,"using":2211,"Ġblood":2212,"Ġonce":2213,"code":2214,"Al":2215,"Ġbegin":2216,"opy":2217,"hy":2218,"ĉĉĉ":2219,"stit":2220,"Ġsingle":2221,"atures":2222,"fe":2223,"Ġanalysis":2224,"Ġprovide":2225,"ted":2226,"ocument":2227,"Ġla":2228,"ĠRep":2229,"Ġothers":2230,"Ġtemper":2231,"Ġang":2232,"View":2233,"Ġleg":2234,"Ġworks":2235,"Ġheart":2236,"ription":2237,"ones":2238,"Ġlearn":2239,"Ġwidth":2240,"Ġdeg":2241,"Ġseen":2242,"Ð¸":2243,"ogn":2244,"Res":2245,"ison":2246,"Ġhowever":2247,"ĠComm":2248,"Ġstring":2249,"Ġcomplete":2250,"ĠQu":2251,"Ġtreatment":2252,"ung":2253,"Ġ$$":2254,"ails":2255,"pped":2256,"ĠStates":2257,"ym":2258,"Ġpain":2259,"ley":2260,"Ġhistory":2261,"Ġintern":2262,"Ġcult":2263,"Ġ!":2264,",âĢĿ":2265,"II":2266,"Ġdisease":2267,"ges":2268,"ustom":2269,"side":2270,"Ġheight":2271,"ried":2272,"ception":2273,"Ġwhether":2274,"Ġbig":2275,"Ġwhole":2276,"Ġaffect":2277,"Sc":2278,"IC":2279,"Ġgame":2280,"class":2281,"iple":2282,"Ġalready":2283,"_{":2284,"Ġmeasure":2285,"Ġpotential":2286,"now":2287,"Ġsocial":2288,"How":2289,"Ġdiv":2290,"99":2291,"erc":2292,"Ġseem":2293,"Ġ},":2294,"He":2295,"Ġpoints":2296,"nces":2297,"Ġhouse":2298,"Ġrespect":2299,"atter":2300,"ĠGod":2301,"Ġcrit":2302,"Ġvoid":2303,"Ġben":2304,"Ġborder":2305,"aim":2306,"Ġstrong":2307,"Ġrecord":2308,"fficient":2309,"Ġport":2310,"hing":2311,"Ġsolution":2312,"Ġspecific":2313,"Ġes":2314,"Ġcenter":2315,"top":2316,"21":2317,"Ġmaking":2318,"'d":2319,"Ġ*/":2320,"ĠCal":2321,"istic":2322,"Ġmot":2323,"ators":2324,"Ġtoget":2325,"Ġtogether":2326,"pect":2327,"Ar":2328,"Ġcontent":2329,"aring":2330,"Ġstudies":2331,"ÑĤ":2332,"Ġyet":2333,"Ġlength":2334,"ront":2335,"roups":2336,"Ġcheck":2337,"iation":2338,"const":2339,"bt":2340,"AP":2341,"27":2342,"ĠTr":2343,"Ph":2344,"Ġimage":2345,"Ġdeath":2346,"Ġwords":2347,"Ġauthor":2348,"Ġactiv":2349,"AC":2350,"go":2351,"from":2352,"45":2353,"asing":2354,"abor":2355,"Ġneg":2356,"Ġshown":2357,"atory":2358,"icult":2359,"gen":2360,"Ġincrease":2361,"Ġtw":2362,"Data":2363,"Ġgr":2364,"Ġrather":2365,"Ġrequire":2366,"Ġchanges":2367,"Ġhalf":2368,"ully":2369,"Ġsubject":2370,"Ġspecies":2371,"Ġclose":2372,"Ġnecess":2373,"Ġever":2374,"Ġdiscuss":2375,"ĠMar":2376,"OS":2377,"ĠChrist":2378,"ches":2379,"fer":2380,"^{":2381,"ĠBe":2382,"user":2383,"ĠNo":2384,"Ġdou":2385,"Ġlay":2386,"Ġcause":2387,".)":2388,"Ġpolit":2389,"ribution":2390,"rew":2391,"Ġhold":2392,"ales":2393,"place":2394,"Ġlevels":2395,"ique":2396,"Ġill":2397,"Ġinteg":2398,"cle":2399,"ened":2400,"ottom":2401,"Ġscient":2402,"ĠJohn":2403,"Ġfurther":2404,"Ġpay":2405,"umber":2406,"Ġdom":2407,"Ġdoesn":2408,"Ġprevious":2409,"source":2410,"ounds":2411,"Ġcannot":2412,"uture":2413,"Ġ24":2414,"28":2415,"Ġ%":2416,"66":2417,"oll":2418,"Ġarg":2419,"test":2420,"Ġpopulation":2421,"orld":2422,"['":2423,"Ġrelations":2424,"Ġlower":2425,"ledge":2426,"Ġvir":2427,"Ġsuper":2428,"Ġlikely":2429,"apt":2430,"ched":2431,"Ġbelow":2432,"ister":2433,"uck":2434,"adding":2435,"ressed":2436,"urope":2437,"Ġlot":2438,"pper":2439,"\"]":2440,"enn":2441,"part":2442,"ills":2443,"Ġconditions":2444,"ä¸":2445,"Ġimm":2446,"Ġcy":2447,"Ġobt":2448,"Ġinstall":2449,"Ġpast":2450,"usion":2451,"ams":2452,"ĠBy":2453,"ilit":2454,"IS":2455,"Ġcases":2456,"rix":2457,"29":2458,"che":2459,"body":2460,"Ġbehav":2461,"Ġ\"\\":2462,"Col":2463,"Ġvarious":2464,"ips":2465,"eral":2466,"Ġrequired":2467,"ĠclassName":2468,"uff":2469,"Ġmor":2470,"Ġred":2471,"Ã©":2472,"Ġstre":2473,"ula":2474,"}\\":2475,"Ġmind":2476,"Ġfrequ":2477,"ĠOne":2478,"ibility":2479,"wards":2480,"uation":2481,"rand":2482,"Ġsurface":2483,"ĠMay":2484,"org":2485,"selves":2486,"Ġwhite":2487,"rag":2488,"Ġprim":2489,"ands":2490,"onse":2491,"ĠCent":2492,"time":2493,"26":2494,"empt":2495,"Se":2496,"100":2497,"light":2498,"Ġnatural":2499,"uses":2500,"adata":2501,"Ġtook":2502,"ls":2503,"Ġacross":2504,"imum":2505,"list":2506,"with":2507,"Ġresponse":2508,"Ġcomplex":2509,"aced":2510,"Ġsoft":2511,"ued":2512,"like":2513,"Ġfoc":2514,"Ġtable":2515,"ilt":2516,"Ġtool":2517,"ortun":2518,"Ġworking":2519,"75":2520,"hib":2521,"Ġdig":2522,"Ġ?":2523,"Ġareas":2524,"rict":2525,"Ġevent":2526,"Ġmakes":2527,"inary":2528,"Ġsent":2529,"Ġweight":2530,"Ġenc":2531,"ET":2532,"Ġforce":2533,"Ġblack":2534,"Ġsystems":2535,"file":2536,"Ġstandard":2537,"ttp":2538,"Ġspecial":2539,"ple":2540,"ror":2541,"Ġusually":2542,"sy":2543,"='":2544,"bar":2545,"Ġcorrect":2546,"']":2547,"style":2548,"Ġterms":2549,"Ġactually":2550,"Ġequal":2551,"aves":2552,"ĠTe":2553,"pecially":2554,"Ġtaken":2555,"public":2556,"ero":2557,"ĠInt":2558,"ival":2559,")\\":2560,"utes":2561,"ĠEn":2562,"ires":2563,"Ġur":2564,"key":2565,"Ġbar":2566,"ĠÂł":2567,"Ġalmost":2568,"Ġcode":2569,"Ġgroups":2570,"Ġcreat":2571,"elt":2572,"hold":2573,"Ġtarget":2574,"Ġshows":2575,"Ġwent":2576,"Ġmom":2577,"Ġtrad":2578,"Ġdifficult":2579,"Ġquestions":2580,"AD":2581,"verse":2582,"Ġsimple":2583,"Ð½":2584,"70":2585,"Ġbit":2586,"Ġrelative":2587,"utions":2588,"Ġfive":2589,"App":2590,"Ġann":2591,"ilities":2592,"Ġinput":2593,"oud":2594,"ĠPr":2595,"Ġfall":2596,"oon":2597,"Ġsens":2598,"ĠEurope":2599,"ĠâĢĶ":2600,"Ġpage":2601,"Ġfail":2602,"Ġflex":2603,"ION":2604,"ĠÏ":2605,"ĠString":2606,"Ġvar":2607,"Ġmoney":2608,"Ġexperim":2609,"35":2610,"ĠCont":2611,"Ġinflu":2612,"ession":2613,"itude":2614,"lobal":2615,"ump":2616,"Ġcut":2617,"ĠGe":2618,"ĠWith":2619,"Ġoffic":2620,"Ġface":2621,"Ġnormal":2622,"Ġfalse":2623,"Mod":2624,"Ġparent":2625,"rap":2626,"sequ":2627,"ĠEnglish":2628,"chan":2629,"Ġmillion":2630,"Ġprevent":2631,"agement":2632,"ãģ":2633,"Ġcity":2634,"osit":2635,"ĠNational":2636,"Ġpub":2637,"Ġphot":2638,"Ġbreak":2639,"Ġconc":2640,"ĠCar":2641,"ising":2642,"Ġground":2643,"Ġsrc":2644,"RO":2645,"Ġsource":2646,"ift":2647,"Ġnight":2648,"Ġpositive":2649,"ruction":2650,"ibrary":2651,"ĠGerm":2652,"Ġeffects":2653,"Ġ[\"":2654,"ideo":2655,"Ġcancer":2656,"AM":2657,"ĠMed":2658,"Text":2659,"%;":2660,"Ġgraph":2661,"down":2662,"On":2663,"Ġsym":2664,"Ġweek":2665,"Ġequation":2666,"âĢ¦":2667,"32":2668,"pre":2669,"Ġtalk":2670,"Ġlanguage":2671,"fig":2672,"idered":2673,"Ġge":2674,"Ġcomputer":2675,"Ġago":2676,"overed":2677,"36":2678,"LL":2679,"Ġitself":2680,"earch":2681,"Ġbenef":2682,"Sh":2683,"Ġerror":2684,"Ġaverage":2685,"df":2686,"ores":2687,"Ġ40":2688,"Ġlove":2689,"book":2690,"oot":2691,"Ġfuture":2692,"ĠThen":2693,"ager":2694,"Ġestab":2695,"Ġsite":2696,"metadata":2697,"ĠAf":2698,"chie":2699,"mon":2700,"Ġapproach":2701,"Ġaccording":2702,"ixed":2703,"********":2704,"iddle":2705,"istance":2706,"Ġdat":2707,"Ġconsidered":2708,"ils":2709,"Ġidea":2710,"enc":2711,"ĠBl":2712,"Ġrelated":2713,"opt":2714,"urch":2715,"return":2716,"Ġ$\\":2717,"CT":2718,"Ġspeed":2719,"ules":2720,"Ġfinal":2721,"Ġflu":2722,"Ġbusiness":2723,"ĠAss":2724,"rel":2725,"So":2726,"When":2727,"orts":2728,"ÑĢ":2729,"ĠâĪĴ":2730,"Ġflow":2731,"}$":2732,"ĠEar":2733,"output":2734,"Ġhimself":2735,"rown":2736,"Ġbecame":2737,"ï¼":2738,"ervice":2739,"men":2740,"mar":2741,"ĠBrit":2742,"Ġsequ":2743,"Ġshall":2744,"hern":2745,"eed":2746,"mit":2747,"resp":2748,"Ġrespons":2749,"Ġlink":2750,"ĠMy":2751,"Ġsepar":2752,"0000":2753,"ĠHis":2754,"ties":2755,"ĠDo":2756,"âĪ":2757,"Ġrat":2758,"Ġseems":2759,"comp":2760,"Ġut":2761,"Ġpaper":2762,"Ġhours":2763,"https":2764,"Ġneeds":2765,"ension":2766,"Ġincreased":2767,"that":2768,"Ġactivity":2769,"34":2770,"illed":2771,"itch":2772,"Ġemploy":2773,"Ġnothing":2774,"Ġassociated":2775,"Ġ/>":2776,"ĠAb":2777,"Ġparam":2778,"Ġentire":2779,"ED":2780,"Ġrole":2781,"Ġdidn":2782,"Ġversion":2783,"osis":2784,"math":2785,"Ġdifference":2786,"Ġdr":2787,"Ġprote":2788,"rams":2789,"Ġdoing":2790,"mber":2791,"Ġfac":2792,"Ġprobably":2793,"Ġcommand":2794,"Ġespecially":2795,"Ġlearning":2796,"leep":2797,"ae":2798,"ĠSome":2799,"itted":2800,"ites":2801,"64":2802,"ached":2803,"Ġsearch":2804,"Ġquick":2805,"Ġdocument":2806,"Ġindust":2807,"Ġapplication":2808,"js":2809,"iction":2810,"Ġservice":2811,"Ġscreen":2812,"Ġstory":2813,"Ġsat":2814,"Ġmeet":2815,"Ġcle":2816,"medi":2817,"ĠWar":2818,"box":2819,"Ġaddress":2820,"Ġseries":2821,"dom":2822,"ĠMan":2823,"ĠEd":2824,"Ġmatter":2825,"Ġoriginal":2826,"board":2827,"Ġdest":2828,"Ġaction":2829,"value":2830,"Ġver":2831,"ourn":2832,"loc":2833,"Ġbase":2834,"Ġexperience":2835,"Ñģ":2836,"Ġmonths":2837,"Ġfactors":2838,"Ġeyes":2839,"Ġknowledge":2840,"uild":2841,"apter":2842,"Ġneeded":2843,"itional":2844,"Ð¾Ð":2845,"ĠDis":2846,"Ġtemperature":2847,"atist":2848,"Ġfund":2849,"ĠSu":2850,"ze":2851,"Ġder":2852,"raction":2853,"reed":2854,"Ġtoday":2855,"Ġcompon":2856,"ackage":2857,"========":2858,"angle":2859,"Ġdistance":2860,"Ġnetwork":2861,"Ġparticip":2862,"ney":2863,"Ġinitial":2864,"olic":2865,"Ġeff":2866,"Ġmagn":2867,"Ġloss":2868,"];":2869,"Ġlive":2870,"Ġstates":2871,"Ġaccept":2872,"Ġquite":2873,"Ġanim":2874,"anced":2875,"Ġrelationship":2876,"Ġanything":2877,"Ġcentury":2878,"Ġexpression":2879,"Ġsett":2880,"Ġpict":2881,"Ġplant":2882,"Ġ...":2883,"ĠIm":2884,"!\"":2885,"bit":2886,"Ġchem":2887,"38":2888,"Ġflo":2889,"90":2890,"Im":2891,"fully":2892,"Ġexact":2893,"Ġhor":2894,"Ġquant":2895,"uration":2896,"Ġpadding":2897,"Ġsix":2898,"roid":2899,"Qu":2900,"Ġgrowth":2901,"Ġlooking":2902,"Ġways":2903,"ework":2904,"span":2905,"Ġimprove":2906,"display":2907,"ĠApple":2908,"ĠAfter":2909,"ociety":2910,"Ġmach":2911,"Ġrele":2912,"ober":2913,"ai":2914,"Ġbox":2915,"Ġcountries":2916,"Ġdam":2917,"input":2918,"sing":2919,"comes":2920,"Ġdefin":2921,"State":2922,"Wh":2923,"Ġfiles":2924,"off":2925,"Ġimpact":2926,"Ġteam":2927,"equ":2928,"Ġcommunity":2929,"Ġcreated":2930,"lying":2931,"ster":2932,"Ġpattern":2933,"fact":2934,"raft":2935,"Ġconcept":2936,"hemat":2937,"Ġtypes":2938,"Ġbegan":2939,"UR":2940,"Ġreported":2941,"Ġissue":2942,"ops":2943,"48":2944,"Ġarticle":2945,"ceed":2946,"Ġjob":2947,"Ġsense":2948,"Ġaw":2949,"sub":2950,"Ġpri":2951,"anks":2952,"ĠState":2953,"alt":2954,"Ġconduct":2955,"Ġregard":2956,"Ġcou":2957,"Ġbelieve":2958,"Val":2959,"ĠOS":2960,"Ġregion":2961,"iet":2962,"Ġetc":2963,"index":2964,"Ġmembers":2965,"Ġattack":2966,"Ġmother":2967,"Ġevidence":2968,"Ġpressure":2969,"oph":2970,"iol":2971,"Ġload":2972,"OT":2973,"Ġ198":2974,"Ġess":2975,"ĠĠĠĠĠĠĠĠĠĠĠĠĠĠĠĠĠĠĠĠĠĠĠĠĠĠĠ":2976,"Ġintrodu":2977,"ging":2978,"Ġthemselves":2979,"ĠNot":2980,"content":2981,"ĠAm":2982,"lation":2983,"oad":2984,"Ġthus":2985,"Ġrecogn":2986,"Ġmicro":2987,"eters":2988,"width":2989,"Ġinstead":2990,"Ġmoment":2991,"Ġpolic":2992,"izing":2993,"Ġproduction":2994,"Ġeducation":2995,"Ġeval":2996,"Ġasked":2997,"Ġdru":2998,"ura":2999,"Ġmechan":3000,"where":3001,"Ġbring":3002,"55":3003,"Ġdefault":3004,"Ġcoll":3005,"Ġcross":3006,"ĠCo":3007,"ming":3008,"Ġfactor":3009,"../":3010,"Ġprinc":3011,"ĠPer":3012,"ainer":3013,"path":3014,"Ġteac":3015,"Ġcompany":3016,"Ġ21":3017,"37":3018,"acc":3019,"lam":3020,"UT":3021,"string":3022,"Ġpie":3023,"aged":3024,"39":3025,"haps":3026,"Ġreview":3027,"asc":3028,"wise":3029,"Ġroom":3030,"rought":3031,"ening":3032,"uments":3033,"Ġwhose":3034,"Ġ2012":3035,"Ġden":3036,"ĠYork":3037,"Ġcolumn":3038,"Ġgreater":3039,"```":3040,"pose":3041,"ender":3042,"Int":3043,"Ġmodels":3044,"Ġstructure":3045,"sq":3046,"Ġachie":3047,"Type":3048,"Ġep":3049,"main":3050,"Ġwrite":3051,"aff":3052,"Ġconsum":3053,"Ġwide":3054,"Is":3055,"Ġcompared":3056,"Ġfeet":3057,"44":3058,"');":3059,"ĠIntern":3060,"exec":3061,"ĠMe":3062,"pi":3063,"unch":3064,"Ġconstant":3065,"Ġheav":3066,"Ġmethods":3067,"www":3068,"Ġsun":3069,"Ġprovided":3070,"hel":3071,"ication":3072,"User":3073,"CH":3074,"clude":3075,"acy":3076,"Ġlimit":3077,"rec":3078,"align":3079,"Ġdeveloped":3080,"Ġlines":3081,"Ġdistribution":3082,"md":3083,"All":3084,"Ġfire":3085,"Ġperformance":3086,"ĠWorld":3087,"Ġlonger":3088,"Ġwritten":3089,"Ġsquare":3090,"aving":3091,"bon":3092,"inks":3093,"ensity":3094,"Tr":3095,"augh":3096,"arr":3097,"Ġdraw":3098,"Ġrand":3099,"Ġadded":3100,"Ġbrain":3101,"05":3102,"Ġste":3103,"Ġfunctions":3104,"Ġnature":3105,"Ġdecre":3106,"Ġphysical":3107,"Ġparts":3108,"amples":3109,"IV":3110,"Ġsimply":3111,"Ġstyle":3112,"Ġpoly":3113,"Ġtold":3114,"Ġtaking":3115,"ĠAfric":3116,"do":3117,"Ġclaim":3118,"Ġimplement":3119,"Ġdecl":3120,"icon":3121,"bed":3122,"US":3123,"Ġcomes":3124,"iding":3125,"ĠPar":3126,"Ġrelig":3127,"pping":3128,"Ġcondition":3129,"ises":3130,"De":3131,"Ġcomment":3132,"Ġengine":3133,"Ġpropos":3134,"Ġquality":3135,"ĠNe":3136,"respond":3137,"uel":3138,"fect":3139,"roller":3140,"Ġwon":3141,"mark":3142,"Ġliter":3143,"Ġnecessary":3144,"ĠAmerica":3145,"Ġhom":3146,"Ġ2011":3147,"item":3148,"ĠCO":3149,"Ġgetting":3150,"ĠSouth":3151,"ivil":3152,"ĠSte":3153,"ĠStud":3154,"lay":3155,"\\\"":3156,"Ġsaw":3157,"Ġbad":3158,"ĠGu":3159,"post":3160,"reme":3161,"gor":3162,"Ġhttp":3163,"Ġsample":3164,"ository":3165,"na":3166,"Ġfather":3167,"Ġconnect":3168,"Ġrunning":3169,"Ġeasy":3170,"ponse":3171,"lick":3172,"Ġestim":3173,"cho":3174,"gest":3175,"ĠâĢĺ":3176,"Ġtax":3177,"Ġfront":3178,"Ġscience":3179,"Ġthird":3180,"erson":3181,"java":3182,"Ġrecomm":3183,"At":3184,"Ġsound":3185,"Ġmarket":3186,"Ġappl":3187,"Ġgas":3188,"Ġsomet":3189,"++":3190,"umb":3191,"Ġnational":3192,"Ġsil":3193,"acity":3194,"Ġoutput":3195,"amed":3196,"aching":3197,"mat":3198,"Ġsoon":3199,"ĠFigure":3200,"Ġmusic":3201,"Ġconcent":3202,"rm":3203,"ĠAct":3204,"pec":3205,"bra":3206,"Ġrandom":3207,"icles":3208,"Ġexpect":3209,"ensive":3210,"No":3211,"irth":3212,"Ġinvestig":3213,"ĠNorth":3214,"Ġri":3215,"ĠJan":3216,"Ġresearc":3217,"Ġdemon":3218,"Ġ2010":3219,"Ġax":3220,"rame":3221,"orks":3222,"era":3223,"Ġindepend":3224,"Ġattempt":3225,"Ġpredict":3226,"Ġselect":3227,"().":3228,"65":3229,"rite":3230,"oke":3231,"irm":3232,"ĠAg":3233,"Ġfun":3234,"Ġmultiple":3235,"trans":3236,"Ġ22":3237,"Ġround":3238,"Ġelement":3239,"Ġconsist":3240,"Ġsection":3241,"Ġtrying":3242,"Ġindex":3243,"Ġobserved":3244,"pri":3245,"rench":3246,"Ġcamp":3247,"ĠWill":3248,"just":3249,"based":3250,"Ġminutes":3251,"Ġliving":3252,"AB":3253,"Ġconcern":3254,"aling":3255,"thon":3256,"cret":3257,"Ġpoor":3258,"artment":3259,"Ġcontact":3260,"({":3261,"Ġmiss":3262,"html":3263,"Ġtechnology":3264,"which":3265,"Un":3266,"lim":3267,"Ġblock":3268,"Ġpolitical":3269,"enge":3270,"Ġ60":3271,"attle":3272,"($":3273,"En":3274,"quest":3275,"Ġdetermine":3276,"Ġmessage":3277,"undred":3278,"come":3279,"ĠOb":3280,"Ġuses":3281,"point":3282,"78":3283,"Ġnegative":3284,"Ġunderstanding":3285,"Ġassess":3286,"Ġchall":3287,"Ġprec":3288,"Ġresources":3289,"ĠGo":3290,"char":3291,"Ġfav":3292,"Ġincluded":3293,"Ġdrive":3294,"Ġsometimes":3295,"Ġvolume":3296,"Ġremov":3297,"Ġfeatures":3298,"ken":3299,"odes":3300,"olute":3301,"iven":3302,"ĠAdd":3303,"iting":3304,"Ġproducts":3305,"minist":3306,"gorith":3307,"68":3308,"ults":3309,"ĠAust":3310,"anger":3311,"ta":3312,"Ġfoot":3313,"Ġrev":3314,"aries":3315,"atives":3316,"ĠComp":3317,"Ġdeep":3318,"ĠFr":3319,"ili":3320,"Ġwalk":3321,"Ġgir":3322,"ief":3323,"Ġdark":3324,"rror":3325,"Ġrecent":3326,"button":3327,"Ġtherefore":3328,"ĠĠĠĠĠĠĠĠĠĠĠĠĠĠĠĠĠ":3329,"With":3330,"rate":3331,"Ġnone":3332,"rt":3333,"49":3334,"à¸":3335,"ying":3336,"Ġanaly":3337,"inate":3338,"Ġcontext":3339,"itting":3340,"Ġcoun":3341,"lt":3342,"ternal":3343,"Ġcard":3344,"uous":3345,"inally":3346,"Ġarch":3347,"arily":3348,"Ġprovides":3349,"ector":3350,"Ġcorrespond":3351,"Ġdevice":3352,"Ġaff":3353,"sole":3354,"Time":3355,"ellow":3356,"Ġdefined":3357,"Ġpret":3358,"Ġdescribed":3359,"Ġprice":3360,"rs":3361,"Ġtheory":3362,"oly":3363,"':":3364,"ãĥ":3365,"Ġfriend":3366,"Ġincreasing":3367,"aging":3368,"oice":3369,"ĠFl":3370,"ND":3371,"ament":3372,"Ġsort":3373,"Ġsomeone":3374,"Ġrow":3375,"Ġslow":3376,"Ġsoftware":3377,"more":3378,"Ġgreen":3379,"Ġcustom":3380,"\\\\":3381,"Ġpractice":3382,"imately":3383,"Ġissues":3384,"Ġ28":3385,"47":3386,"Ġbuilding":3387,"Ġhands":3388,"Ġearth":3389,"title":3390,"Ġdim":3391,"ii":3392,"hood":3393,"astic":3394,"Ġstra":3395,"Ġdirection":3396,"Ġï":3397,"ecause":3398,"het":3399,"Ġstarted":3400,"Ġì":3401,"ĠDep":3402,"ĠMin":3403,"Ġstatic":3404,"Ġelements":3405,"ĠNow":3406,"Ġbuilt":3407,"Ġlate":3408,"Ġisn":3409,"Ġshowed":3410,"Ġtakes":3411,"Or":3412,"Ġbound":3413,"Add":3414,"erences":3415,"Ġ23":3416,"vere":3417,"export":3418,"label":3419,"ĠEarth":3420,"year":3421,"Ġsex":3422,"http":3423,"Ġability":3424,"Ġvideo":3425,"Ġfold":3426,"ĠAug":3427,"Ġbehavior":3428,"Ġsympt":3429,"kn":3430,"çļ":3431,"><":3432,"Ġunit":3433,"leg":3434,"ulations":3435,"Ġir":3436,"iber":3437,"Ġheat":3438,"Ġroot":3439,"ournal":3440,"Ġbill":3441,"Ġpublished":3442,"Ġmodern":3443,"Ġglobal":3444,"){":3445,"urs":3446,"Ġvia":3447,"no":3448,"osition":3449,"img":3450,"Ġrequest":3451,"çļĦ":3452,"Ġevents":3453,"ĠOct":3454,"ĠÃĹ":3455,"Ġavoid":3456,"SE":3457,"yp":3458,"Ġbehind":3459,"ese":3460,"ãĤ":3461,"That":3462,"Ġlarger":3463,"Ġdate":3464,"td":3465,"Ġsus":3466,"ING":3467,"));":3468,"estern":3469,"Ġstudent":3470,"ategory":3471,"ogle":3472,"tem":3473,"bor":3474,"67":3475,"/*":3476,"ĠHealth":3477,"Ġdirectly":3478,"pen":3479,"Ġformula":3480,"ĠMore":3481,"see":3482,"Ġmedical":3483,"sych":3484,"ĠII":3485,"airs":3486,"Ġwall":3487,"abase":3488,"Ġfeed":3489,"IL":3490,"Ġmaint":3491,"Ġservices":3492,"Ġcat":3493,"oman":3494,"alle":3495,"Ġexpected":3496,"Ġmount":3497,"Ġapprox":3498,"Ġtown":3499,"CO":3500,"Ġgenerally":3501,"ln":3502,"ĠTHE":3503,"ĠDr":3504,"apan":3505,"tes":3506,"Ġrights":3507,"state":3508,"Ġeconomic":3509,"ĠJew":3510,"Ġ2009":3511,"One":3512,"iam":3513,"Ob":3514,"Ġtransform":3515,"ĠChar":3516,"bre":3517,"ony":3518,"ĠPe":3519,"irect":3520,"sum":3521,"vey":3522,"Ġcolle":3523,"aly":3524,"eks":3525,"Ġsuff":3526,"ĠGener":3527,"Ind":3528,"ien":3529,"cos":3530,"Ġassum":3531,"sm":3532,"Ġmulti":3533,"Ġalthough":3534,"Ġeffective":3535,"ama":3536,"Phone":3537,"efore":3538,"execution":3539,"Ġgave":3540,"ĠFind":3541,"31":3542,"Ġgives":3543,"Ġmention":3544,"Ġled":3545,"Ġprotect":3546,"________":3547,"ĠLet":3548,"ĠKing":3549,"irit":3550,"Ġ});":3551,"Ġsleep":3552,"ĠPres":3553,"Ġdepend":3554,"Ġhundred":3555,"ement":3556,"Ġlost":3557,"Ġwond":3558,"image":3559,"ha":3560,"rated":3561,"Â°":3562,"Ġwrong":3563,"Ġwindow":3564,"Ġeverything":3565,"Ġoutside":3566,"Ġshare":3567,"Ġprofess":3568,"Ġplants":3569,"ino":3570,"net":3571,"php":3572,"ashing":3573,"Ġreduce":3574,"max":3575,"Ġtree":3576,"uk":3577,"Ġproduce":3578,"rast":3579,"amb":3580,"active":3581,"Ġball":3582,"Ġ27":3583,"Ġmut":3584,"Ġactivities":3585,"])":3586,"Ġwoman":3587,"outputs":3588,"Ġuseful":3589,"lling":3590,"abit":3591,"ĠPart":3592,"Ġnumer":3593,"Ġheld":3594,"Ġdemonstr":3595,"From":3596,"Ġsurv":3597,"que":3598,"Ġhost":3599,"Ġinvolved":3600,"Ġens":3601,"Ġhistor":3602,"Ġoption":3603,"Ġ{},":3604,"ENT":3605,"Ġoil":3606,"Ġexcept":3607,"Ġaltern":3608,"Ġregular":3609,"Ġrepe":3610,"Ġspeak":3611,"ilitary":3612,"oken":3613,"Ġmemory":3614,"Ġanc":3615,"Ġthous":3616,"Ġrepl":3617,"Ġtraining":3618,"ada":3619,"ube":3620,"ramework":3621,"Ġcapt":3622,"95":3623,"Ġcopy":3624,"Ġarray":3625,"Ġwild":3626,"ulated":3627,"ĠMod":3628,"Ġreve":3629,"ĠHar":3630,"Ġstreng":3631,"rie":3632,"Ġund":3633,"var":3634,"DE":3635,"Ġvariables":3636,"aily":3637,"Ġvariable":3638,"Ġofficial":3639,"Ġlack":3640,"Ġsn":3641,"Ġcover":3642,"Ġdiagn":3643,"inct":3644,"FF":3645,"Service":3646,"aches":3647,"oper":3648,"Ġ2013":3649,"Ġcompet":3650,"field":3651,"room":3652,"resh":3653,"Ġpersonal":3654,"ailed":3655,"Ġlooked":3656,"function":3657,"46":3658,"Ġlab":3659,"ags":3660,"rees":3661,"Ġlinear":3662,"Ġfigure":3663,"Ġcompar":3664,"Ġ&&":3665,"ios":3666,"Ġclean":3667,"rack":3668,"Ġinside":3669,"ĠApr":3670,"osing":3671,"ux":3672,"dro":3673,"Ġfat":3674,"Ġreceived":3675,"Ġclin":3676,"Ġscale":3677,"Ġimpro":3678,"Ġfast":3679,"Not":3680,"Ġtried":3681,"Ġsold":3682,"ĠBritish":3683,"Now":3684,"Ġratio":3685,"Ġ2008":3686,"ouch":3687,"Ġfollowed":3688,"Ġvalid":3689,"Ġbal":3690,"Ġstri":3691,"MA":3692,"Ġmatrix":3693,"Ġtitle":3694,"Ġanimals":3695,"Ġexerc":3696,"Ġcaused":3697,"ccording":3698,"rim":3699,"ĠMat":3700,"Ġhyp":3701,"zz":3702,"ĠFrench":3703,"Ġviol":3704,"Ġexec":3705,"Ġimages":3706,"Ġemer":3707,"Ġsolid":3708,"unes":3709,"rote":3710,"ĠWind":3711,"ponent":3712,"Ġbur":3713,"ĠMon":3714,"ĠHere":3715,"Ġobtained":3716,"xy":3717,"Ġmeaning":3718,"istory":3719,"EE":3720,"Ġbasic":3721,"Ġessential":3722,"My":3723,"Ġresearchers":3724,"oe":3725,"Ġfem":3726,"Ġimmedi":3727,"ancy":3728,"\"]},":3729,"pass":3730,"Ġ->":3731,"Ġrefer":3732,"Ġspect":3733,"Ġson":3734,"Ġtravel":3735,"Ġonline":3736,"Ġhot":3737,"Ġsubst":3738,"Ġcontains":3739,"Ġcompan":3740,"Ġsymptoms":3741,"ĠFrom":3742,"Ġreading":3743,"Ġfish":3744,"mission":3745,"Ġmole":3746,"ares":3747,"Ġpan":3748,"otal":3749,"Ġmanagement":3750,"aled":3751,"Ġfine":3752,"Ġadditional":3753,"mbol":3754,"rial":3755,"AA":3756,"Ġturned":3757,"cles":3758,"lands":3759,"can":3760,"group":3761,"exp":3762,"ync":3763,"Ġweb":3764,"Ġerr":3765,"Ġalgorith":3766,"Ġpatient":3767,"Ġautom":3768,"Ġstatus":3769,"sl":3770,"ederal":3771,"ynam":3772,"Ġsal":3773,"Ġbrought":3774,"ades":3775,"ners":3776,"oin":3777,"inated":3778,"inst":3779,"ĠJapan":3780,"Ġroad":3781,"Ġproperty":3782,"Ġpopular":3783,"Ġproperties":3784,"encies":3785,"Ġfair":3786,"Ġ**":3787,"Ġsea":3788,"((":3789,"Ġaccom":3790,"Ġproduced":3791,"Ġstop":3792,"Ġeasily":3793,"Man":3794,"Ġopportun":3795,"Ġheard":3796,"_.":3797,"rade":3798,"Ġmis":3799,"PS":3800,"Ġmaterials":3801,"rapy":3802,"Ġcontinue":3803,"overn":3804,"Ġprobability":3805,"Ġprimary":3806,"77":3807,"Ġones":3808,"ĠBar":3809,"./":3810,"ribute":3811,"Ġdead":3812,"88":3813,"lier":3814,"Ġ26":3815,"Ġparents":3816,"Ġangle":3817,"Rep":3818,"weight":3819,"Ġorg":3820,"Ġforms":3821,"Ġdesigned":3822,"Ġfight":3823,"known":3824,"oles":3825,"Ġactive":3826,"Le":3827,"omen":3828,"Form":3829,"position":3830,"Ġstress":3831,"Ġalone":3832,"stitute":3833,"Ġple":3834,"adem":3835,"Ġmap":3836,"ĠReg":3837,"Ġattention":3838,"ography":3839,"map":3840,"Ġserious":3841,"Ġmid":3842,"Of":3843,"ĠWhile":3844,"02":3845,"TER":3846,"hest":3847,"Ġ[],":3848,"length":3849,"ana":3850,"Ġmachine":3851,"ï¼Į":3852,"Ġq":3853,"itation":3854,"oring":3855,"Ġrot":3856,"num":3857,"Ġbeaut":3858,"Ġdouble":3859,"Ġparticularly":3860,"Ġemail":3861,"Ġspread":3862,"42":3863,"isions":3864,"Ġperformed":3865,"Ġsafe":3866,"Item":3867,"cs":3868,"Ġincludes":3869,"Ġusers":3870,"Ġworth":3871,"Get":3872,"ĠCount":3873,"Ġfa":3874,"Ġten":3875,"ĠVal":3876,"Ġstatist":3877,"vant":3878,"ĠOF":3879,"ĠCons":3880,"Ġleave":3881,"Ġclick":3882,"share":3883,"43":3884,"uge":3885,"Ġprep":3886,"Ġaud":3887,"Ġapplications":3888,"########":3889,"Ġsolve":3890,"ĠOf":3891,"ĠHer":3892,"cd":3893,"Ġprograms":3894,"ĠCor":3895,"Ġdivid":3896,"Ġswe":3897,"leted":3898,"Ġevalu":3899,"ĠSer":3900,"Ġrule":3901,"Ġclimate":3902,"Ġabsolute":3903,"Ġappropri":3904,"Ð»":3905,"ĠFirst":3906,"Ġexc":3907,"uary":3908,"Ġappe":3909,"height":3910,"Ġnames":3911,"Ġexpress":3912,"orage":3913,"></":3914,"Ġjud":3915,"curity":3916,"Ġprior":3917,"Ġwin":3918,"Ġdog":3919,"Ġgoes":3920,"ĠSince":3921,"Ġzero":3922,"Ġ<<":3923,"Ġperfect":3924,"src":3925,"Ġextreme":3926,"edia":3927,"Ġast":3928,"section":3929,"Ġapplied":3930,"Ġnut":3931,"ball":3932,"ĠTable":3933,"pid":3934,"58":3935,"Ġbird":3936,"Ġbirth":3937,"ban":3938,"ĠiPhone":3939,"Ġlocation":3940,"Ġce":3941,"Ġfocus":3942,"Ġhon":3943,"Ġidentify":3944,"Ġpretty":3945,"lin":3946,"Ġwriting":3947,"tered":3948,"Ġstay":3949,"oura":3950,"ĠIN":3951,"amily":3952,"Ġskin":3953,"Set":3954,"._":3955,"98":3956,"Ġchemical":3957,"Ġpick":3958,"Ġsyn":3959,"RI":3960,"Ġhope":3961,"Ġenter":3962,"pret":3963,"ham":3964,"json":3965,"estion":3966,"ĠFeb":3967,"was":3968,"ĠPre":3969,"Ġobjects":3970,"New":3971,"Ġ);":3972,"mail":3973,"ĠRet":3974,"Ġmiddle":3975,"Ġproced":3976,"package":3977,"Ġknew":3978,"Ġmedic":3979,"Ġexactly":3980,"enty":3981,"Ġpicture":3982,"08":3983,"Key":3984,"Ġmiles":3985,"Ġinstance":3986,"Ġwood":3987,"Ġdeal":3988,"model":3989,"iences":3990,"Ġallows":3991,"ulate":3992,"Ġsteps":3993,"arrow":3994,"Ġbottom":3995,"Ġtask":3996,"Ġmathemat":3997,"Ġwait":3998,"Ġremain":3999,"Ġbroad":4000,"Ġsmaller":4001,"ours":4002,"Ġtowards":4003,"change":4004,"ĠSol":4005,"Ġdegree":4006,"aught":4007,"Error":4008,"Ġwatch":4009,"Ġquickly":4010,"ĠSm":4011,"Ġnearly":4012,"Button":4013,"Ġnuc":4014,"gram":4015,"Ġweeks":4016,"ĠÂ©":4017,"ĠList":4018,"ronic":4019,"swers":4020,"ĠPa":4021,"Ġcoming":4022,"Ġ2007":4023,"Ġprotein":4024,"Ġconstruct":4025,"Ġitems":4026,"ned":4027,"Ġconfig":4028,"cks":4029,"mitted":4030,"ba":4031,"Ġdriv":4032,"Ġthroughout":4033,"nav":4034,"Ġsituation":4035,"izes":4036,"ocks":4037,"uly":4038,"Ġvisit":4039,"plate":4040,"ributed":4041,"Ġbab":4042,"cast":4043,"erve":4044,"iers":4045,"Ġfriends":4046,"actions":4047,"Ġsave":4048,"displaystyle":4049,"Ġserver":4050,"Ġwrote":4051,"idden":4052,"Ġmer":4053,"Ad":4054,"Ġperhaps":4055,"Ġmath":4056,"57":4057,"ridge":4058,"term":4059,"Ġextra":4060,"ĠChe":4061,"ache":4062,"Ġmilitary":4063,"Ġnor":4064,"vention":4065,"Ġnote":4066,"cut":4067,"Ġfarm":4068,"ĠDes":4069,"Ġindividuals":4070,"well":4071,"ĠThus":4072,"ship":4073,"Post":4074,"pan":4075,"othes":4076,"OL":4077,"Ġselected":4078,"Ġbooks":4079,"Ġlat":4080,"ĠWest":4081,"ĠRec":4082,"Ġlimited":4083,"aint":4084,"link":4085,"Ġblue":4086,"igned":4087,"ĠMath":4088,"ections":4089,"isms":4090,"ogen":4091,"Ġcm":4092,"Ġindustry":4093,"Ġwebs":4094,"ĠMc":4095,"59":4096,"Ġeye":4097,"ris":4098,"Ġappears":4099,"isf":4100,"Ġtests":4101,"Ġarr":4102,"ĠOther":4103,"Ġvers":4104,"oes":4105,"56":4106,"Ġhar":4107,"_,":4108,"Ġimag":4109,"web":4110,"ĠEngland":4111,"ĠGerman":4112,"gar":4113,"reate":4114,"Ġunits":4115,"center":4116,"Ġpolicy":4117,"Ġstore":4118,"Ġbed":4119,"Book":4120,"rab":4121,"Log":4122,"ĠSchool":4123,"Ġtrack":4124,"Ġsources":4125,"Ġsignificantly":4126,"ervation":4127,"!!":4128,"09":4129,"Ġchoose":4130,"improve":4131,"Ġ()":4132,"Ġnews":4133,"oted":4134,"Ġthreat":4135,"Par":4136,"ML":4137,"hand":4138,"Ġinfluence":4139,"ĠAustral":4140,"Ġmedia":4141,"Ġphone":4142,"Ġcarry":4143,"Ġrespectively":4144,"Ġcold":4145,"Ġremember":4146,"iency":4147,"table":4148,"Ġprogress":4149,"Ġformer":4150,"Ġpurpose":4151,"Dis":4152,"asons":4153,"Ġwanted":4154,"Ed":4155,"Be":4156,"Ġnation":4157,"ĠTest":4158,"ĠBo":4159,"Ġelectric":4160,"include":4161,"SS":4162,"Ġcontain":4163,"Ġdifferences":4164,"clusion":4165,"gl":4166,"ĠChina":4167,"Date":4168,"Ġoptions":4169,"Ġcred":4170,"overy":4171,"41":4172,"Ġsamples":4173,"Ġbeginning":4174,"Ġjava":4175,"Ġhref":4176,"host":4177,"ĠCenter":4178,"Ġunique":4179,"joy":4180,"ĠWhy":4181,"Ġfollows":4182,"Ġslight":4183,"start":4184,"ĠAc":4185,"Ġhighly":4186,"Ġ29":4187,"Ġlives":4188,"Ġmovement":4189,"ufact":4190,"Ġdetermined":4191,"Ġsoil":4192,"Ġpack":4193,"igation":4194,"ĠTrans":4195,"Ġleading":4196,"gn":4197,"NAME":4198,"Ġsociety":4199,"Ġbutton":4200,"////":4201,"Ġestablished":4202,"fort":4203,"Ġcivil":4204,"ĠSw":4205,"Ġshape":4206,"Ġseason":4207,"ĠDav":4208,"osure":4209,"Ġlabor":4210,"Ġvector":4211,"pite":4212,"Ġcentral":4213,"ĠResearch":4214,"Ġrates":4215,"ns":4216,"Ġmaximum":4217,"Ġallowed":4218,"sqrt":4219,")=":4220,"Ġtiss":4221,"ilos":4222,"Ġpresence":4223,"Ġinj":4224,"Ġwhom":4225,"Ġsong":4226,"Ġsides":4227,")(":4228,"Ġneigh":4229,"Ġforest":4230,"åı":4231,"ĠEl":4232,"Ġcalculate":4233,"MS":4234,"Ġforward":4235,"Ġcarbon":4236,"Ġlabel":4237,"Ġwarm":4238,"Ġdoor":4239,"Ġvel":4240,"onal":4241,"Ġ80":4242,"ride":4243,"Ġpassed":4244,"Ġkill":4245,"obile":4246,"Ġ!=":4247,"IR":4248,"ĠRE":4249,"Ġforces":4250,"Ġdemand":4251,"adow":4252,"Ġdamage":4253,"ights":4254,"Ġrequires":4255,"Ġcry":4256,"Ġtools":4257,"Ã¡":4258,"Ġmi":4259,"urt":4260,"[]":4261,"fil":4262,"Ġinteresting":4263,"Ġbecomes":4264,"53":4265,"Ġdecision":4266,"plit":4267,"Ġcauses":4268,"Ġenvironmental":4269,"mary":4270,"Ġsequence":4271,"omb":4272,"bb":4273,"Ġdoctor":4274,"ocity":4275,"ĠYour":4276,"Ġâī":4277,"Ġstar":4278,"yond":4279,"ĠMost":4280,"Ġreference":4281,"Ġchoice":4282,"Ġculture":4283,"Ġchanged":4284,"());":4285,"coming":4286,"Ġadminist":4287,"Ġcompletely":4288,"you":4289,"oration":4290,"Ġacqu":4291,"ĠST":4292,"âĪĴ":4293,"MP":4294,"rect":4295,"abled":4296,"ondon":4297,"Ġmode":4298,"Ġanyone":4299,"Ġord":4300,"Ġitem":4301,"Ġactual":4302,"System":4303,"itable":4304,"roy":4305,"ĠĠĠĠĠĠĠĠĠĠĠĠĠĠĠĠĠĠĠĠĠĠĠĠĠĠĠĠĠĠĠ":4306,"ously":4307,"Ġplaces":4308,"Ġeth":4309,"69":4310,"clus":4311,"Ġparty":4312,"$.":4313,"ashington":4314,"css":4315,"Ġpresented":4316,"sin":4317,"bottom":4318,"Ġsin":4319,"Ġfixed":4320,"Ġideas":4321,"Ġeat":4322,"ĠScience":4323,"Ġthrow":4324,"Ġmatch":4325,"ĠJune":4326,"ech":4327,"500":4328,"Ġrecently":4329,"Ġcit":4330,"ĠData":4331,"Ġcharge":4332,"Ġsites":4333,"Ġcoord":4334,"ibly":4335,"gebra":4336,"ricult":4337,"Ġthinking":4338,"Ġschools":4339,"Ġreduced":4340,"ĠMarch":4341,"ospital":4342,"${":4343,"ancial":4344,"Ġcatch":4345,"Ġhear":4346,"Value":4347,"Ġer":4348,"cal":4349,"ĠJust":4350,"Ġremains":4351,"issions":4352,"Ġvariety":4353,"osite":4354,"Ġscientists":4355,"UN":4356,"sor":4357,"Ġ90":4358,"Ġfear":4359,"Ġscientific":4360,"false":4361,"Tunes":4362,"ĠAre":4363,"Ġbasis":4364,"Ġyield":4365,"Ġking":4366,"Ġpsych":4367,"IG":4368,"Ġworked":4369,"Ġfelt":4370,"Ġpassword":4371,"Table":4372,"Ġplayer":4373,"ĠSub":4374,"Ġcapital":4375,"Test":4376,"Exception":4377,"Ġaim":4378,"ingu":4379,"rices":4380,"local":4381,"ĠRuss":4382,"Ġtum":4383,"Ġindependent":4384,"oto":4385,"CC":4386,"ros":4387,"Ġfit":4388,"Ġpurch":4389,"\",\"":4390,"asion":4391,"Ġinstit":4392,"ĠAir":4393,"ĠSim":4394,"Ġskills":4395,"oo":4396,"Ġgold":4397,"abet":4398,"ico":4399,"page":4400,"Ġmoving":4401,"Ġcritical":4402,"Ġalt":4403,"amin":4404,"Ġsaying":4405,"Ġtend":4406,"aste":4407,"ĠiP":4408,"They":4409,"bin":4410,"vis":4411,"Ġdevices":4412,"Ġeight":4413,"Ġplaced":4414,"Ġolder":4415,"Ġdied":4416,"Ġvirt":4417,"Ġbeyond":4418,"Ġauto":4419,"array":4420,"04":4421,"Ġnorth":4422,"Ġsurpr":4423,"Ġstraight":4424,"Ġbuy":4425,"Ġacid":4426,"Ġtrou":4427,"Ġletter":4428,"Ġrock":4429,"Ġfeature":4430,"Ġrules":4431,"Ġgames":4432,"orge":4433,"};":4434,"Ġstrength":4435,"ario":4436,"Click":4437,"Ġnode":4438,"Ġsaf":4439,"AG":4440,"Ġstage":4441,"Sub":4442,"Ġharm":4443,"ĠPresident":4444,"ä»":4445,"Ġadvant":4446,"Ġreach":4447,"Ġchance":4448,"otic":4449,"Ġanti":4450,"Model":4451,"Ġ[]":4452,"void":4453,"Ġtoward":4454,"ĠPC":4455,"Ġdownload":4456,"Over":4457,"ĠMany":4458,"ĠTime":4459,"03":4460,"iment":4461,"ĠSept":4462,"Ġcalculated":4463,"Ġconnected":4464,"ĠAnt":4465,"07":4466,"Ġvert":4467,"54":4468,"udd":4469,"Ġconnection":4470,"Ġlargest":4471,"ĠAlthough":4472,"script":4473,"Ġappropriate":4474,"Ġsignal":4475,"cil":4476,"Ġfields":4477,"ĠUse":4478,"Ġlif":4479,"iforn":4480,"Let":4481,"Ġcircle":4482,"Ġstru":4483,"Ġvoice":4484,"base":4485,"pat":4486,"Ġparameters":4487,"och":4488,"ĠIS":4489,"Ġinternational":4490,"Ġgene":4491,"ĠAugust":4492,"After":4493,"Color":4494,"Controller":4495,"Ġmorning":4496,"File":4497,"Ġfrequency":4498,"ponents":4499,"Ġrespond":4500,"celer":4501,"Ġrare":4502,"Ġgets":4503,"font":4504,"Ġsolutions":4505,"Ġawait":4506,"(),":4507,"ĠLord":4508,"urb":4509,"Ġspirit":4510,"Ġequations":4511,"Ġboard":4512,"Ġsem":4513,"duc":4514,"06":4515,"Ġsend":4516,"Ġaspect":4517,"Ġoffer":4518,"gu":4519,"Ġpoll":4520,"})":4521,"ĠâĨ":4522,"outhern":4523,"Ġfru":4524,"Ġtruth":4525,"atur":4526,"Ġcool":4527,"ãĢ":4528,"Ġseemed":4529,"Ġsec":4530,"PI":4531,"Ġarm":4532,".'":4533,"ctors":4534,"rief":4535,"Ġresistance":4536,"Ġdetails":4537,"Up":4538,"find":4539,"oul":4540,"Ġtransfer":4541,"Ġcos":4542,"DA":4543,"omy":4544,"ĠCong":4545,"Ġcollection":4546,"Ġ||":4547,"Ġearlier":4548,"current":4549,"Ġcand":4550,"Ġtrees":4551,"Ġbacter":4552,"Ġcurrently":4553,"escription":4554,"Ġcontinued":4555,"println":4556,"react":4557,"Ġdeb":4558,"db":4559,"Ġequival":4560,"Ġrapid":4561,"api":4562,"Ġdensity":4563,"ĠDepartment":4564,"ĠWindows":4565,"Ġprocesses":4566,"ĠGree":4567,"Ġ2006":4568,"Ġidentified":4569,"ĠInst":4570,"ĠÂłĠÂł":4571,"Ġburn":4572,"ĠAlso":4573,"ilies":4574,"ev":4575,"Ġphase":4576,"ĠSet":4577,"Ġstream":4578,"ulf":4579,"istics":4580,"arian":4581,"ilk":4582,"istry":4583,"Ġmess":4584,"76":4585,"ĠEm":4586,"Ġfig":4587,"spring":4588,"Ġscript":4589,"Ġupdate":4590,"Ġalign":4591,"Ġconstit":4592,"Ġinn":4593,"ĠWeb":4594,"Ġpow":4595,"rupt":4596,"ocr":4597,"Ġformed":4598,"Ġnamed":4599,"Ġupd":4600,"ĠTherefore":4601,"Ġlooks":4602,"Ġcomponents":4603,"Ġhop":4604,"Ġpull":4605,"Ġ$$\\":4606,"flow":4607,"Ġanimal":4608,"ĠPat":4609,"Ġachieve":4610,"Ġcollect":4611,"Ġmanufact":4612,"Ġsecurity":4613,"CE":4614,"ĠIndian":4615,"eds":4616,"ĠChristian":4617,"Ġconvert":4618,"ĠFig":4619,"ica":4620,"Act":4621,"rome":4622,"Ġproport":4623,"ĠPost":4624,"Ġmeasured":4625,"Ġexplain":4626,"icks":4627,"Ġproposed":4628,"da":4629,"ĠApril":4630,"Ġunc":4631,"Ġremove":4632,"Ġexamples":4633,"ifornia":4634,"ipp":4635,"Ðº":4636,"Ġsav":4637,"Ġformat":4638,"Ġsevere":4639,"ĠEuropean":4640,"orem":4641,"Ġsupply":4642,"uman":4643,"Su":4644,"Ġkids":4645,"ias":4646,"Ġwife":4647,"Ġtransl":4648,"ny":4649,"pty":4650,"Ġgrowing":4651,"Ġcarried":4652,"Ġ]":4653,"oute":4654,"iques":4655,"Ġillust":4656,"aur":4657,"Ġign":4658,"Ġmember":4659,"Ġnav":4660,"Ġhydro":4661,"Ġcompanies":4662,"Ġvisual":4663,"ĠWashington":4664,"79":4665,"Page":4666,"under":4667,"Figure":4668,"ĠiTunes":4669,"Ġstatement":4670,"lication":4671,"Ġincreases":4672,"unk":4673,"ĠVol":4674,"Ġaware":4675,"oses":4676,"Object":4677,"Ġborn":4678,"asks":4679,"Ġsouth":4680,"ady":4681,"begin":4682,"ĠJuly":4683,"Ġdeveloping":4684,"ĠLaw":4685,"Ġmonitor":4686,"conn":4687,"Ġcosts":4688,"åĪ":4689,"Ġdaily":4690,"ĠCD":4691,"Ġenjoy":4692,"Ġmag":4693,"Ġdrug":4694,"Ġclinical":4695,"ĠEven":4696,"Ġinform":4697,"atin":4698,"Ġdra":4699,"Ġwat":4700,"cember":4701,"Ġexternal":4702,"Ġdry":4703,"ĠMiss":4704,"ĠDNA":4705,"Ġweak":4706,"pha":4707,"Ġconsequ":4708,"Ġ32":4709,"Ġandroid":4710,"Ġdynam":4711,"Ġpen":4712,"Ġfavor":4713,"\"\"":4714,"atically":4715,"Ġmotion":4716,"She":4717,"uit":4718,"Ġsatisf":4719,"Ġsetting":4720,"ford":4721,"Ġplease":4722,"btn":4723,"aughter":4724,"Ġvict":4725,"gment":4726,"ado":4727,"create":4728,"vest":4729,"ocol":4730,"ĠDef":4731,"param":4732,"Ġinsp":4733,"yles":4734,"config":4735,"iful":4736,"Ġmac":4737,"Element":4738,"Ġhighest":4739,"Ġsymbol":4740,"Ġ),":4741,"Ġmeasures":4742,"}$$":4743,"BC":4744,"Ġlocated":4745,"lor":4746,"otes":4747,"Ġoccup":4748,"ĠCour":4749,"Ġdescription":4750,"52":4751,"Ġtransport":4752,"ĠGeneral":4753,"ĠRed":4754,"Ġvote":4755,"apping":4756,"Ġcam":4757,"Ġsafety":4758,"Ġadapt":4759,"Ġboy":4760,"Ġhandle":4761,"rant":4762,"Ġconv":4763,"ĠDec":4764,"Ġpiece":4765,"Ġhair":4766,"Ñĥ":4767,"Ġtesting":4768,"status":4769,"ĠInstitute":4770,"ÂłÂłÂł":4771,"ĠGreat":4772,"iny":4773,"info":4774,"Here":4775,"apple":4776,"Ġenh":4777,"pace":4778,"Ġpy":4779,"Ġfilm":4780,"Ġmig":4781,"Ġalgorithm":4782,"EL":4783,"Ġbrother":4784,"Ġchalleng":4785,"Ġdrink":4786,"Ġgoal":4787,"ĠSch":4788,"Ġeveryone":4789,"igen":4790,"ĠGovern":4791,"odies":4792,"Ġevolution":4793,"Ġparalle":4794,"acters":4795,"ĠMus":4796,"url":4797,"Ġbr":4798,"iable":4799,"51":4800,"Ġ~":4801,"Ġarriv":4802,"unc":4803,"ĠLondon":4804,"sk":4805,"ipe":4806,"acing":4807,"inner":4808,"ĠJanuary":4809,"ga":4810,"Ġauth":4811,"last":4812,"Pr":4813,"Ġoperations":4814,"SD":4815,"util":4816,"Ġtransition":4817,"next":4818,"cean":4819,"ĠInter":4820,"Ġeffic":4821,"orthern":4822,"Ġfinding":4823,"iled":4824,"ĠPress":4825,"Ġapply":4826,"bur":4827,"erved":4828,"ĠOur":4829,"Ġgenes":4830,"cel":4831,"TO":4832,"eline":4833,"Ġscore":4834,"ĠClass":4835,"ithub":4836,"Ġtim":4837,"ĠCity":4838,"anc":4839,"Ġhealthy":4840,"Ġtraditional":4841,"Ġstarting":4842,"(\\":4843,"Ġreligious":4844,"ĠCalifornia":4845,"Ġdanger":4846,"ille":4847,"These":4848,"Ġdisk":4849,"itect":4850,"Ġsomew":4851,"Ġ2000":4852,"asure":4853,"63":4854,"Ġoffice":4855,"Field":4856,"Ġcomponent":4857,"ĠIndia":4858,"ĠHouse":4859,"Ġvacc":4860,"Ġkept":4861,"ĠLevel":4862,"orial":4863,"Ġexperiment":4864,"ĠPol":4865,"rical":4866,"atform":4867,"Ġgrid":4868,"Ġensure":4869,"Ġwebsite":4870,"atever":4871,"ĠPM":4872,"iant":4873,"product":4874,"ovember":4875,"Image":4876,"Ġresid":4877,"aid":4878,"ĠArt":4879,"Ġregions":4880,"rations":4881,"ername":4882,"Ġcommer":4883,"Ġimportance":4884,"Ġpresident":4885,"Ġhit":4886,"PA":4887,"Ġjustify":4888,"how":4889,"ĠNet":4890,"inding":4891,"Ġinfection":4892,"check":4893,"call":4894,"ĠVir":4895,"erg":4896,"Ġestablish":4897,"amm":4898,"Ġcombination":4899,"ĠChurch":4900,"Ġdiet":4901,"Ġfinancial":4902,"Ġreceive":4903,"Ġlaws":4904,"ĠLog":4905,"ollow":4906,"Ġexisting":4907,"ĠText":4908,"Some":4909,"())":4910,"Ġ2005":4911,"Ġice":4912,"Ġconsole":4913,"ĠGet":4914,"ĠLa":4915,"gress":4916,"Ġdrop":4917,"Ġgiving":4918,"#####":4919,"ialog":4920,"Pl":4921,"Ġbreat":4922,"UL":4923,"Ġgradu":4924,"radius":4925,"Ġindu":4926,"Ġsust":4927,"ðĿ":4928,"Ġrelatively":4929,"Ġinternal":4930,"Ġpref":4931,"........":4932,"Ġaccur":4933,"ÂłÂłÂłÂłÂłÂłÂłÂł":4934,"ees":4935,"Ġoverall":4936,"Ġdefinition":4937,"Ġ;":4938,"Ġexercise":4939,"anged":4940,"Ġinterpret":4941,"Ġnorm":4942,"Ġtrade":4943,"Ġvelocity":4944,"des":4945,"band":4946,"}{\\":4947,"Ġbran":4948,"raz":4949,"dev":4950,"CL":4951,"Ġsurround":4952,"Ġresulting":4953,"iring":4954,"annel":4955,"Ġobvious":4956,"Ġprop":4957,"Ġfill":4958,"Ġfully":4959,"container":4960,"Ġcru":4961,"Ġdegrees":4962,"etch":4963,"Ġrecommend":4964,"****************":4965,"Ġhelps":4966,"Ġseparate":4967,"nes":4968,"house":4969,"Ġrelease":4970,"Ġyourself":4971,"Ġreplace":4972,",'":4973,"card":4974,"ĠForm":4975,"inese":4976,"Ġancient":4977,"Ġteachers":4978,"Ġspring":4979,"Ġhappen":4980,"Ġesc":4981,"Ġdiag":4982,"Ġmoved":4983,"pport":4984,"ooth":4985,"Message":4986,"Ġimmediately":4987,"Ġphen":4988,"Ġsummer":4989,"ĠBook":4990,"ĠSy":4991,"ildren":4992,"Then":4993,"ĠAND":4994,"Ġcolon":4995,"Ġfindings":4996,"96":4997,"Ġrob":4998,"iate":4999,"Ġlayer":5000,"ague":5001,"otion":5002,"Ġvill":5003,"ensions":5004,"mosp":5005,"itte":5006,"Ġveh":5007,"Ġthick":5008,"Ġopin":5009,"lements":5010,"Ġleaders":5011,"plot":5012,"sect":5013,"king":5014,"omin":5015,"Ġeffort":5016,"72":5017,"Ġbenefits":5018,"png":5019,"HO":5020,"len":5021,"Ġwonder":5022,"urrent":5023,"Ġdie":5024,"Ġpair":5025,"Ġreached":5026,"ĠRoman":5027,"Ġinstr":5028,"Ġë":5029,"Ġgirl":5030,"Ġcook":5031,"ĠSeptember":5032,"Ġhous":5033,"Ġhabit":5034,"po":5035,"road":5036,"Ġgone":5037,"Ġcapacity":5038,"Ġsimpl":5039,"ometry":5040,"valid":5041,"rolled":5042,"ially":5043,"Ġswitch":5044,"Ġinhib":5045,"Ġmentioned":5046,"Ġoperation":5047,"dden":5048,"ĠEqu":5049,"Ġsets":5050,"Ġseven":5051,"arter":5052,"Ġmyself":5053,"iling":5054,"stitution":5055,"Us":5056,"Ġdro":5057,"rael":5058,"ĠUp":5059,"Ġbank":5060,"soft":5061,"Ġtreated":5062,"Ġcoast":5063,"Ġbatter":5064,"bet":5065,"ste":5066,"ĠEach":5067,"Ġbul":5068,"Ġfolder":5069,"hens":5070,"Ġpeace":5071,"Ġfamilies":5072,"Ġupper":5073,"=\\":5074,"Ġsynt":5075,"ĠAfrica":5076,"Ġtele":5077,"PE":5078,"ipal":5079,"HT":5080,"Ġtrain":5081,"ĠInternational":5082,"62":5083,"Fig":5084,"Ġcitiz":5085,"she":5086,"Ġriver":5087,"long":5088,"rence":5089,"Ġcourt":5090,"anation":5091,"Ġreflect":5092,"ĠOctober":5093,"iated":5094,"show":5095,"arp":5096,"ĠSan":5097,"Ġapproximately":5098,"Ġoccurs":5099,"omial":5100,"Your":5101,"Ġsufficient":5102,"ander":5103,"ĠSur":5104,"Ġstrateg":5105,"Ġcontrast":5106,"Ġguess":5107,"Ġreasons":5108,"useum":5109,"level":5110,"ĠHistory":5111,"inite":5112,"ologies":5113,"Ġdu":5114,"\"},":5115,"Ġsudden":5116,"Input":5117,"Ġpreviously":5118,"ĉĉĉĉĉ":5119,"Ġtechniques":5120,")$":5121,"Ġdistinct":5122,"ĠSee":5123,"Ġorigin":5124,"Ġband":5125,"Ġleaves":5126,"orders":5127,"Ġdiscovered":5128,"Ġfinally":5129,"build":5130,"while":5131,"oma":5132,"Ġantib":5133,"Ġodd":5134,"Ab":5135,"aign":5136,"ria":5137,"Context":5138,"ĠRiver":5139,"Ġtour":5140,"DF":5141,"init":5142,"ifier":5143,"creen":5144,"Ġremoved":5145,"life":5146,"query":5147,"Ġmist":5148,"Ġsecret":5149,"ĠBecause":5150,"Ġlibrary":5151,"plication":5152,"ĠDay":5153,"Ġdivided":5154,"OC":5155,"IM":5156,"github":5157,"true":5158,"ULL":5159,"resents":5160,"Ġcounter":5161,"Ġclosed":5162,"ruary":5163,"works":5164,"Ġdatabase":5165,"header":5166,"Ġconstruction":5167,"Ġcircum":5168,"Ġthy":5169,"Ġefforts":5170,"rier":5171,"ocket":5172,"ĠOut":5173,"olar":5174,"Ġrich":5175,".--":5176,"ara":5177,"ĠDecember":5178,"then":5179,"Per":5180,"Ġindeed":5181,"ĠMor":5182,"Ġchurch":5183,"ĠRem":5184,"Ġ70":5185,"However":5186,"Ġdiscussion":5187,"Ġconducted":5188,"estic":5189,"uries":5190,"allenge":5191,"ĠFrance":5192,"Ġsubt":5193,">>":5194,"ĠJames":5195,"append":5196,"Ġready":5197,"first":5198,"(-":5199,"rey":5200,"Ġmanner":5201,"za":5202,"ĠEast":5203,"Ġworkers":5204,"ca":5205,"izations":5206,"uracy":5207,"ĠHigh":5208,"Ġacceler":5209,"reet":5210,"Ġcorresponding":5211,"Ġsuccessful":5212,"Ġprefer":5213,"Ġtouch":5214,"Ġeconomy":5215,"Ġap":5216,"abilities":5217,"Ġincor":5218,"ìĿ":5219,"la":5220,"IP":5221,"73":5222,"Event":5223,"Ġ500":5224,"antic":5225,"Ġexhib":5226,"SC":5227,"Path":5228,"aper":5229,"ĠID":5230,"Ð°Ð":5231,"car":5232,"Ġclearly":5233,"ĠRepublic":5234,"Ġdomain":5235,"Ġ35":5236,"crete":5237,"Ġequivalent":5238,"Ġsusp":5239,"Ġsolar":5240,"Ġwish":5241,"olved":5242,"Ġreaction":5243,"Ġexpressed":5244,"Ġlik":5245,"rum":5246,"âĶ":5247,"reedom":5248,"Ġpatterns":5249,"74":5250,"Ġhappened":5251,"Ġrise":5252,"Ġfuel":5253,"Ġestimated":5254,"ĠDem":5255,"Ġ31":5256,"Ġtriangle":5257,"Ġcouple":5258,"ĠWell":5259,"Ġvit":5260,"Ġargument":5261,"ĠAmericans":5262,"pers":5263,"Ġbra":5264,"Ġlegal":5265,"ribe":5266,"Ġcoe":5267,"iform":5268,"ocation":5269,"89":5270,"ĠSam":5271,"lock":5272,"Ġcreating":5273,"uzz":5274,"Ġult":5275,"ifically":5276,"his":5277,"ĠAssoci":5278,"Ġmajority":5279,"aker":5280,"iples":5281,"Ġclust":5282,"Ġque":5283,"Ġprime":5284,"Ġbreast":5285,"message":5286,"osen":5287,"anish":5288,"Ġweather":5289,"Ġtru":5290,"Ġglass":5291,"Ġheavy":5292,"61":5293,"option":5294,"Ġphilos":5295,"semb":5296,"Ġbelong":5297,"lib":5298,"omas":5299,"orrow":5300,"Ġnp":5301,"Ġalternative":5302,"Ent":5303,"Gener":5304,"Ġ};":5305,"Ġreturned":5306,"Ġhappens":5307,"Ã³":5308,"Ġwasn":5309,"Ġfresh":5310,"lled":5311,"water":5312,"Ġhumans":5313,"Ġextract":5314,"Ġadjust":5315,"æľ":5316,"Ġaffected":5317,"ĠAM":5318,"vision":5319,"Class":5320,"Ġforeign":5321,"gener":5322,"ĠLion":5323,"ĠEduc":5324,"parent":5325,"Ġstock":5326,"cular":5327,"inger":5328,"war":5329,"Ġcompl":5330,"Ġsto":5331,"Request":5332,"Ref":5333,"ĠHel":5334,"Ġwave":5335,"den":5336,"{{":5337,"Ġfederal":5338,"ĠMount":5339,"result":5340,"TH":5341,"Ġclasses":5342,"Ġobtain":5343,"Ġefficient":5344,"rick":5345,"Out":5346,"ui":5347,"Ġgenetic":5348,"Ġcloud":5349,"Ġdecided":5350,"Ġ})":5351,"Ġlearned":5352,"ĠAD":5353,"Ġcontaining":5354,"Ġbaby":5355,"anging":5356,"Ġencoura":5357,"Ġdiam":5358,"Why":5359,"Ġexpand":5360,"Ġdoll":5361,"ĠDavid":5362,"Ġrain":5363,"Ġliterature":5364,"ĠTwo":5365,"Ġtypically":5366,"Ġ/*":5367,"ears":5368,"Read":5369,"items":5370,"oined":5371,"CD":5372,"Ġclient":5373,"uls":5374,"ĠNovember":5375,"apers":5376,"Ġgeneration":5377,"Ġreports":5378,"$\\":5379,"eria":5380,"ĠGeorge":5381,"ĠLin":5382,"eg":5383,"oding":5384,"istor":5385,"Ġrepresents":5386,"Ġdrugs":5387,"related":5388,"Ġedge":5389,"ĠChinese":5390,"Ġdiseases":5391,"look":5392,"Ġmere":5393,"Ġ45":5394,"force":5395,"Ġpercentage":5396,"Ġscen":5397,"ĠBlack":5398,"Ġcharacters":5399,"Ġplane":5400,"Ġintroduced":5401,"Ġresponsible":5402,"run":5403,"Ġnovel":5404,"rig":5405,"Ġprojects":5406,"ĠConf":5407,")/":5408,"Ġdetect":5409,"ĠPy":5410,"ĠPark":5411,".[":5412,"](":5413,"Ġrout":5414,"cor":5415,"Count":5416,"Ġcommercial":5417,"Ġminimum":5418,"Ġcontract":5419,"ĠWilliam":5420,"wide":5421,"Ġanswers":5422,"Ġexposure":5423,"Ġveget":5424,"çĶ":5425,"ĠAccording":5426,"Ġunf":5427,"Ġisol":5428,"Ġkm":5429,"Ġtrig":5430,"Ġdescribe":5431,"ingly":5432,"ĠMex":5433,"Ġhuge":5434,"itors":5435,"Ġpages":5436,"Ġ+=":5437,"Ġmaster":5438,"Ġcontinuous":5439,"Do":5440,"Ġgenerated":5441,"Ġenem":5442,"ATE":5443,"Ġsuggested":5444,"flo":5445,"SA":5446,"%,":5447,"ĠCalcul":5448,"uted":5449,"Ġsettings":5450,"gery":5451,"abetes":5452,"ocal":5453,"Ġcharacteristics":5454,"Size":5455,"Ġbillion":5456,"Ġ\\\\":5457,"coh":5458,"Content":5459,"Ġcast":5460,"ĠDon":5461,"================":5462,"ipl":5463,"Ġfix":5464,"Ġqual":5465,"Ġprotection":5466,"Ġliqu":5467,"RA":5468,"ĠGoogle":5469,"Ġfraction":5470,"Ġmouth":5471,"ĠAfrican":5472,"71":5473,"Ġgard":5474,"Ser":5475,"Ġeasier":5476,"]:":5477,"Ġrace":5478,"Ġtherapy":5479,"Ġparticipants":5480,"ĠUsing":5481,"Ġdoubt":5482,"stream":5483,"Rec":5484,"ĠMich":5485,"Ġconcentration":5486,"Ġ}}":5487,"Ġsch":5488,"Ġ\\$":5489,"Ġdisapp":5490,"Ġpowerful":5491,"Ġrg":5492,"Ġbrow":5493,"Ġcontribut":5494,"ĠIsrael":5495,"Ġreleased":5496,"riage":5497,"Ġ2004":5498,"ao":5499,"Ġegg":5500,"Ġship":5501,"Index":5502,"Det":5503,"Ġstim":5504,"enth":5505,"ĠTechn":5506,"Ġbright":5507,"ĠFran":5508,"ptions":5509,"PO":5510,"ategy":5511,"Ġ:=":5512,"alysis":5513,"Ġdoc":5514,"Ġimpl":5515,"ĠUser":5516,"example":5517,"imens":5518,"iced":5519,"foot":5520,"Ġfell":5521,"ĠUnion":5522,"open":5523,"Ġteaching":5524,"Ġbenefit":5525,"Can":5526,"ĠĠĠĠĠĠĠĠĠĠĠĠĠĠĠĠĠĠĠĠĠ":5527,"Ġtissue":5528,"ĠRel":5529,"Ġapps":5530,"Ġatmosp":5531,"Ñı":5532,"ĠGermany":5533,"ded":5534,"ÃŃ":5535,"Ġfemale":5536,"Ġapparent":5537,"roduction":5538,"Ġslightly":5539,"ractions":5540,"oting":5541,"Ġplaying":5542,"Ġclos":5543,"Ġsuggests":5544,"Ġfaith":5545,"roph":5546,"Ġcycle":5547,"Ġnative":5548,"TE":5549,"Ġpregn":5550,"tings":5551,"Ġmeant":5552,"Ġcovered":5553,"oday":5554,"Ġcommunities":5555,"ifying":5556,"Ġseconds":5557,"Inst":5558,"Ġcertainly":5559,"Line":5560,"Ġbehavi":5561,"ĠAny":5562,"components":5563,"olve":5564,"ĠRober":5565,"ĠRepository":5566,"%)":5567,"dat":5568,"ords":5569,"Ġshowing":5570,"ĠMicro":5571,"Ġteacher":5572,"86":5573,"Ġcop":5574,"ĠSir":5575,"Ġagree":5576,"ĠMark":5577,"Ġpaid":5578,"Ġmort":5579,"Ġplot":5580,"Ġgrand":5581,"raint":5582,"ĠSk":5583,"Ġnotice":5584,"Ġfailure":5585,"85":5586,"Ġnotes":5587,"Ġspent":5588,"ittee":5589,"email":5590,"ĠChallenge":5591,"Ġassert":5592,"Ġcir":5593,"istant":5594,"Ġbalance":5595,"ĠRead":5596,"ida":5597,"Ġplayed":5598,"More":5599,"Ġkilled":5600,"åħ":5601,"Ġgap":5602,"Array":5603,"ĠCoun":5604,"Ġgun":5605,"ira":5606,"win":5607,"Node":5608,"Ġadults":5609,"Ġhyper":5610,"NS":5611,"Ġproof":5612,"Ġconver":5613,"Ġopportunity":5614,"Ġ^":5615,"ossible":5616,"itis":5617,"ĠMary":5618,"Ġfif":5619,"icate":5620,"Ġnice":5621,"Ġoptim":5622,"ĠEv":5623,"ĠCongress":5624,"ĠJes":5625,"Ġcommonly":5626,"ĠHen":5627,"Ġlived":5628,"Ġvary":5629,"ĠĠĠĠĠĠĠĠĠĠ":5630,"Ġplanet":5631,"Ġhoriz":5632,"grad":5633,"Ġincome":5634,"Ġotherwise":5635,"izer":5636,"Ste":5637,"lege":5638,"IF":5639,"Ġactions":5640,"Ġagricult":5641,"white":5642,"phas":5643,"Component":5644,"Ġproviding":5645,"Manager":5646,"bf":5647,"ĠOff":5648,"Ġyes":5649,"irection":5650,"See":5651,"Code":5652,"Ġstructures":5653,"det":5654,"ests":5655,"While":5656,"Ġjoint":5657,"Ġindicate":5658,"Ġsurvey":5659,"Ġcore":5660,"Ġstuff":5661,"$,":5662,"Ġtalking":5663,"ographic":5664,"Ġaccepted":5665,"ĠiOS":5666,"after":5667,"number":5668,"Ġdepends":5669,"Ġpal":5670,"Ġgain":5671,"Ġwaste":5672,"ĠEvery":5673,"Ġopposite":5674,"llig":5675,"First":5676,"Ġstation":5677,"Ġiron":5678,"ĠUs":5679,"Ġconflic":5680,"ĠOver":5681,"train":5682,"Ġpet":5683,"Ġprove":5684,"erate":5685,"ael":5686,"åĲ":5687,"Ġunless":5688,"TP":5689,"ĠHIV":5690,"Ġnan":5691,"pling":5692,"Ġadding":5693,"mm":5694,"ĠProgram":5695,"Ġexists":5696,"Ġwinter":5697,"rive":5698,"Ġ===":5699,"ipment":5700,"rient":5701,"Reg":5702,"Ġ300":5703,"Ġletters":5704,"bi":5705,"Yes":5706,"Ġmental":5707,"Ġves":5708,")}":5709,"Response":5710,"ĠDet":5711,"Ġnoted":5712,"Ġstrategy":5713,"Ġframe":5714,"Ġadvantage":5715,"iliar":5716,"Ġgenerate":5717,"Ġappeared":5718,"ĠPaul":5719,"Ġchanging":5720,"isher":5721,"amental":5722,"Ġfeeling":5723,"Ġbelief":5724,"Ġsupported":5725,"ĠFurther":5726,"Ġfort":5727,"iat":5728,"omic":5729,"Ġbattle":5730,"Ġfloat":5731,"OD":5732,"Ġstaff":5733,"Ġelim":5734,"Ġdefine":5735,"Ġparallel":5736,"rill":5737,"cript":5738,"Def":5739,"kit":5740,"rust":5741,"Ġinterested":5742,"Ġstandards":5743,"erent":5744,"Ñĭ":5745,"family":5746,"ĠFebruary":5747,"Ġtrust":5748,"ĠInternet":5749,"Me":5750,"Note":5751,"æķ":5752,"Ġpeak":5753,"ĠAnswer":5754,"Ġlatter":5755,"othing":5756,"Ġauthors":5757,"PC":5758,"ĠUnder":5759,"Ġkil":5760,"Ġdigital":5761,"Ġsitu":5762,"Ġ\"#":5763,"node":5764,"anguages":5765,"Ġwire":5766,"Ġmission":5767,"Ġinterface":5768,"abs":5769,"server":5770,"Ġsac":5771,"framework":5772,"Ġstorage":5773,"ĠDuring":5774,"Ġmenu":5775,"Ġcateg":5776,"ounced":5777,"eding":5778,"ĠiPad":5779,"Ġwouldn":5780,"names":5781,"onic":5782,"imer":5783,"Ġarchitect":5784,"ĠPal":5785,"Ġprocedure":5786,"Ġwhatever":5787,"ĠBel":5788,"flex":5789,"ĠTheir":5790,"ĠKe":5791,"tage":5792,"break":5793,"select":5794,"Ġbirds":5795,"Ġutil":5796,"aped":5797,"Ġeventually":5798,"Ġformation":5799,"Comp":5800,"pg":5801,"ĠArch":5802,"Ġhospital":5803,"Ġminor":5804,"Ġ2003":5805,"Ġunivers":5806,",--":5807,"rian":5808,"ĠCanada":5809,"äº":5810,"eration":5811,"ĠBas":5812,"Ġmo":5813,"blem":5814,"Ġdestroy":5815,"Ġrect":5816,"Number":5817,"è¿":5818,"asp":5819,"iance":5820,"Ġcomplic":5821,"Che":5822,"spec":5823,"ĠJe":5824,"Ġfailed":5825,"Ġmultip":5826,"Ġguid":5827,"ĠGen":5828,"ugg":5829,"ĠGreen":5830,"Ġonto":5831,"Ġwa":5832,"perty":5833,"Ġlov":5834,"ĠOh":5835,"block":5836,"aset":5837,"Ġmale":5838,"hover":5839,"Ġprepared":5840,"Ġlic":5841,"Ġexperiments":5842,"Lay":5843,"Ġcollected":5844,"Ġdelete":5845,"Ġlib":5846,"Ġstd":5847,"cluded":5848,"Ġecho":5849,"ĠBi":5850,"ortunately":5851,"ĠIts":5852,"ĠDevelop":5853,"Back":5854,"97":5855,"True":5856,"Ġreduction":5857,"press":5858,"struct":5859,"wood":5860,"Ġcombined":5861,"cher":5862,"ĠâĨĴ":5863,"Ġstars":5864,"([":5865,"Ġdiss":5866,"Config":5867,"zer":5868,"Ġrecords":5869,"Ġpure":5870,"icit":5871,"Sp":5872,"Ġstrugg":5873,"cohol":5874,"Ġcandid":5875,"Ġstories":5876,"Ġserve":5877,"Ġprofessional":5878,"ĠMrs":5879,"Ġfloor":5880,"Ġderiv":5881,"phone":5882,"column":5883,"ĠDE":5884,"Ġresource":5885,"fit":5886,"ĠCommun":5887,"Ġmur":5888,"ĠPort":5889,"normal":5890,"Ġthousand":5891,"else":5892,"Ġpush":5893,"fess":5894,"ĠProject":5895,"ĠSociety":5896,"Ġestimate":5897,"ĠRef":5898,"ById":5899,"ups":5900,"command":5901,"Trans":5902,"Ġrelevant":5903,"GB":5904,"Ġmm":5905,"EST":5906,"ago":5907,"Ġspeech":5908,")^":5909,"ORD":5910,"Ġmeeting":5911,"'.":5912,"dec":5913,"ĠNOT":5914,"Ġorganization":5915,"Ġhypothes":5916,"depend":5917,"Select":5918,"ĠJewish":5919,"Ġcele":5920,"ician":5921,"ontal":5922,"Ġsubsequ":5923,"olid":5924,"anges":5925,"roke":5926,"Ġinstalled":5927,"Ġlinks":5928,"\"></":5929,"ĠCounty":5930,"dir":5931,"Ġmostly":5932,"Ġselection":5933,"Ġarms":5934,"ĠSum":5935,"May":5936,"ipped":5937,"Ġaxis":5938,"Ġfirm":5939,"Ġunknown":5940,"free":5941,"Ġsand":5942,"Ġrepresented":5943,"Ġabsor":5944,"Ġcomparison":5945,"THE":5946,"Ġpp":5947,"Ġchief":5948,"ĠKey":5949,"Ġassign":5950,"Ġopened":5951,"ancing":5952,"Ġcomments":5953,"Ġremained":5954,"Ġstudied":5955,"Ġpieces":5956,"idget":5957,"Inter":5958,"quare":5959,"Ġexperien":5960,"Ġstood":5961,"Ġurl":5962,"Ġexistence":5963,"ĠĠĠĠĠĠĠĠĠĠĠĠ":5964,"Ġhappy":5965,"zed":5966,"ĠNav":5967,"core":5968,"Ġextremely":5969,"Ġtrial":5970,"Ġcampaign":5971,"Ġvirus":5972,"Ġtro":5973,"Ġbelieved":5974,"ĠView":5975,"berg":5976,"Ġbeautiful":5977,"format":5978,"ĠDiv":5979,"lig":5980,"Ġcommunication":5981,"ĠWestern":5982,"Ġcities":5983,"inder":5984,"Ġmaintain":5985,"gypt":5986,"Ġadvanced":5987,"Map":5988,"iders":5989,"has":5990,"ÐµÐ":5991,"ĠStand":5992,"inates":5993,"Ġexplained":5994,"Ġtrend":5995,"itter":5996,"rieved":5997,"Ġ2014":5998,"olean":5999,"Ġcurve":6000,"(--":6001,"Ġinterview":6002,"ĠJournal":6003,"search":6004,"adr":6005,"Ġtechnique":6006,"Ġconvers":6007,"Ġfrequently":6008,"Ġthousands":6009,"Ġtox":6010,"ĠAlex":6011,"Ġcompre":6012,"Ġassume":6013,"orter":6014,"got":6015,"ĠSen":6016,"Ġradio":6017,"Ġimmune":6018,"ĠCH":6019,"Ġsche":6020,"ĠNone":6021,"Ġrelation":6022,"Ġmel":6023,"only":6024,"Ġregarding":6025,"++)":6026,"\").":6027,"Ġparticles":6028,"Ġapart":6029,"Ġtor":6030,"ĠSun":6031,"ouble":6032,"å®":6033,"ophy":6034,"Te":6035,"Ġerrors":6036,"Info":6037,"iverse":6038,"ĠLou":6039,"lar":6040,"Ġplans":6041,"Ġfilter":6042,"spe":6043,"ĠNumber":6044,"Ġmaybe":6045,"anted":6046,"Ġperm":6047,"rd":6048,"ĠDi":6049,"[\"":6050,"ĠBen":6051,"before":6052,"Ġbond":6053,"ESS":6054,"Ġtested":6055,"nam":6056,"Ġoccurred":6057,"Ġaccuracy":6058,"ĠUN":6059,"ĠPhys":6060,"Ġgod":6061,"inity":6062,"Ġnuclear":6063,"inte":6064,"Ġemb":6065,"Ġrough":6066,"Ġkid":6067,"hetic":6068,"ĠâĪĪ":6069,"ishes":6070,"ĠMet":6071,"Ġtopic":6072,"Ġannual":6073,"Am":6074,"Ġmedium":6075,"Ġguide":6076,"Ġprepar":6077,"Repository":6078,"ĠRich":6079,"antly":6080,"ometric":6081,"QL":6082,"ĠBer":6083,"Ġfoods":6084,"Ġox":6085,"Ġefficiency":6086,"Ġattract":6087,"Group":6088,"Well":6089,"Ġinsert":6090,"Ġcultural":6091,"orph":6092,"OW":6093,"Ġfaster":6094,"ĠSaf":6095,"Ġhistorical":6096,"Ġgrav":6097,"ĠAut":6098,"Ġmix":6099,"times":6100,"Ġplayers":6101,"æĸ":6102,"Ġran":6103,"Ġ__":6104,"gent":6105,"Ġsell":6106,"ĠPeople":6107,"othe":6108,"isation":6109,"Ġraised":6110,"dered":6111,"enced":6112,"Ġpun":6113,"Ġsubjects":6114,"Ġaren":6115,"Ġcouldn":6116,"Ġbrief":6117,"Ġsustain":6118,"}^{":6119,"Ġhus":6120,"Ġicon":6121,"84":6122,"Ġdream":6123,"Ġequipment":6124,"Americ":6125,"Ġangles":6126,"Ġ36":6127,"ktop":6128,"Ġparameter":6129,"Ġ\"^":6130,"ĠMult":6131,"Ġdecrease":6132,"Ġremaining":6133,"Ġded":6134,"control":6135,"Ġvs":6136,"Ġ${":6137,"Ġextends":6138,"Ġimplementation":6139,",\\":6140,"Ġexcell":6141,"Ġrepeated":6142,"hent":6143,"enu":6144,"Ġ1000":6145,"Ġdepth":6146,"Ġcitizens":6147,"apes":6148,"alog":6149,"ä½":6150,"ructions":6151,"Ġimproved":6152,"Ġwants":6153,"Ġknows":6154,"Ġproteins":6155,"ĠDate":6156,"Ġleads":6157,"urity":6158,"xygen":6159,"icated":6160,"Ġlegis":6161,"ĠSecond":6162,"Ġtherm":6163,"ĠTra":6164,"Ġmetal":6165,"Ġsweet":6166,"Ġrul":6167,"Ġrank":6168,":\\":6169,"sec":6170,"Ġshut":6171,"river":6172,"conf":6173,"anned":6174,"Ġdut":6175,"ATION":6176,"Ġing":6177,"Ġempty":6178,"about":6179,"Mar":6180,"Ġrecorded":6181,"ĠGovernment":6182,"Dec":6183,"stood":6184,"Ġmilk":6185,"ĠDist":6186,"Ġring":6187,"Ġfreedom":6188,"Ġshot":6189,"ĠAustralia":6190,"standing":6191,"Ġmissing":6192,"reement":6193,"zen":6194,"Build":6195,"Ġtwice":6196,"object":6197,"ĠNote":6198,"project":6199,"wind":6200,"iveness":6201,"Ġcompleted":6202,"ocy":6203,"Ġelev":6204,"porary":6205,"ĠMart":6206,"Ġemp":6207,"92":6208,"spect":6209,"ĠLear":6210,"Ġarticles":6211,"Ġradiation":6212,"Ġmovie":6213,"Ġvessel":6214,"Ġjournal":6215,"Since":6216,"Ġdram":6217,"Ġcalls":6218,"ĠFound":6219,"Ġopinion":6220,"stract":6221,"Ġ(!":6222,"night":6223,"home":6224,"Ġgall":6225,"Ġpolice":6226,"Ġaccurate":6227,"outer":6228,"step":6229,"94":6230,"Ġintellig":6231,"target":6232,"ĠâĢ¦":6233,"click":6234,"ÑĮ":6235,"Ġwidely":6236,"Ġremark":6237,"Ġprocessing":6238,"Ġshell":6239,"Ġmice":6240,"ĠTV":6241,"ĠCath":6242,"Ġrequirements":6243,"ĠArab":6244,"ĠInc":6245,"ĠEducation":6246,"Last":6247,"Ġwel":6248,"Ġweap":6249,"ĠRev":6250,"ds":6251,"Ġ2002":6252,"ĠCollege":6253,"87":6254,"Ġplatform":6255,"Ġye":6256,"there":6257,"?âĢĿ":6258,"Oh":6259,"Ġlatest":6260,"ka":6261,"Ġgreatest":6262,"bert":6263,"81":6264,"private":6265,"oyal":6266,"swe":6267,"ĠGreek":6268,"irt":6269,"aud":6270,"Ġconsumption":6271,"Bar":6272,"Ġgirls":6273,"Ġpersons":6274,".]":6275,"Ġderived":6276,"boot":6277,"Cal":6278,"Ġkg":6279,"Ġdepending":6280,"ĠCourt":6281,"Ġconcepts":6282,"Ġleaving":6283,"Ġviews":6284,"Ġsigns":6285,"root":6286,"ĠÎ±":6287,"Ġmeasurement":6288,"greg":6289,"Play":6290,"SI":6291,"rics":6292,"pes":6293,"Ġbacteria":6294,"Ġoffers":6295,"oz":6296,"Ġeating":6297,"cons":6298,"Ġpopulations":6299,"Ġflat":6300,"rypt":6301,"Ġprotected":6302,"Ġemphas":6303,"Ġfruit":6304,"Ġinvolves":6305,"Ġlose":6306,"Ġcomfort":6307,"Ġreligion":6308,"ĠNULL":6309,"Mac":6310,"ceived":6311,"Ġdiabetes":6312,"Ġbow":6313,"poses":6314,"Ġcro":6315,"osph":6316,"Ġthou":6317,"Ġacadem":6318,"ĠReview":6319,"request":6320,"RNA":6321,"password":6322,"ĠWork":6323,"Ġentirely":6324,"Ġmagnetic":6325,"Ġprices":6326,"ĠJul":6327,"Create":6328,"Ġchallenge":6329,"Ġinvolve":6330,"SON":6331,"PL":6332,"93":6333,"ðŁ":6334,"Ġfib":6335,"ĠService":6336,"Ġfrag":6337,"ĠIII":6338,"Ġinches":6339,"!--":6340,"Ġsupposed":6341,"Ġsen":6342,"Ġ2001":6343,"ĠBay":6344,"Ġinteraction":6345,"ĠWhite":6346,"osh":6347,"Status":6348,"ums":6349,"EY":6350,"Ġbattery":6351,"itative":6352,"Ġhidden":6353,"Ġhorse":6354,"ĠPublic":6355,"Ġextent":6356,"Ġwest":6357,"Ġresolution":6358,"urance":6359,"Ġcollege":6360,"Ġhelped":6361,"ĠJesus":6362,"care":6363,"Ġcompare":6364,"EM":6365,"ij":6366,"space":6367,"Ġspot":6368,"Ġgent":6369,"ĠOpen":6370,"Ġhighlight":6371,"Ġneither":6372,"Ġshared":6373,"ĠOnce":6374,"ĠOld":6375,"Ġpray":6376,"è¯":6377,"ĠAng":6378,"Ġstorm":6379,"ĠCouncil":6380,"writ":6381,"rep":6382,"udget":6383,"Ġbone":6384,"Ġreferred":6385,"Ġintended":6386,"rl":6387,"ĠBoth":6388,"Load":6389,"Ġsurgery":6390,"gra":6391,"Box":6392,"Ġchain":6393,"ĠEgypt":6394,"Ġimmun":6395,"Ġdaughter":6396,"claim":6397,"Ġglo":6398,"Ġforced":6399,"Ġcategory":6400,"ÃĹ":6401,"ĠJapanese":6402,"Ġrevealed":6403,"Ġthread":6404,"ologist":6405,"Ġpractices":6406,"draw":6407,"});":6408,"icians":6409,"''":6410,"ĠFe":6411,"bling":6412,"Ġadop":6413,"Ġsounds":6414,"write":6415,"Ġplanning":6416,"Ġmainly":6417,"Ġdistingu":6418,"Ġconfir":6419,"ĠAssociation":6420,"Ġstrategies":6421,"arts":6422,"Ass":6423,"ansion":6424,"Ġconsc":6425,"irty":6426,"ĠHome":6427,"Are":6428,"Ġtwenty":6429,"ĠSl":6430,"ĠNews":6431,"Ġboys":6432,"Ġtill":6433,"ĠJack":6434,"ifications":6435,"Ġinh":6436,"Ġchosen":6437,"imation":6438,"Ġconsistent":6439,"ding":6440,"Ġfilled":6441,"Ġbroken":6442,"ãĢĤ":6443,"full":6444,"theta":6445,"Ġsugar":6446,"Ġindicates":6447,"fa":6448,"Ġlanguages":6449,"UM":6450,"Ġsnow":6451,"Ġreact":6452,"icip":6453,"angular":6454,"umes":6455,"tn":6456,"case":6457,"Ġruns":6458,"Ġlock":6459,"Ġ\\\"":6460,"Ġpossess":6461,"Ġentry":6462,"Ġserved":6463,"icular":6464,"Ġfamous":6465,"Char":6466,"ourse":6467,"Ġreturns":6468,"sv":6469,"Ġfol":6470,"PT":6471,"edit":6472,"ishing":6473,"Ġperspect":6474,"Ġnumerous":6475,"gency":6476,"Ġinterval":6477,"Link":6478,"Ġdelay":6479,"400":6480,"Ġarmy":6481,"ĠMedic":6482,"default":6483,"Ġseeing":6484,"XX":6485,"markdown":6486,"ĠRobert":6487,"Em":6488,"Ġfamiliar":6489,"OM":6490,"had":6491,"Ġoffered":6492,"Ġexcess":6493,"ÂłĊ":6494,"they":6495,"rat":6496,"ĠNov":6497,"Ġdiscussed":6498,"Ġyouth":6499,"Ġimpossible":6500,"Ġstick":6501,"ĠTom":6502,"inations":6503,"Ġasync":6504,"Ġcub":6505,"sembly":6506,"Ġphenomen":6507,"ĠWhere":6508,"Ġalgebra":6509,"Open":6510,"ĠHT":6511,"83":6512,"\"],":6513,"Ġmechanism":6514,"Ġproperly":6515,"---":6516,"ypes":6517,"Ġthin":6518,"Ġvertical":6519,"range":6520,"endar":6521,"Ġvoltage":6522,"Ġstated":6523,"ushed":6524,"ĠCharles":6525,"Ġideal":6526,"Ġdetailed":6527,"Ġlaunch":6528,"ĠUK":6529,"Ġproceed":6530,"Ġnoise":6531,"ĠIll":6532,"ĠPage":6533,"Ġamb":6534,"Ġremote":6535,"reated":6536,"elines":6537,"ĠNAS":6538,"oking":6539,"Ġraise":6540,"Ġportion":6541,"ya":6542,"ĠGl":6543,"Ġpossibly":6544,"mathrm":6545,"Ġconsists":6546,"Ġlinked":6547,"AND":6548,"null":6549,"Ġteach":6550,"ĠStep":6551,"Ġliquid":6552,"Ġ150":6553,"ĠNor":6554,"Ġprison":6555,"ĠJews":6556,"Ġvent":6557,"Ġalcohol":6558,"Other":6559,"service":6560,"ASS":6561,"91":6562,"ĠMag":6563,"Ġwindows":6564,"Ġcredit":6565,"pm":6566,"rary":6567,"Ġpictures":6568,"ĠSal":6569,"Ġneut":6570,"Ġstored":6571,"ĠFunction":6572,"uing":6573,"Ġproportion":6574,"Ġneighbor":6575,"Ġmetab":6576,"Point":6577,"Ġ400":6578,"Ġboot":6579,"Ġradius":6580,"Ġcircuit":6581,"ĠBill":6582,"exas":6583,"ĠTw":6584,"Ġindicated":6585,"Ġprinciple":6586,"âĤ":6587,"íķ":6588,"Ġsight":6589,"fall":6590,"Ġoperating":6591,"second":6592,"Ġmixed":6593,"Stud":6594,"Ġwit":6595,"ictionary":6596,"PR":6597,"Ġterrit":6598,"Ġreality":6599,"Ġapprec":6600,"itud":6601,"ĠMass":6602,"Ġspend":6603,"Ġmathematical":6604,"Ġmotor":6605,"Our":6606,"response":6607,"Ġcreation":6608,"ĠJer":6609,"Ġtypical":6610,"BS":6611,"Ġfluid":6612,"itionally":6613,"Ġexplore":6614,"Ġoxygen":6615,"Ġinteger":6616,"eger":6617,"going":6618,"ĠPo":6619,"FA":6620,"ĠVirgin":6621,"Ġslowly":6622,"300":6623,"Ġstat":6624,"Ġdetail":6625,"Ġadj":6626,"Ġpoet":6627,"ky":6628,"pred":6629,"etime":6630,"ini":6631,"oose":6632,"ĠMal":6633,"Ġdespite":6634,"aven":6635,"Ġpractical":6636,"Ġbes":6637,"CON":6638,"aph":6639,"cules":6640,"Ġbodies":6641,"ugin":6642,"Ġplus":6643,"Ġworse":6644,"ĠYes":6645,"rich":6646,"Ġ(\"":6647,"lections":6648,"Ġwealth":6649,"Ġappoint":6650,"ĠHenry":6651,"Ġeast":6652,"ether":6653,"Ġadm":6654,"Ġminute":6655,"Ġdivision":6656,"Ġdecisions":6657,"Ġforth":6658,"ĠThomas":6659,"process":6660,"Ġmeasurements":6661,"Ġtrouble":6662,"âĶĢ":6663,"oom":6664,"Ġfro":6665,"ented":6666,"Ġfundamental":6667,"Pass":6668,"Ġemot":6669,"env":6670,"Ġopening":6671,"ĠQue":6672,"Ġcamera":6673,"tical":6674,"ĠChapter":6675,"Ġassessment":6676,"ĠPlan":6677,"Ġhaven":6678,"ometimes":6679,"yd":6680,"Ġplate":6681,"ĠSEE":6682,"CS":6683,"Ġisland":6684,"Ġmine":6685,"Ġprecise":6686,"Ġwhereas":6687,"Ġcorner":6688,"EX":6689,"Find":6690,"æķ°":6691,"Ġidentity":6692,"Listener":6693,"æĺ":6694,"ĠLike":6695,"ĠGroup":6696,"matrix":6697,"media":6698,"cycl":6699,"Ġdirectory":6700,"springframework":6701,"Ġhousehold":6702,"inf":6703,"Ġpurposes":6704,"have":6705,"ĠIP":6706,"Ã¼":6707,"ĠWater":6708,"ĠÐ¿":6709,"born":6710,"Ġprinciples":6711,"Ġvision":6712,"Ġ2015":6713,"Ġcausing":6714,"faces":6715,"ĠBet":6716,"Ġ<-":6717,"zing":6718,"Î±":6719,"olt":6720,"rip":6721,"lets":6722,"ĠAtt":6723,"ffff":6724,"Ġclim":6725,"transform":6726,"Ġreject":6727,"isted":6728,"Ġaspects":6729,"Ġdrawn":6730,"Ġcomprehens":6731,"Ġmouse":6732,"icity":6733,"Ġec":6734,"\":\"":6735,"/>":6736,"Ġrelationships":6737,"æĪ":6738,"atell":6739,"Ġtemperatures":6740,"cat":6741,"Ġrecommended":6742,"arg":6743,"','":6744,"ĠTur":6745,"Ġ48":6746,"Ġinvestment":6747,"Ġoccasion":6748,"Ġcere":6749,"nergy":6750,"Ġbecoming":6751,"ervices":6752,"Ġapproaches":6753,"iously":6754,"ye":6755,"Ġtells":6756,"Ġauthority":6757,"mal":6758,"uable":6759,"Ġnarrow":6760,"Ġprompt":6761,"Ġ75":6762,"Ġsubstant":6763,"Ġyellow":6764,"Ġmarked":6765,"IA":6766,"Ġease":6767,"mt":6768,"Ġturns":6769,"Ġvisible":6770,"umin":6771,"bles":6772,"ĠTO":6773,"Ġtasks":6774,"Ġfigures":6775,"Many":6776,"Ġexperimental":6777,"Ġrid":6778,"xi":6779,"Client":6780,"ĠPeter":6781,"Ġli":6782,"Ġsuppl":6783,"ĠSection":6784,"Ġseed":6785,"Ġgrade":6786,"Ġherself":6787,"ÑģÑĤ":6788,"ĠÂµ":6789,"Ġexposed":6790,"Ġ<=":6791,"Ġcrow":6792,"Ġdiagnosis":6793,"nomial":6794,"Ġallowing":6795,"ota":6796,"isc":6797,"txt":6798,"sem":6799,"ernel":6800,"Ġpackage":6801,"ĠPhil":6802,"Ġdemonstrated":6803,"icial":6804,"ĠGra":6805,"-\\":6806,"Ġuniform":6807,"Ġstrange":6808,"nel":6809,"pload":6810,"Ġspecifically":6811,"Ġkeyboard":6812,"Conn":6813,"82":6814,"mas":6815,"olf":6816,"Product":6817,"ĠBro":6818,"enses":6819,"ribed":6820,"ĠPower":6821,"scale":6822,"Ð²":6823,"Ġobservations":6824,"Ġ1990":6825,"ĠLine":6826,"Ġsymmet":6827,"ses":6828,"Ġmal":6829,"ĠInformation":6830,"Ġappearance":6831,"Ġdecades":6832,"Ġillness":6833,"Ġinnov":6834,"/**":6835,"Ġbuff":6836,"Ġmedicine":6837,"å¤":6838,"Ġextended":6839,"%.":6840,"ĠExt":6841,"Ġtechnical":6842,"ĠAtl":6843,"Ġsexual":6844,"Ġcircumst":6845,"van":6846,"ĠSpanish":6847,"ĠRetrieved":6848,"ologists":6849,"Eng":6850,"Ġ2020":6851,"Ġcorrelation":6852,"menu":6853,"Ġentered":6854,"ttps":6855,"Ġsam":6856,"Ġoutcomes":6857,"ora":6858,"Ġsouthern":6859,"ĠNum":6860,"Ġadvance":6861,"Go":6862,"Ġfle":6863,"ĠFore":6864,"ĠId":6865,"Ġgrass":6866,"ĠMain":6867,"ashion":6868,"ville":6869,"Ġ\"<":6870,"aser":6871,"Ġrender":6872,"Ġshift":6873,"cluding":6874,"Ġwet":6875,"ĠAnother":6876,"ĠLong":6877,"Â·":6878,"kin":6879,"Ġsuc":6880,"ĠExpl":6881,"Ġinject":6882,"event":6883,"Ġblog":6884,"Ġupdated":6885,"ĠSpace":6886,"teen":6887,"Change":6888,"ructure":6889,"Ġperp":6890,"ĠShow":6891,"such":6892,"Ġpul":6893,"Ġadult":6894,"APTER":6895,"ĠEnvironment":6896,"Ġ33":6897,"Ġinflam":6898,"Ġsomewhat":6899,"Ġpounds":6900,"background":6901,"astern":6902,"Ġmuscle":6903,"Ġvast":6904,"ĠDan":6905,"Ġbackup":6906,"Ġocean":6907,"Ġnorthern":6908,"grade":6909,"Ġrgba":6910,"angles":6911,"ĠTem":6912,"ĠStage":6913,"Ġscan":6914,"Ġmessages":6915,"Ġcalc":6916,"Ġhttps":6917,"west":6918,"QU":6919,"Override":6920,"fold":6921,"Ġhusband":6922,"Take":6923,"Ġeducational":6924,"VER":6925,"Ġexplanation":6926,"eal":6927,"Ġatmosphere":6928,"Ġconvent":6929,"Ġchapter":6930,"Ġstarts":6931,"author":6932,"ĠGood":6933,"ersion":6934,"game":6935,"ĠïĢ":6936,"Ġurban":6937,"Ġjobs":6938,"ĠIr":6939,"Ġexcellent":6940,"ola":6941,"ĠFact":6942,"temp":6943,"ounter":6944,"login":6945,"Ġkeeping":6946,"Although":6947,"alian":6948,"ĠTexas":6949,"ĠLatin":6950,"Ġ'./":6951,"Ġstret":6952,"ĠLife":6953,"rating":6954,"ĠOnly":6955,"Ġscene":6956,"vari":6957,"Ġadvice":6958,"Ġleader":6959,"BN":6960,"Ġroots":6961,"CP":6962,"âĢ¦âĢ¦":6963,"ĠSmith":6964,"Ġdivers":6965,"ĠPub":6966,"ĠIsland":6967,"ĠCheck":6968,"Rem":6969,"Head":6970,"inn":6971,"rows":6972,"Ġpossibility":6973,"Ġgal":6974,"context":6975,"Ġcart":6976,"ĠBur":6977,"Ġtumor":6978,"Ġdisorder":6979,"ĠAsia":6980,"Ġdefinite":6981,"ĠLibrary":6982,"Ġtal":6983,"ĠMem":6984,"Ġstone":6985,"Ġsoul":6986,"}>":6987,"TR":6988,"ĠSuch":6989,"Ġkin":6990,"Ġlie":6991,"Ġanalys":6992,"Ġconcerned":6993,"Ġsecondary":6994,"Ġdetection":6995,"styles":6996,"what":6997,"Ġampl":6998,"Ġmanufacture":6999,"Aut":7000,"ifact":7001,"Fact":7002,"auth":7003,"nb":7004,"ifferent":7005,"Ġmg":7006,"Ġ($":7007,"agon":7008,"achine":7009,"Ġinstrument":7010,"Ġlargely":7011,"Ġincorpor":7012,"ĠDu":7013,"Ġdirector":7014,"According":7015,"Ġjump":7016,"Ġsession":7017,"ĠMexico":7018,"Ġrecept":7019,"client":7020,"tex":7021,"Ġcelebr":7022,"images":7023,"akers":7024,"Ġcards":7025,"Ġloop":7026,"Ġindustrial":7027,"ĠQuestion":7028,"Ġstanding":7029,"Ġhero":7030,"Bl":7031,"Ġengineering":7032,"cis":7033,"mic":7034,"ĠName":7035,"Ġcareer":7036,"Ġquantity":7037,"arant":7038,"Layout":7039,"{\"":7040,"Ġcoal":7041,"Ġemissions":7042,"Label":7043,"Result":7044,"Ġvictim":7045,"Ġaid":7046,"Ġminim":7047,"ATH":7048,"Most":7049,"ads":7050,"Library":7051,"Ã§":7052,"Ġfellow":7053,"iot":7054,"Ġpolicies":7055,"<?":7056,"Ġautomatically":7057,"ato":7058,"Ġunlike":7059,"dep":7060,"update":7061,"note":7062,"Ġelectron":7063,"ç»":7064,"Ġbuildings":7065,"çĶ¨":7066,"Ġdiscover":7067,"Ġsick":7068,"ĠTrue":7069,"Ġmathematics":7070,"Ġtail":7071,"std":7072,"Ġamounts":7073,"rot":7074,"Ġregist":7075,"will":7076,"ĠColor":7077,"Ġflag":7078,"Des":7079,"eper":7080,"ĠAv":7081,"lines":7082,"ounded":7083,"Ġlisted":7084,"Mr":7085,"Ġcollabor":7086,"Ġunderstood":7087,"Ġasking":7088,"Ġul":7089,"Ġflight":7090,"elta":7091,"Ġnetworks":7092,"Ġsuccessfully":7093,"Source":7094,"jpg":7095,"Ġusual":7096,"Ġflood":7097,"Ġlies":7098,"him":7099,"acific":7100,"Ġpark":7101,"ĠMethod":7102,"Ġimplic":7103,"ĠEnd":7104,"close":7105,"wer":7106,"III":7107,"cers":7108,"åĬ":7109,"define":7110,"ĠControl":7111,"Ġaccompl":7112,"Right":7113,"Ġsky":7114,"reshold":7115,"Ġfacts":7116,"xture":7117,"lementary":7118,"ĠElect":7119,"itan":7120,"Ġphotos":7121,"Ġos":7122,"Ġlimits":7123,"Ġdocuments":7124,"ĠHD":7125,"Ġhur":7126,"Ġroll":7127,"Ġsmooth":7128,"gray":7129,"Ġlesson":7130,"Ġplays":7131,"Ġconfidence":7132,"Ġfunctional":7133,"Ġtab":7134,"Ġbiological":7135,"Ġclosely":7136,"Action":7137,"ĠMa":7138,"ĠHuman":7139,"Ñĩ":7140,"Ġexperienced":7141,"ho":7142,"imary":7143,"255":7144,"á»":7145,"Ġquiet":7146,"ĠĠĠĠĠĠĠĠĠĠĠĠĠĠ":7147,"Ġ2017":7148,"ĠPlay":7149,"Ġcriteria":7150,"IST":7151,"ĠSpe":7152,"Ġnine":7153,"Ġ2016":7154,"ĠArmy":7155,"orig":7156,"ĠAR":7157,"Jan":7158,"ÐµÐ½":7159,"Ġdecimal":7160,"Ġprofile":7161,"values":7162,"IO":7163,"Ġchallenges":7164,"Ġholding":7165,"SP":7166,"Ġmarried":7167,"description":7168,"Ġconsidering":7169,"Ġquery":7170,"Ġvolunt":7171,"Ġbear":7172,"Another":7173,"border":7174,"opic":7175,"Ġsurvival":7176,"Ġreducing":7177,"Ġplain":7178,"Ġuns":7179,"ĠIslam":7180,"python":7181,"Att":7182,"Ġlogic":7183,"Ġaccounts":7184,"Ġclaims":7185,"bel":7186,"circ":7187,"Ġexchange":7188,"Ġeffectively":7189,"Ġgentle":7190,"Ġexpon":7191,"Ġ37":7192,"ĠSupp":7193,"Ġsed":7194,"ql":7195,"Ġregul":7196,"rogen":7197,"Ġmountain":7198,"ĠMicrosoft":7199,"ellect":7200,"Ġ-->":7201,"Ġforget":7202,"Ġachieved":7203,"():":7204,"EC":7205,"apse":7206,"ĠUSA":7207,"Ġenable":7208,"allow":7209,"Ġsalt":7210,"TS":7211,"Ġmoon":7212,"Check":7213,"Ġrepresentation":7214,"Ġinjury":7215,"ĠLouis":7216,"orry":7217,"Ġstopped":7218,"Ġstreet":7219,"riend":7220,"Ġwaters":7221,"ĠYet":7222,"Ġnodes":7223,"ĠMuseum":7224,"Ġphysics":7225,"*/":7226,"Ġvehicle":7227,"Ġmanage":7228,"Ã¢":7229,"Ġspl":7230,"Ġpartition":7231,"cm":7232,"Ġpriv":7233,")-":7234,"Ġbinary":7235,"child":7236,"Ġcontrolled":7237,"Ġevaluate":7238,"ĠSign":7239,"Ġseek":7240,"Ġrestrict":7241,"Ġ1999":7242,"Ġpowers":7243,"\"),":7244,"ĠFrank":7245,"Ġevaluation":7246,"Ġdiameter":7247,"sign":7248,"osc":7249,"Ġhelpful":7250,"Ġsaved":7251,"Fl":7252,"Ġabund":7253,"Ġfert":7254,"Where":7255,"Net":7256,"Ġelectro":7257,"Ġconversion":7258,"istan":7259,"Ġcontrols":7260,"alpha":7261,"axis":7262,"Ġsharp":7263,"Ġped":7264,"lem":7265,"ulum":7266,"').":7267,"Ġgarden":7268,"rays":7269,"Ġdetected":7270,"ĠPlease":7271,"cuss":7272,"adian":7273,"Ġkinds":7274,"Ġdivis":7275,"DS":7276,"ĠCa":7277,"ĠCentral":7278,"ifies":7279,"Ġconservation":7280,"Ġthoughts":7281,"ensus":7282,"swered":7283,"Ġroute":7284,"important":7285,"¿½":7286,"Ġuncertain":7287,"Ġmobile":7288,"'),":7289,"Ġperman":7290,"ycl":7291,"2012":7292,"Hand":7293,"Ġwaves":7294,"Ġpil":7295,"Ġreform":7296,"Ġchannel":7297,"ĠSec":7298,"Ġscores":7299,"Ġrecovery":7300,"ĠExample":7301,"////////":7302,"ĠMathemat":7303,"################":7304,"Ġprofessor":7305,"ĠÂ±":7306,"Ġstatistics":7307,"Entity":7308,"float":7309,"Ġprem":7310,"DB":7311,"ita":7312,"Ġhardware":7313,"Equ":7314,"2013":7315,"cription":7316,"ivation":7317,"Ġagreement":7318,"Ġviolence":7319,"ĠMacBook":7320,"Ġreplaced":7321,"Ġrapidly":7322,"Ġenemy":7323,"Ġaf":7324,"Ġconclusion":7325,"shadow":7326,"Ġwalls":7327,"Ġcontained":7328,"Ġnucle":7329,"Ġgar":7330,"../../":7331,"ĠCP":7332,"Ġbegins":7333,"Ġassociation":7334,"Question":7335,"Ġrecognized":7336,"ĠCreate":7337,"Ġowners":7338,"Ġpig":7339,"Ġpartners":7340,"Ġmeat":7341,"Ġspin":7342,"Ġtechnologies":7343,"vol":7344,"ourney":7345,"Ġconsult":7346,"scape":7347,"Ġcritic":7348,"Part":7349,"Ġnormally":7350,"Ġorganizations":7351,"erest":7352,"ette":7353,"ĠHam":7354,"ĠEmp":7355,"Ġcorpor":7356,"Ġcapable":7357,"pop":7358,"ested":7359,"Ġ64":7360,"Ġinfinite":7361,"Ġexperiences":7362,"zy":7363,"________________":7364,"ching":7365,"static":7366,"ROM":7367,"Write":7368,"Ġinflamm":7369,"strong":7370,"ĠMedical":7371,"Ġrational":7372,"bg":7373,"ĠCatholic":7374,"Ġadministration":7375,"ĠAT":7376,"Ġofficials":7377,"Ġeditor":7378,"Ġdisorders":7379,"ĠAp":7380,"Ġexpert":7381,"Ġcalculation":7382,"Ġneighb":7383,"template":7384,"Ġtables":7385,"ĠComput":7386,"when":7387,"Ġconfiguration":7388,"Ġformal":7389,"hema":7390,"ĠSep":7391,"Ġpositions":7392,"Ġends":7393,"ki":7394,"estions":7395,"ĠOffice":7396,"Ġsucceed":7397,"Ġmarriage":7398,"Ġchronic":7399,"Ġmolecules":7400,"Any":7401,"Ġvul":7402,"Ġtaught":7403,"dist":7404,"Script":7405,"Ġinstitutions":7406,"Ġprincipal":7407,"Ġmit":7408,"avor":7409,"Ġrefers":7410,"Ġprimarily":7411,"ĠVer":7412,"racy":7413,"AY":7414,"ught":7415,"ĠSocial":7416,"ĠCompany":7417,"Ġvillage":7418,"emic":7419,"Ġparticle":7420,"Ġdriving":7421,"Ġexceed":7422,"holder":7423,"Ġmagnitude":7424,"Ġsuddenly":7425,"erves":7426,"ĠAN":7427,"Ġadopted":7428,"rition":7429,"webkit":7430,"success":7431,"Ġspecified":7432,"Ġnations":7433,"Ġconcerns":7434,"otype":7435,"Pre":7436,"ĠRussian":7437,"ĠConn":7438,"Ġstable":7439,"Ġ120":7440,"references":7441,"Ġbott":7442,"organ":7443,"Comm":7444,"ĠInf":7445,"ett":7446,"drop":7447,"ĠJose":7448,"Ġdollars":7449,"Ġfault":7450,"letion":7451,"ĠGM":7452,"heet":7453,"Ġrub":7454,"Ġpassing":7455,"ĠType":7456,"cdot":7457,"ðĿĳ":7458,"ĠAge":7459,"Ġdebt":7460,"ĠDel":7461,"push":7462,"enter":7463,"iox":7464,"Ġmoral":7465,"Ġnit":7466,"ĠMS":7467,"Ġ95":7468,"Ġevening":7469,"Ġemployed":7470,"va":7471,"Ġopportunities":7472,"aturally":7473,"Co":7474,"Ġvariation":7475,"Ġattacks":7476,"RL":7477,"ĠÂ·":7478,"ĠRad":7479,"imensional":7480,"Ġdriver":7481,"ĠNASA":7482,"Ġcolumns":7483,"ĠMD":7484,"Ġturning":7485,"rons":7486,"ĠAnn":7487,"tic":7488,"Ġble":7489,"Ġdangerous":7490,"Ġholds":7491,"ona":7492,"itivity":7493,"ĠMad":7494,"Ġgrew":7495,"Ġwestern":7496,"osa":7497,"Start":7498,"Ġwilling":7499,"ald":7500,"Ġneuro":7501,"Ġdistributed":7502,"Ġcontinues":7503,"ĠWho":7504,"Ġarrange":7505,"Ġpool":7506,"ĠStreet":7507,"Ġchrom":7508,"Ġhence":7509,"onym":7510,"Card":7511,"LO":7512,"Mat":7513,"ĠMo":7514,"Ġprotocol":7515,"Ġdf":7516,"Ġlen":7517,"Ġshr":7518,"Search":7519,"ĠDevelopment":7520,"Ġdesired":7521,"ĠRob":7522,"PM":7523,"Ġversions":7524,"Ġjoin":7525,"venue":7526,"Ġthee":7527,"Ġhypothesis":7528,"rolog":7529,")]":7530,"Ã¶":7531,"Web":7532,"grid":7533,"fessor":7534,"Ġgoals":7535,"bu":7536,"ĠBritain":7537,"GE":7538,"Ġdependent":7539,"Ġwaiting":7540,"ĠGold":7541,"ĠModel":7542,"Ġhomes":7543,"Ġmodified":7544,"Ġgrown":7545,"Ġdescribes":7546,"Ġobser":7547,"Ġmanaged":7548,"Ġagent":7549,"ĠMoreover":7550,"Ġattached":7551,"Ġfocused":7552,"ĠKore":7553,"Ġcris":7554,"Ġstem":7555,"ccount":7556,"irror":7557,"Ġexecut":7558,"Ġnecessarily":7559,"Ġstatistical":7560,"ĠIV":7561,"Ġske":7562,"Ã£":7563,"Ġdesire":7564,"Ġperspective":7565,"Ġcogn":7566,"eties":7567,"ĠJud":7568,"aked":7569,"who":7570,"\"><":7571,"Ġoutcome":7572,"Ġprogramming":7573,"Ġresponses":7574,"Use":7575,"Ġtheore":7576,"Ġcars":7577,"Ġphoto":7578,"Ġconflict":7579,"Ġsections":7580,"Ġcontribute":7581,"Ġmail":7582,"ĠObama":7583,"tra":7584,"Ġquarter":7585,"Ġcursor":7586,"Ġperiods":7587,"ĠJava":7588,"Ġuniverse":7589,"Ġtraffic":7590,"ĠAcadem":7591,"Ġhundreds":7592,"Ġsector":7593,"Ġfly":7594,"Ġbrown":7595,"Ġcardi":7596,"Ġcomputers":7597,"Ġduration":7598,"Ġcash":7599,"Ġanswered":7600,"Ġ>>":7601,"Ġ34":7602,"Ġbought":7603,"American":7604,"called":7605,"+\\":7606,"Ġrail":7607,"Ġcaught":7608,"Ġmeters":7609,"Ġdrawing":7610,"Ġvaluable":7611,"opyright":7612,"Ġsecure":7613,"Ġaccum":7614,"Ġcert":7615,"Ġneur":7616,"bell":7617,"ĠMill":7618,"Ġexpensive":7619,"Ġvirtual":7620,"ĠBC":7621,"Ġshoot":7622,"ĠTH":7623,"åŃ":7624,"indu":7625,"ĠuseState":7626,"Ġbeat":7627,"Ġpanel":7628,"ĠSimilar":7629,"]);":7630,"Ġproved":7631,"ĠReact":7632,"Ġcarefully":7633,"ÏĢ":7634,"ndrome":7635,"apped":7636,"Title":7637,"ĠVis":7638,"ĠMake":7639,"Ġrecall":7640,"Ġdivide":7641,"`,":7642,"Ġphr":7643,"ERT":7644,"Ġelectrical":7645,"Ġexpansion":7646,"Ġpotentially":7647,"dx":7648,"gun":7649,"ĠEnergy":7650,"Ġreader":7651,"Ġorganic":7652,"Ġmoves":7653,"Ġtut":7654,"aming":7655,"inating":7656,"Ġsplit":7657,"ircraft":7658,"ĠCap":7659,"Ġbudget":7660,"ĠProt":7661,"aded":7662,"ua":7663,"NE":7664,"GF":7665,"Ġdust":7666,"Ġspeaking":7667,"gr":7668,"Ġliver":7669,"Ġinner":7670,"Ġquadr":7671,"Ġcommit":7672,"ĠUt":7673,"Ġsoldiers":7674,"Ġastron":7675,"Ġinternet":7676,"ĠObject":7677,"oured":7678,"Ġcloser":7679,"mes":7680,"inet":7681,"ĠCR":7682,"fty":7683,"Ġcorrel":7684,"Activity":7685,"ĠMichael":7686,"Ġsignals":7687,".\\":7688,"Ġ{\\":7689,"Ġinstructions":7690,"Ġinvolving":7691,"Ġsituations":7692,"ART":7693,"ocratic":7694,"hered":7695,"ĠPoint":7696,"usal":7697,"Ġhouses":7698,"Each":7699,"Ġdepression":7700,"ĠFoundation":7701,"Ġru":7702,"Ġdomestic":7703,"Ġluck":7704,"msg":7705,"Ġarrived":7706,"ĠPass":7707,"Ġ2019":7708,"Ġ2018":7709,"Ġputting":7710,"xx":7711,"Ġdecide":7712,"Ġscar":7713,"BA":7714,"Ġexperts":7715,"Ġban":7716,"Ð¼":7717,"real":7718,"Ġintegral":7719,"Ġacademic":7720,"Ġmodule":7721,"Ġrisks":7722,"è®":7723,"Ġpairs":7724,"Ġhorizontal":7725,"Ġconfirmed":7726,"utation":7727,"VI":7728,"Ġprev":7729,"ĠÏĢ":7730,"Ġoriginally":7731,"Ġbinding":7732,"Ġmerely":7733,"Ġcontem":7734,"Ġhearing":7735,"ĠMiddle":7736,"ĠStart":7737,"ADME":7738,"contin":7739,"rus":7740,"Ġsubs":7741,"ĠÎ²":7742,"Ġmechanisms":7743,"Ġexception":7744,"Ġhunt":7745,"imple":7746,"FS":7747,"ĠĠĠĠĠĠĠĠĠĠĠĠĠĠĠĠĠĠĠĠĠĠĠĠĠ":7748,"Ġframework":7749,"Cons":7750,"Ġordered":7751,"Ġsuitable":7752,"Ġstrongly":7753,"Ġpolar":7754,"ĠSuper":7755,"URL":7756,"ĠRome":7757,"Ġaudio":7758,"Ġren":7759,"Ġrevolution":7760,"Step":7761,"ena":7762,"ĠSpec":7763,"Ġsmart":7764,"600":7765,"Ġearn":7766,"ĠUSB":7767,"Edit":7768,"Ġregression":7769,"hemical":7770,"Ġacts":7771,"Ġinfo":7772,"PD":7773,"Wind":7774,"stud":7775,"Ġvan":7776,"vas":7777,"Ġdigits":7778,"ogether":7779,"Ġcentre":7780,"Ġthanks":7781,"Ġimg":7782,"ascular":7783,"Ġcolors":7784,"Ġinsect":7785,"ĠLand":7786,"}^":7787,"Ġcomposition":7788,"CA":7789,"Ġ1998":7790,"Ġpolynomial":7791,"avax":7792,"ĠDoes":7793,"Ġtub":7794,"ĠEngine":7795,"direction":7796,"isters":7797,"Ġalle":7798,"margin":7799,"Ġdynamic":7800,"Enter":7801,"Rel":7802,"Ġelectricity":7803,"Ġcrucial":7804,"Ġfourth":7805,"ĠPacific":7806,"Ġdigit":7807,"Ġdecreased":7808,"ĠSea":7809,"Ġstack":7810,"ĠMuslim":7811,"Ġtag":7812,"Ġbrand":7813,"orses":7814,"Ill":7815,"employ":7816,"filter":7817,"igate":7818,"person":7819,"Ġconstraint":7820,"Ġmaps":7821,"Ġprofession":7822,"fff":7823,"Ġahead":7824,"Ġsales":7825,"Ġsurrounding":7826,"Car":7827,"ideos":7828,"Ġpromote":7829,"ensor":7830,"kg":7831,"hesis":7832,"Ġinteract":7833,"Just":7834,"Ġbread":7835,"Ġdifficulty":7836,"craft":7837,"inant":7838,"asy":7839,"req":7840,"azine":7841,"ĠFree":7842,"Ġimmig":7843,"Ġtun":7844,"ĠVirginia":7845,"Ġles":7846,"ĠFlor":7847,"Ġfinished":7848,"Don":7849,"ĠMer":7850,"ĠWik":7851,"Ġunable":7852,"Ġextension":7853,"Ġdiscovery":7854,"aneous":7855,"$$\\":7856,"oster":7857,"ipping":7858,"ĠOrgan":7859,"iral":7860,"Ġinterests":7861,"ĠRussia":7862,"iration":7863,"Med":7864,"Ġages":7865,"Ġcryst":7866,"Ġenhance":7867,"ĠCarol":7868,"ĠParis":7869,"Ġobservation":7870,"ican":7871,"OP":7872,"non":7873,"Ġteeth":7874,"Ġeggs":7875,"Two":7876,"ione":7877,"??":7878,"Ġsegment":7879,"Ġestimates":7880,"âĶĢâĶĢ":7881,"800":7882,"ĠCamp":7883,"Ġtoler":7884,"Ġmassive":7885,"Ġgreatly":7886,"fol":7887,"Ġnoticed":7888,"hi":7889,"Ø§":7890,"Ġstrict":7891,"Ġcircumstances":7892,"del":7893,"ĠFood":7894,"Ġtopics":7895,"ĠWhich":7896,"Ġbeauty":7897,"ĠCivil":7898,"Ġflowers":7899,"'],":7900,"asant":7901,"Ġ['":7902,"ecess":7903,"Ġvac":7904,"atar":7905,"Ġarguments":7906,"Ġfairly":7907,"MM":7908,"Ġlaid":7909,"Ġ'@":7910,"ĠCommission":7911,"ĠWil":7912,"rates":7913,"ipedia":7914,"orous":7915,"Ġshel":7916,"localhost":7917,"orough":7918,"oded":7919,"ĠAbout":7920,"ĠRom":7921,"Ġslope":7922,"ras":7923,"ĠRichard":7924,"Ġsupports":7925,"tw":7926,"bered":7927,"Url":7928,"gence":7929,"Ġmillions":7930,"Ġintensity":7931,"Ġsequences":7932,"SH":7933,"world":7934,"Ġcoefficient":7935,"Ġwalking":7936,"Password":7937,"ped":7938,"ĠTer":7939,"plt":7940,"ĠLabor":7941,"ĠFire":7942,"Ġalb":7943,"Ġwear":7944,"Ġdefect":7945,"module":7946,"FL":7947,"ivery":7948,"Ġsitting":7949,"ston":7950,"edy":7951,"ĠJun":7952,"Ġshock":7953,"ĠMedicine":7954,"doc":7955,"Ġwriter":7956,"Ġdepart":7957,"Ġsan":7958,"ymph":7959,"Update":7960,"footer":7961,"istent":7962,"inction":7963,"Ġabsence":7964,"ĠAP":7965,"ateral":7966,"liament":7967,"Ġ42":7968,"Ġboundary":7969,"Ġdogs":7970,"Ġalter":7971,"Ġstroke":7972,"Ġended":7973,"stone":7974,"Ġconcrete":7975,"Ġ///":7976,"ributes":7977,"ename":7978,"ulin":7979,"lg":7980,"Ġtruly":7981,"Ġmolecular":7982,"ĠInstead":7983,"Ġsuppose":7984,"anta":7985,"ĠOR":7986,"Ġdefe":7987,"Ġsentence":7988,"Pe":7989,"Ġgender":7990,"orted":7991,"ĠChildren":7992,"ĠExper":7993,"Ġconven":7994,"Ġpump":7995,"Ġconfirm":7996,"ĠFrancis":7997,"ĠAC":7998,"Ġsongs":7999,"Ġcup":8000,"Ġplastic":8001,"ĠGame":8002,"Ġtrials":8003,"even":8004,"lab":8005,"Ġcorrectly":8006,"lers":8007,"rible":8008,"Ġbranch":8009,"Ġinfections":8010,"Ġstands":8011,"azing":8012,"Ġstead":8013,"Ġtoken":8014,"ĠFurthermore":8015,"Ġsolving":8016,"token":8017,"Ġrose":8018,"Ġdataset":8019,"Ġtit":8020,"Num":8021,"Example":8022,"andom":8023,"ĠÐ²":8024,"dig":8025,"some":8026,"Ġtall":8027,"Ġsharing":8028,"Prov":8029,"Ġkeys":8030,"imeter":8031,"esis":8032,"Ġ65":8033,"Token":8034,"Ġintellect":8035,"Ġguard":8036,"OK":8037,"æĺ¯":8038,"ĠBig":8039,"ĠVari":8040,"erior":8041,"ĠHy":8042,"Ġtick":8043,"were":8044,"ĠEconom":8045,"pack":8046,"fast":8047,"Ġnur":8048,"Ġunderlying":8049,"è¡":8050,"ĠHom":8051,"Ġsignificance":8052,"ALL":8053,"atern":8054,"ĠScott":8055,"udo":8056,"iest":8057,"Ġimprovement":8058,"pled":8059,"Ġspoke":8060,"Ġmanif":8061,"ĠStudents":8062,"Ġtiny":8063,"Ġfighting":8064,"Ġphosph":8065,"Ġexplains":8066,"install":8067,"001":8068,"Ġaccident":8069,"Ġasc":8070,"Ġgoods":8071,"acent":8072,"ĠImage":8073,"Ġregional":8074,"Ġtroops":8075,"Ġ''":8076,"Ġlit":8077,"Ġwww":8078,"blue":8079,"ĠPan":8080,"Ġsatell":8081,"Ġtrip":8082,"Ġacceleration":8083,"agues":8084,"Ġafford":8085,"Ġreplied":8086,"ĠMont":8087,"Ġagreed":8088,"Ġ/**":8089,"Ġlayers":8090,"Ġlocations":8091,"fortunately":8092,"ĠĠĠĠĠĠĠĠĠĠĠĠĠĠĠĠĠĠĠĠĠĠĠĠĠĠĠĠĠ":8093,"ĠLu":8094,"elling":8095,"minute":8096,"Ġmonitoring":8097,"ibilities":8098,"Ġagents":8099,"Sim":8100,"iler":8101,"ighter":8102,"models":8103,"Ġspat":8104,"Ġepis":8105,"Ġpurchase":8106,"Ġencourage":8107,"Ġfinite":8108,"Sty":8109,"brew":8110,"(){":8111,"rium":8112,"pay":8113,"Ġcycl":8114,"Ġnom":8115,"Ġattend":8116,"Ġexplicit":8117,"notation":8118,"ĠTechnology":8119,"Ġresponsibility":8120,"Ġshif":8121,"Ġ255":8122,"UI":8123,"Ġlots":8124,"Ġyounger":8125,"their":8126,"burg":8127,"Nav":8128,"Ġargs":8129,"Ġanalyzed":8130,"frame":8131,"Ġconcentrations":8132,"Ġsensitive":8133,"âĢĿ.":8134,"ĠConst":8135,"Also":8136,"ĠFinally":8137,"Ġsad":8138,"delete":8139,"ications":8140,"ĠBack":8141,"Ġchart":8142,"Ġparties":8143,"layout":8144,"cknow":8145,"ĠMax":8146,"Ġdrinking":8147,"acher":8148,"Ġzone":8149,"iar":8150,"Ġplas":8151,"ĠThose":8152,"Ġtheme":8153,"Ġneck":8154,"ĠDev":8155,"kes":8156,"Ġrecognize":8157,"ocus":8158,"Ġcenturies":8159,"Ġterminal":8160,"black":8161,"åľ":8162,"cyclop":8163,"cap":8164,"Ġmeth":8165,"Ġkit":8166,"Ġbehaviour":8167,"nic":8168,"total":8169,"Ġanalog":8170,"ä¸Ģ":8171,"Ġfoss":8172,"Ġusage":8173,"ĠStore":8174,"Ġ],":8175,"Ut":8176,"Ġobjective":8177,"Ġlisten":8178,"Next":8179,"Ġelection":8180,"Ġancest":8181,"Ġ((":8182,"His":8183,"razil":8184,"Ġsetup":8185,"Ġbreath":8186,"Ġdress":8187,"agers":8188,"Ġpra":8189,"Ġchair":8190,"vec":8191,"Ġpip":8192,"Ġ{}":8193,"Ġchoices":8194,"Ġintegers":8195,"Ġinequ":8196,"Ġorient":8197,"Ġclock":8198,"Ġlowest":8199,"Ġsister":8200,"ogg":8201,"Ġspectrum":8202,"Ġprocedures":8203,"Ġbin":8204,"ĉĉĉĉĉĉ":8205,"dated":8206,"Ġrecip":8207,"atively":8208,"Ġconversation":8209,"mean":8210,"Ġclassroom":8211,"Ġrows":8212,"ĠItaly":8213,")+":8214,"Ġintroduction":8215,"sur":8216,"Fil":8217,"vals":8218,"Ġfractions":8219,"Ġcategories":8220,"ĠSund":8221,"aved":8222,"ĠSov":8223,"Vis":8224,"ĠArray":8225,"Ġ\"@":8226,"newcommand":8227,"utter":8228,"Ġconsequences":8229,"dict":8230,"Ġfashion":8231,"Ġ1980":8232,"Ġjoined":8233,"awn":8234,"Ġ1997":8235,"Ġtreatments":8236,"rage":8237,"Ġrig":8238,"Ġpartial":8239,"Ġdimensions":8240,"Ġtight":8241,"ĠAB":8242,"score":8243,"ĠProv":8244,"Ġbag":8245,"rous":8246,"Ġdose":8247,"Ġowner":8248,"Ġassumed":8249,"ĠLake":8250,"Ġcomprehensive":8251,"Total":8252,"Ġil":8253,"ĠFederal":8254,"ĠNO":8255,"Ġcalculations":8256,"sey":8257,"ï¿½":8258,"Ġproduces":8259,"Ġinher":8260,"send":8261,"icago":8262,"Ġ>=":8263,"utch":8264,"Ġdispl":8265,"deg":8266,")*":8267,"ipher":8268,"usiness":8269,"Ġcalling":8270,"Ġrepair":8271,"split":8272,"````":8273,"Ġsod":8274,"Ġdistrict":8275,"ĠCommon":8276,"Ġemergency":8277,"Ð¾Ð²":8278,"Ġcrim":8279,"clusions":8280,"ostic":8281,"UE":8282,"gel":8283,"Ġfacilit":8284,"ĠReport":8285,"igma":8286,"athy":8287,"Ġvaccine":8288,"DR":8289,"Ġorbit":8290,"Ġ38":8291,"Cloud":8292,"gments":8293,"atal":8294,"Ġtrick":8295,"Ġheads":8296,"Ġmanager":8297,"Ġbold":8298,"ĠLook":8299,"Ġinteractions":8300,"Ġdebate":8301,"amber":8302,"ĠAL":8303,"ĠOper":8304,"aria":8305,"ĠPers":8306,"ading":8307,"\"}":8308,"Ġworry":8309,"ĠTimes":8310,">(":8311,"Solution":8312,"tml":8313,"Ġsubstance":8314,"Ne":8315,"arks":8316,"*}":8317,"di":8318,"Ġspending":8319,"Hel":8320,"Ġdear":8321,"Ġdeclared":8322,"ĠNature":8323,"Ġblocks":8324,"Ġlun":8325,"Ġhole":8326,"Ġresulted":8327,"Ġmatters":8328,"Ġextensive":8329,"Ġsoci":8330,"Ġraw":8331,"Ġtransmission":8332,"chers":8333,"ĠGal":8334,"metic":8335,"ĠISBN":8336,"ĠCur":8337,"ĠColumb":8338,"ĠProduct":8339,"ĠFlorida":8340,"Ġcontents":8341,"han":8342,"Ġnewsp":8343,"Ġsheet":8344,"Ġlogin":8345,"Ge":8346,"ĠAnalysis":8347,"Ġcrisis":8348,"arn":8349,"Ġjustice":8350,"WH":8351,"Ġactivation":8352,"ëĭ":8353,"ishop":8354,"inking":8355,"Ġdeliver":8356,"Ġguarant":8357,"Ġdeaths":8358,"sql":8359,"csv":8360,"osom":8361,"fill":8362,"itz":8363,"Ġeld":8364,"ĠMA":8365,"Ġtheorem":8366,"Ġpapers":8367,"abil":8368,"Ġevil":8369,"Down":8370,"oned":8371,"username":8372,"Ġcorn":8373,"Ġhelping":8374,"brane":8375,"Query":8376,"Ġmultiply":8377,"Ġskill":8378,"ĠCapt":8379,"Ġunus":8380,"Ġtranslate":8381,"Red":8382,"kins":8383,"à¦":8384,"ĠStatist":8385,"Cell":8386,"Ġconventional":8387,"Ġwatching":8388,"During":8389,"assets":8390,"Ġcoff":8391,"Please":8392,"ĠTop":8393,"Ġimagine":8394,"Ġcompr":8395,"Ġsubsequent":8396,"à¹":8397,"uri":8398,"Ġ600":8399,"Thanks":8400,"DP":8401,"itudes":8402,"ĠFin":8403,"Ġrestore":8404,"ĠMountain":8405,"Ġgather":8406,"Ġalert":8407,"Ġoperator":8408,"Ġmes":8409,"arest":8410,"Ġcable":8411,"Ġhat":8412,"Oct":8413,"ĠÑģ":8414,"ĠSE":8415,"Ġrepeat":8416,"Ġboat":8417,"Ġoptimal":8418,"Length":8419,"Ġimmediate":8420,"eless":8421,"bro":8422,"ano":8423,"Ġposts":8424,"Ġ(-":8425,"Ġhem":8426,"ounce":8427,"Ġdemonstrate":8428,"Ã£o":8429,"idents":8430,"Ġseat":8431,"words":8432,"Ġtradition":8433,"Ġcalculator":8434,"icons":8435,"ĠHave":8436,"Ġperfectly":8437,"Ġdialog":8438,"Ġinterf":8439,"ĠTor":8440,"Ġbio":8441,"Ġworst":8442,"Ġiniti":8443,"ulating":8444,"amma":8445,"ĠHall":8446,"ĠStudy":8447,"Ġstrain":8448,"Ġgrad":8449,"Ġconstitution":8450,"ractice":8451,"Ġrounded":8452,"Ġjourney":8453,"Ġaircraft":8454,"Ġpreval":8455,"Call":8456,"Ġassigned":8457,"Ġdiscrim":8458,"Ġfarmers":8459,"everal":8460,"Ġstages":8461,"Ġmarks":8462,"Ġ1996":8463,"ĠThanks":8464,"ĠCommittee":8465,"dimensional":8466,"ĠHence":8467,"ĠNext":8468,"BL":8469,"scope":8470,"ivated":8471,"cf":8472,"Ġcareful":8473,"MI":8474,"Ġjudge":8475,"gers":8476,"Ġhall":8477,"Ġarbit":8478,"fire":8479,"Ġdiagram":8480,"Ġcapture":8481,"Gu":8482,"Ġrenew":8483,"Ġrein":8484,"Ġmachines":8485,"Ġcooper":8486,"tons":8487,"Ġrural":8488,"Ġlaugh":8489,"Ġcompounds":8490,"Ġarrest":8491,"common":8492,"graph":8493,"Ġembed":8494,"through":8495,"Ġpin":8496,"two":8497,"Ġtang":8498,"ĠAustralian":8499,"Ġorders":8500,"mem":8501,"Ġadequ":8502,"dy":8503,"Ġlegs":8504,"Ġfurn":8505,"ĠWall":8506,"Sl":8507,"verty":8508,"Ġagricultural":8509,"rants":8510,"ashed":8511,"Apr":8512,"theless":8513,"Ġlaboratory":8514,"points":8515,"Ġdropped":8516,"WORD":8517,"Ġnaturally":8518,"aug":8519,"Ġproducing":8520,"Ġstatements":8521,"Ġscheme":8522,"dt":8523,"Ġcoordinates":8524,"oral":8525,"ĠTerm":8526,"primary":8527,"bing":8528,"âĢĺ":8529,"Ġpoverty":8530,"otted":8531,"green":8532,"ĠBank":8533,"Ġemployees":8534,"imm":8535,"Ġcomposed":8536,"Ġfaces":8537,"Ġhorm":8538,"Ġexamined":8539,"CR":8540,"ĠWild":8541,"Ġvectors":8542,"Ġprofit":8543,"ĠWorks":8544,"area":8545,"Ġassist":8546,"Ġdepartment":8547,"Ġpregnancy":8548,"Ġaffects":8549,"Ġ%>":8550,"Home":8551,"Ps":8552,"lla":8553,"Ġimplemented":8554,"ĠWhe":8555,"throp":8556,"Ġft":8557,"ĠCard":8558,"illa":8559,"Ġclub":8560,"Ġtaste":8561,"Ġ55":8562,"ishment":8563,"Mon":8564,"Ġcab":8565,"ĠGa":8566,"ĠThree":8567,"Ġwitness":8568,"fare":8569,"Ġsilver":8570,"ĠSing":8571,"custom":8572,"ports":8573,"ĠSouthern":8574,"Ġspan":8575,"them":8576,"Ġduty":8577,"Ġpointer":8578,"Ġcrime":8579,"Ġacknow":8580,"Ġfer":8581,"Ġspaces":8582,"Http":8583,"ĠCy":8584,"brid":8585,"irector":8586,"Ġfacilities":8587,"Ġhonest":8588,"End":8589,"none":8590,"Ġinstruction":8591,"Ġdrag":8592,"ĠBudd":8593,"\"))":8594,"raid":8595,"Ġtemp":8596,"Ġweapons":8597,"Using":8598,"tenance":8599,"Ġintegration":8600,"ĠJoseph":8601,"sen":8602,"price":8603,"Ġimper":8604,"Ġincreasingly":8605,"Ext":8606,"ĠFour":8607,"Ġconsiderable":8608,"wing":8609,"Ġknowing":8610,"Ġintervention":8611,"Ġsigned":8612,"Ġchest":8613,"oir":8614,"Ġanalyses":8615,"Ġapparently":8616,"ĠProblem":8617,"opes":8618,"rastructure":8619,"ĠTry":8620,"Ġpursu":8621,"Ġfeelings":8622,"power":8623,"Ġdb":8624,"Ġinstitution":8625,"**:":8626,"Ġwheel":8627,"Ġequally":8628,"Ġannounced":8629,"Ġsyndrome":8630,"ĠLeg":8631,"Ġescape":8632,"ĠBrown":8633,"Ġliber":8634,"olly":8635,"Ġhaz":8636,"ĠREADME":8637,"Ġmanip":8638,"ivered":8639,"Ġelectronic":8640,"Because":8641,"Ġju":8642,"vector":8643,"Ġjavax":8644,"Show":8645,"neg":8646,"Ġâī¤":8647,"Ġsummary":8648,"lications":8649,"OU":8650,"ĠToday":8651,"Ġtrib":8652,"vi":8653,"Ġapproved":8654,"Ã³n":8655,"ĠDown":8656,"2011":8657,"system":8658,"Ġofficers":8659,"Ġdiversity":8660,"ĠFace":8661,"Ġsir":8662,"Ġleaf":8663,"xiety":8664,"(\"/":8665,"=(":8666,"Ġ###":8667,"å¼":8668,"Column":8669,"herent":8670,"player":8671,"rif":8672,"ĠDig":8673,"Ġlect":8674,"?.":8675,"ĠCirc":8676,"Expl":8677,"Ġinqu":8678,"Ġharvest":8679,"Top":8680,"ĠPri":8681,"Ġ\"\"\"":8682,"Ġ[\"#":8683,"ressive":8684,"Ġpointed":8685,"Ġconscious":8686,"Ġ$(":8687,"ĠPDF":8688,"atabase":8689,"ĠCON":8690,"Ġpuzz":8691,"ĠSolution":8692,"ĠItalian":8693,"ĠRNA":8694,"ĠHand":8695,"ĠScient":8696,"Ġconstructed":8697,"ĠPython":8698,"CHAPTER":8699,"Cs":8700,"Ġbridge":8701,"Ġguy":8702,"ĠNetwork":8703,"Ġthreshold":8704,"ador":8705,"ignment":8706,"rolling":8707,"Ġresidents":8708,"pa":8709,"Ġsports":8710,"cerning":8711,"FI":8712,"tan":8713,"}</":8714,"Ġlad":8715,"ogram":8716,"à¤":8717,"ORT":8718,"Ġlady":8719,"Ġsteel":8720,"Application":8721,"rovers":8722,"ERS":8723,"ĠQuestions":8724,"Ġguidelines":8725,"Ġcustomers":8726,"Param":8727,"Ġcolour":8728,"encing":8729,"Ġassistance":8730,"Ġevaluated":8731,"\\\",":8732,"screen":8733,"Ġdecline":8734,"Ġcontainer":8735,"ĠBible":8736,"ometer":8737,"olicy":8738,"MO":8739,"Ġfewer":8740,"Users":8741,"category":8742,"ĠProm":8743,"eping":8744,"Ġordinary":8745,"ĠTim":8746,"Menu":8747,"PH":8748,"Ġblind":8749,"INE":8750,"Ġrising":8751,"Ġboolean":8752,"Ġfavorite":8753,"between":8754,"dfrac":8755,"ĠNa":8756,"padding":8757,"odo":8758,"cp":8759,"Ġcharacteristic":8760,"Ġê":8761,"Ġvitamin":8762,"Ġinvestigation":8763,"ima":8764,"Ġspiritual":8765,"than":8766,"ĠBrazil":8767,"Ġvulner":8768,"Î²":8769,"ester":8770,"fs":8771,"rance":8772,"åº":8773,"Ġsimult":8774,"idity":8775,"Ġderivative":8776,"Ġloved":8777,"ä¸ª":8778,"AV":8779,"Ġadvert":8780,"Ġrecognition":8781,"Ġmortality":8782,"Ġarchitecture":8783,"Current":8784,"Ġreply":8785,"Ġcharged":8786,"Ġfeedback":8787,"æł":8788,"aneously":8789,"Ġessentially":8790,"ĠPR":8791,"ĠDise":8792,"Ġsuperior":8793,":\"":8794,"Ġsurve":8795,"Ġpit":8796,"ĠTri":8797,"ĠTheorem":8798,"Ġcompetition":8799,"Ġpix":8800,"ĠSpain":8801,"Module":8802,"Ġrealize":8803,"Ġbare":8804,"ĠFort":8805,"ĠDesign":8806,"ĠWed":8807,"ĠWord":8808,"charge":8809,"Ġms":8810,"ĠCurrent":8811,"Ġ00":8812,"Ġpredicted":8813,"Ġpreced":8814,"Ġmic":8815,"anda":8816,"Ġadvoc":8817,"Ġedit":8818,"ĠConstitution":8819,"Ġterror":8820,"Ġfing":8821,"Ġroof":8822,"ĠGuide":8823,"Ġprepare":8824,"Ġdestroyed":8825,"Ġlists":8826,"Ġclassification":8827,"ĠSoviet":8828,"store":8829,"Ġ44":8830,"Ġdiscipl":8831,"Ġfunding":8832,"ĠBoard":8833,"Location":8834,"usr":8835,".;":8836,"cosystem":8837,"itage":8838,"ĠReturn":8839,"Ġedges":8840,"rank":8841,"Game":8842,"Ġmixture":8843,"chen":8844,"Ġnil":8845,"ĠArea":8846,"Ġcomplicated":8847,"Ġdeviation":8848,"Ġmild":8849,"Ġdirected":8850,"ĠLast":8851,"Ġ1995":8852,"Ġmovements":8853,"Ġgravity":8854,"Ġhorses":8855,"Ġbigger":8856,"save":8857,"Ġinfected":8858,"isp":8859,"GR":8860,"ĠDar":8861,"Ġinvent":8862,"Ġreceiving":8863,"uan":8864,"icted":8865,"ĠGiven":8866,"Port":8867,"Ġtelling":8868,"Ġexamine":8869,"ĠChicago":8870,"effect":8871,"join":8872,"MD":8873,"CI":8874,"raq":8875,"OH":8876,"Ġdefense":8877,"Ġdecade":8878,"Ġera":8879,"Ġsimulation":8880,"æĹ":8881,"Ġorganized":8882,"Ġcomplexity":8883,"Ġdefic":8884,"Ġmechanical":8885,"Ġtube":8886,"Ġphilosophy":8887,"eness":8888,"ulus":8889,"Ð´":8890,"ĠAccess":8891,"Base":8892,"ĠCode":8893,"secut":8894,"ĠTreat":8895,"ĠMathematics":8896,"Ġstudying":8897,"Ġfootball":8898,"yal":8899,"Ret":8900,"aa":8901,"Ġintelligence":8902,"ogene":8903,"auto":8904,"Ġevident":8905,"Ġquantum":8906,"NO":8907,"Ġships":8908,"ĠÎ¸":8909,"ĠAS":8910,"Ġequil":8911,"Ġgro":8912,"admin":8913,"Ġacting":8914,"location":8915,"Ġdisplayed":8916,"mode":8917,"Ġidentical":8918,"umps":8919,"Ġpolitics":8920,"Ġcognitive":8921,"Even":8922,"eren":8923,"Ġshadow":8924,"101":8925,"params":8926,"Feb":8927,"Ġreverse":8928,"prot":8929,"Ġobserve":8930,"Ġthermal":8931,"Ġroutine":8932,"Ġbanks":8933,"oids":8934,"About":8935,"Ġcyl":8936,"ĠCamb":8937,"okes":8938,"Äģ":8939,"Ġpron":8940,"ĠForce":8941,"ĠBre":8942,"ĠÎ¼":8943,"Ġlaun":8944,".*":8945,"Ġgovernments":8946,"Ġcustomer":8947,"rine":8948,"}}{":8949,"earing":8950,"clusive":8951,"ĠFOR":8952,"Ġconj":8953,"ĠEmpire":8954,"Ġbene":8955,"ĠSpring":8956,"itory":8957,"echo":8958,"pub":8959,"ĠMars":8960,"ĠProfessor":8961,"Ġcandidate":8962,"('/":8963,"Ġthank":8964,"aws":8965,"Tra":8966,"Ġaer":8967,"Ġsizes":8968,"unit":8969,"arters":8970,"roduct":8971,"POST":8972,"dart":8973,"ĠDen":8974,"ĠBefore":8975,"erman":8976,"å°":8977,"month":8978,"Ġtelevision":8979,"Ġcarrying":8980,"Ġsuffer":8981,"ĠLearning":8982,"ctic":8983,"ĠMB":8984,"Ġdoctors":8985,"inition":8986,"ango":8987,"Ġ250":8988,"Ġuniversity":8989,"Ġbiggest":8990,"otherapy":8991,"Email":8992,"Ġfram":8993,"Ġinterpretation":8994,"Illust":8995,"Ġforgot":8996,"Ġchemicals":8997,"ĠClick":8998,"Ġreasonable":8999,"icious":9000,"^{-":9001,"Cor":9002,"ani":9003,"Ġsync":9004,"high":9005,"Ġblow":9006,"Ġbool":9007,"ulas":9008,"Ġmeasuring":9009,"Builder":9010,"ĠWal":9011,"éĢ":9012,"outs":9013,"Ġseparated":9014,"Look":9015,"Ġbrowser":9016,"desc":9017,"Ġinvestigate":9018,"Ġ).":9019,"Ġcovers":9020,"Ġindicating":9021,"uffer":9022,"Ġinverse":9023,"ĠScot":9024,"Ġfinds":9025,"Ġdimension":9026,"Once":9027,"Ġcrew":9028,"Ġgeometry":9029,"low":9030,"ader":9031,"Ġkernel":9032,"Ġreaders":9033,"ĠManagement":9034,"specific":9035,"Ġofficer":9036,"ĠInit":9037,"Min":9038,"Math":9039,"tag":9040,"Ġintegr":9041,"ĠGrand":9042,"remove":9043,"method":9044,"Ġlung":9045,"Ġpassage":9046,"Ġauthorities":9047,"Ġteams":9048,"orse":9049,"ithmetic":9050,"Ġcreates":9051,"Hz":9052,"Ġbtn":9053,"mathbb":9054,"occ":9055,"Ġblo":9056,"router":9057,"Ġsmile":9058,"Ð°Ð½":9059,"ĠNever":9060,"Ġ39":9061,"aks":9062,"ĠCanadian":9063,"Ġwalked":9064,"rog":9065,"connect":9066,"dem":9067,"Ġgate":9068,"Bo":9069,"Every":9070,"Ġstability":9071,"ĠHill":9072,"Ġpromin":9073,"Ġcluster":9074,"ĠÐ½":9075,"Ġsupplement":9076,"mathbf":9077,"Sm":9078,"Ġarter":9079,"ĠMartin":9080,"Ġseeds":9081,"infty":9082,"Ġglad":9083,"Ġacute":9084,"Ġdil":9085,"Ġdesert":9086,"Ġ##":9087,"IB":9088,"Ġsampling":9089,"Ġhydrogen":9090,"google":9091,"Ġattempts":9092,"»¿":9093,"Ġtrained":9094,"Ġok":9095,"Ġisolated":9096,"Ġought":9097,"ĠAmong":9098,"Ġdifferential":9099,"Follow":9100,"reens":9101,"Ġ1970":9102,"hr":9103,"John":9104,"Ġuniversal":9105,"Ġsmoke":9106,"Ġlands":9107,"perties":9108,"legal":9109,"fficients":9110,"Ġfounded":9111,"ĠAdminist":9112,"MR":9113,"ĠSunday":9114,"ĠON":9115,"Ġsought":9116,"ĠCall":9117,"Ġdirections":9118,"ympt":9119,"vin":9120,"Ġadministr":9121,"ibraries":9122,"should":9123,"Ġinstant":9124,"Width":9125,"ĠJac":9126,"plan":9127,"expected":9128,"ĠParty":9129,"Ġho":9130,"ificial":9131,"ĠRun":9132,"1000":9133,"FT":9134,"Ġintegrated":9135,"ih":9136,"ĠAPI":9137,"Ġenabled":9138,"Ġblank":9139,"Project":9140,"ĠMean":9141,"rape":9142,"hedul":9143,"Ġsou":9144,"ĠBuild":9145,"ĠMachine":9146,"Ġouter":9147,"VD":9148,"Ġemotional":9149,"CTION":9150,"Ġpermanent":9151,"Ġourselves":9152,"Ġultimately":9153,"svg":9154,"riction":9155,"ĠStandard":9156,"Ġterritory":9157,"ĠGL":9158,"ĠEst":9159,"ovie":9160,"asters":9161,"Ġfab":9162,"Ġjoy":9163,"Method":9164,"good":9165,"ker":9166,"Ġmetabol":9167,"Ġsomewhere":9168,"ĠNE":9169,"ols":9170,"kind":9171,"ĠDC":9172,"linear":9173,"haust":9174,"Ġgalax":9175,"riculum":9176,"ĠLess":9177,"Ġanywhere":9178,"Ġdistribut":9179,"rapper":9180,"Ġexamination":9181,"Thus":9182,"Score":9183,"xl":9184,"omething":9185,"Ġforests":9186,"Pan":9187,"Ä±":9188,"Ġdelivery":9189,"Sign":9190,"heast":9191,"Ġintent":9192,"ĠAcademy":9193,"enger":9194,"azon":9195,"Ã¨":9196,"esity":9197,"namespace":9198,"Main":9199,"ĠRock":9200,">\"":9201,"ĠCam":9202,"Dr":9203,"files":9204,"Ġshapes":9205,"aze":9206,"ĠSil":9207,"Ġaudience":9208,"mid":9209,"Ġpollution":9210,"ais":9211,"lif":9212,"Ġcyt":9213,"ĠGlobal":9214,"Ġmedian":9215,"support":9216,"Ġfrequent":9217,"Ġgluc":9218,"ERE":9219,"æī":9220,"Art":9221,"dule":9222,"Ġagencies":9223,"Ġmoist":9224,"Ġthorough":9225,"summary":9226,"views":9227,"Ġedition":9228,"Ġcontribution":9229,"ĠJohnson":9230,"your":9231,"ĠMail":9232,"ĠEX":9233,"annels":9234,"Ġcolleagues":9235,"users":9236,"IDS":9237,"ĠBra":9238,"Ġcharacterized":9239,"Ġtaxes":9240,"Ġlip":9241,"Ġscal":9242,"ĠChange":9243,"Ġbroke":9244,"Ġagency":9245,"Ġrotation":9246,"Ġbones":9247,"Foot":9248,"Ġtransformation":9249,"åĽ":9250,"parse":9251,"riers":9252,"pert":9253,"Ġclar":9254,"Sum":9255,"Ġdriven":9256,"Ġmamm":9257,"ĠPenn":9258,"cyclopedia":9259,"would":9260,"Ġwarning":9261,"bold":9262,"Ġconsideration":9263,"address":9264,"Ġeastern":9265,"={{":9266,"making":9267,"Ġundert":9268,"Ġunion":9269,"Ġopposed":9270,"Pat":9271,"Ġtea":9272,"Ġcircul":9273,"Ag":9274,"Ġfalls":9275,"Ġhonor":9276,"Ġton":9277,"Ġ180":9278,"Ġcrop":9279,"iece":9280,"Will":9281,"åĩ":9282,"ĠHarry":9283,"ĠCell":9284,"ocracy":9285,"ĠURL":9286,"!âĢĿ":9287,"VID":9288,"ĠGraph":9289,"ĠStudies":9290,"cin":9291,"Ġinstruct":9292,"Ġaband":9293,"ĠCA":9294,"ĠRoyal":9295,"Ġinformed":9296,"bled":9297,"âĢĵâĢĵ":9298,"onday":9299,"Ġmembrane":9300,"ĠTake":9301,"Ġadds":9302,"Ġsensitivity":9303,"ĠBab":9304,"ĠHaw":9305,"Ġtempor":9306,"lean":9307,"Ġjson":9308,"Ġnewly":9309,"Ġartist":9310,"Ġturb":9311,"ailability":9312,"Ġbless":9313,"Ġdys":9314,"Aug":9315,"Ġcoverage":9316,"]\\":9317,"Ġmigration":9318,"Ġinitially":9319,"Ġsuffering":9320,"istence":9321,"ĠIraq":9322,"ĠIndians":9323,"Ġlandscape":9324,"anner":9325,"Ġconnections":9326,"ĠIre":9327,"ĠWood":9328,"hus":9329,"Ġabuse":9330,"Ġepid":9331,"ictor":9332,"Tem":9333,"oston":9334,"Ġincident":9335,"Ġmaintained":9336,"ĠHistor":9337,"Given":9338,"Ms":9339,"Ġ1994":9340,"partial":9341,"Ġhabitat":9342,"Ġstruggle":9343,"hav":9344,"Ġcompound":9345,"sim":9346,"Ġtranslation":9347,"/.":9348,"Ġreliable":9349,"Rad":9350,"duction":9351,"PASS":9352,"Ġ${\\":9353,"Ġplenty":9354,"Ġafraid":9355,"ABLE":9356,"Photo":9357,"ĠFinder":9358,"Ġcontrovers":9359,"ĠMel":9360,"Ġprevention":9361,"ï»¿":9362,"Ġabsolutely":9363,"ĠJeff":9364,"onymous":9365,"gov":9366,"session":9367,"Ġdefinitely":9368,"Ġapplying":9369,"Icon":9370,"Ġimproving":9371,"Ġcrops":9372,"edge":9373,"lly":9374,"Ġinduced":9375,"Vol":9376,"...\"":9377,"GS":9378,"}(":9379,"Ġwarming":9380,"Ġsubset":9381,"Ġalgorithms":9382,"Details":9383,"=\"/":9384,"')\\":9385,"ivo":9386,"component":9387,"Ġsmoking":9388,"Ġflash":9389,"Ġsolved":9390,"Ġremind":9391,"Ġmaintenance":9392,"iki":9393,"Ġsquares":9394,"Effect":9395,"Ġgradually":9396,"Ã¤":9397,"Ġsummar":9398,"ĠWH":9399,"Jul":9400,"iments":9401,"ĠWomen":9402,"Ġpert":9403,"ĠSecret":9404,"El":9405,"oked":9406,"Ġadvent":9407,"Before":9408,"may":9409,"Ġfan":9410,"ĠPop":9411,"Ġstom":9412,"Mode":9413,"Ġcutting":9414,"ĠTR":9415,"illy":9416,"Ġawareness":9417,"ĠImp":9418,"make":9419,"ĠIL":9420,"coln":9421,"Ġutility":9422,"found":9423,"2010":9424,"Ġcoffee":9425,"patch":9426,"heric":9427,"Ġcourses":9428,"Ġrarely":9429,"Ġpresents":9430,"Ġexplo":9431,"elve":9432,"Ġsustainable":9433,"bad":9434,"eli":9435,"ĠOx":9436,"(()":9437,"Ġobst":9438,"sts":9439,"Ġ\"/":9440,"Ġexit":9441,"Ġtemplate":9442,"Ġtargets":9443,"Ġextend":9444,"Ġnm":9445,"Ġhardly":9446,"Ġ('":9447,"Ġnumerical":9448,"/(":9449,"Ġcounty":9450,"Ġregarded":9451,"Ġecosystem":9452,"Valid":9453,"Ġdenomin":9454,"Ġcommands":9455,"Ġwine":9456,"ĠÎ»":9457,"Ġheaven":9458,"å¯":9459,"Ġinsurance":9460,"Ġdesktop":9461,"Ġdeploy":9462,"uster":9463,"Ġhappening":9464,"Ġfalling":9465,"INT":9466,"colab":9467,"Apple":9468,"Ġatoms":9469,"Ġpharm":9470,"miss":9471,"Ġpartner":9472,"hot":9473,"Ġvideos":9474,"Ġanxiety":9475,"Ġlimitations":9476,"Ġfunds":9477,"Instance":9478,"Ġtank":9479,"vironments":9480,"Ġworldwide":9481,"roud":9482,"Ġvessels":9483,"Ġnarr":9484,"being":9485,"Ġbasically":9486,"ĠFalse":9487,"ĠGr":9488,"Ġimplies":9489,"Ġreactions":9490,"Ġnegot":9491,"Ġheader":9492,"Ġpathway":9493,"Ġ2021":9494,"mac":9495,"Ġequals":9496,"Ġdict":9497,"Ġposted":9498,"ULT":9499,"mo":9500,"Ġstructural":9501,"Ġimaging":9502,"Ġfoundation":9503,"Ġhal":9504,"Max":9505,"Ġconserv":9506,"Ġfinger":9507,"Ġconsumers":9508,"ĠCS":9509,"ĠÐ¸":9510,"Ġsuit":9511,"Ġmyth":9512,"onia":9513,"dark":9514,"ĠLinux":9515,"olving":9516,"friend":9517,"ĠÏĥ":9518,"riday":9519,"Ġ43":9520,"Ġflower":9521,"Default":9522,"iology":9523,"Ġnerv":9524,"Ġingred":9525,"Ġmultiplication":9526,"Ġ\"./":9527,"Ġexpressions":9528,"Ġalive":9529,"amine":9530,"Login":9531,"Player":9532,"KEY":9533,"Task":9534,"Ġtrem":9535,"including":9536,"asty":9537,"Init":9538,"Ġmarkets":9539,"Ġfract":9540,"ĠIran":9541,"Ġscope":9542,"Ġissued":9543,"Posts":9544,"Illustration":9545,"Ġsho":9546,"Ġcrack":9547,"keys":9548,"Ġvehicles":9549,"ĠWrite":9550,"ĠRight":9551,"Ġbutter":9552,"liest":9553,"ĠVolume":9554,"}`":9555,"ropical":9556,"aus":9557,"Ġtone":9558,"ĠTre":9559,"Ġpropag":9560,"Ġmob":9561,"Ġoptical":9562,"Orig":9563,"VA":9564,"Ġchick":9565,"random":9566,"peror":9567,"Ġspatial":9568,"Ġmorph":9569,"Second":9570,"ĠLab":9571,"ĠServer":9572,"ĠEr":9573,"Ġsupporting":9574,"2000":9575,"Ġtong":9576,"Ġment":9577,"Ġtou":9578,"iatric":9579,"ĠAnswers":9580,"Ġbiom":9581,"ĠMen":9582,"ĠBase":9583,"ĠAgain":9584,"task":9585,"Ġthro":9586,"Ġbits":9587,"artifact":9588,"Ġpresentation":9589,"Ġregularly":9590,"DO":9591,"Therefore":9592,"func":9593,"Ġoblig":9594,"Ġ72":9595,"ĠAuthor":9596,"Ġrocks":9597,"ĠDivision":9598,"Ġanyway":9599,"Ġhun":9600,"UP":9601,"ĠError":9602,"Ġtriangles":9603,"Â²":9604,"quad":9605,"Ġbuffer":9606,"Ġrealized":9607,"Ġdegrad":9608,"Ġpermission":9609,"Ġgray":9610,"Ġdiverse":9611,"ĠNon":9612,"Ġtip":9613,"âĢĿ,":9614,"lamb":9615,"NN":9616,"ĠValue":9617,"ĠAdv":9618,"Ġreserved":9619,"Ġchecked":9620,"pdf":9621,"athered":9622,"Ġdelivered":9623,"plugin":9624,"<<":9625,"ĠSat":9626,"ĠStar":9627,"Ġstores":9628,"ĠBob":9629,"ĠRevolution":9630,"ĠEp":9631,"Control":9632,"Ġpurchased":9633,"Case":9634,"sis":9635,"Ġsport":9636,"Ġlessons":9637,"Ġreward":9638,"Ġconstantly":9639,"asket":9640,"Ġrepresenting":9641,"ĠSearch":9642,"Ġmedications":9643,"Ġbranches":9644,"ĠLar":9645,"iability":9646,"Ġsole":9647,"Ġsurprised":9648,"--\"":9649,"Ġsubsc":9650,"Ġvolunte":9651,"Ġcapac":9652,"Style":9653,"rency":9654,"ĠGeorg":9655,"Fi":9656,"MB":9657,"Ġpreparation":9658,"ĠCare":9659,"AGE":9660,"oder":9661,"sell":9662,"ercise":9663,"Ġclaimed":9664,"Author":9665,"driver":9666,"Answer":9667,"Ġaqu":9668,"ĠEdward":9669,"Ġlabels":9670,"Ġtur":9671,"Who":9672,"gon":9673,"Ġdefend":9674,"Ġpara":9675,"ĠpH":9676,"Ġdecay":9677,"Ġengaged":9678,"]]":9679,"GL":9680,"Ġhurt":9681,"Address":9682,"Ġtoxic":9683,"Ġvital":9684,"rox":9685,"Ġion":9686,"Ġ1960":9687,"áº":9688,"Ġhab":9689,"plicate":9690,"ĠServices":9691,"Off":9692,"Ġchildhood":9693,"ĠFollow":9694,"ĠIndeed":9695,"ĠCarolina":9696,"Ġintellectual":9697,"ĠEastern":9698,"ĠThrough":9699,"shape":9700,"ĠOrder":9701,"Ġsurvive":9702,"agen":9703,"Ġrelief":9704,"Ġnearby":9705,"iture":9706,"Ġfetch":9707,"Ġclassical":9708,"Ġwrites":9709,"Ġregister":9710,"Ġpublication":9711,"Ġstronger":9712,"Container":9713,"}.":9714,"Ġtissues":9715,"iner":9716,"Ġrestaur":9717,"master":9718,"Ġvisited":9719,"'>":9720,"thur":9721,"Ġtheories":9722,"Ġconcerning":9723,"ĠBell":9724,"Ġconcluded":9725,"ĠChristmas":9726,"Ġvariance":9727,"vo":9728,"Ġacquired":9729,"TC":9730,"also":9731,"Server":9732,"ĠiCloud":9733,"Ġabstract":9734,"ometers":9735,"Ġcried":9736,"role":9737,"}/":9738,"Ġmyst":9739,"Ġpleasure":9740,"Ġlymph":9741,"Ġauthent":9742,"np":9743,"Ġfinish":9744,"Ġscenario":9745,">();":9746,"Ġshop":9747,"Ġregulation":9748,"arer":9749,"blems":9750,"Ġinfrastructure":9751,"LECT":9752,"Ġdedicated":9753,";}":9754,"ĠTotal":9755,"Ġidentification":9756,"ĠSecurity":9757,"Ġsuspect":9758,"fish":9759,"ansas":9760,"Ġcubic":9761,"Ġsurprising":9762,"Ġscr":9763,"inson":9764,"Ġinstruments":9765,"ĠPet":9766,"Dto":9767,"Ġath":9768,"ĠYear":9769,"Ġdestruction":9770,"Work":9771,"profile":9772,"LA":9773,"Ġhung":9774,"ĠFull":9775,"ĠNorthern":9776,"ĠConsider":9777,"Frame":9778,"eric":9779,"Order":9780,"Ġ[]},":9781,"double":9782,"ipt":9783,"ĠAnge":9784,"Ġsensor":9785,"éĩ":9786,"ĠHol":9787,"Ġcompute":9788,"ĠNumbers":9789,"PASSWORD":9790,"Ġsurprise":9791,"700":9792,"Ġresist":9793,"Ġcheap":9794,"amps":9795,"ĠNatural":9796,"ÐµÑĢ":9797,"Ġconsumer":9798,"een":9799,"ĠExp":9800,"noon":9801,"}=":9802,"3333":9803,"Ġemployment":9804,"EMA":9805,"Ġcas":9806,"Ġhide":9807,"assert":9808,"ibrium":9809,"Ġinfluenced":9810,"izz":9811,"ala":9812,"Ġversus":9813,"Ġvegetables":9814,"logo":9815,"ĠPhysics":9816,"jo":9817,"Ġlegisl":9818,"document":9819,"Ġobviously":9820,"types":9821,"Ġcoefficients":9822,"EP":9823,"Ġroughly":9824,"Ġprediction":9825,"Ġmomentum":9826,"yer":9827,"Ġphotograph":9828,"Ġanalyze":9829,"Ġleadership":9830,"ĠResponse":9831,"ĠSometimes":9832,"Ġelected":9833,"ĠDO":9834,"Ġprospect":9835,"Ġ41":9836,"ĠRights":9837,"ĠHelp":9838,"~~":9839,"Ġdescript":9840,"ĠEnvironmental":9841,"(\\\"":9842,"gical":9843,"Ġgained":9844,"aska":9845,"Ġwise":9846,"ften":9847,"Ġabnormal":9848,"lambda":9849,"Ġ49":9850,"Ġbrings":9851,"ĠSup":9852,"Mult":9853,"Ġnose":9854,"handle":9855,"ĠHTML":9856,"ĠTask":9857,"posed":9858,"Ġswim":9859,"Ġoxid":9860,"Position":9861,"ello":9862,"Ġbias":9863,"Ġcoordinate":9864,"BE":9865,"meta":9866,"Ġfingers":9867,"ali":9868,"Ġguys":9869,"igan":9870,"Ġoral":9871,"ĠFather":9872,"Exp":9873,"Custom":9874,"Ġlogical":9875,"achment":9876,"olars":9877,"Ġdealing":9878,"aret":9879,"ARD":9880,"account":9881,"ruption":9882,"ACK":9883,"large":9884,"Ġtips":9885,"ĠSO":9886,"iological":9887,"rug":9888,"Ġmand":9889,"small":9890,"ori":9891,"False":9892,"SQL":9893,"imals":9894,"Ġagriculture":9895,"Ġcaptured":9896,"ĠProb":9897,"Ġsuggesting":9898,"ji":9899,"Ġlapt":9900,"Ġinvestigated":9901,"Ġburning":9902,"Ġpd":9903,"ĠField":9904,"ieve":9905,"Ġtel":9906,"Ġvariations":9907,"Ġscreening":9908,"Ġcalcium":9909,"Ġsail":9910,"Ġcompat":9911,"Ġcong":9912,"ĠCat":9913,"entity":9914,"law":9915,"ĠðŁ":9916,"Ġcommitted":9917,"hematic":9918,"UC":9919,"ĠThough":9920,"Ġmountains":9921,"Ġroles":9922,"Ġlaser":9923,"Ġdraft":9924,"ĠSand":9925,"mediate":9926,"Ġcontam":9927,"Ġelsewhere":9928,"Ġquantities":9929,"ĠIreland":9930,"ĠPot":9931,"Ġfever":9932,"Ġpromise":9933,"contact":9934,"Ġtheoretical":9935,"ĠNS":9936,"Ġtotally":9937,"claimed":9938,"MC":9939,"ko":9940,"ools":9941,"ulty":9942,"Ġfemales":9943,"don":9944,"uten":9945,"Run":9946,"Ġnotation":9947,".</":9948,"Ġinterior":9949,"Ġexport":9950,"Spe":9951,"Ġkilling":9952,"Ġplug":9953,"Ġreprodu":9954,"Ġimpacts":9955,"bash":9956,"site":9957,"Ġmales":9958,"iana":9959,"ĠPsych":9960,"Ġsubstantial":9961,"tree":9962,"Ġcommission":9963,"ĠIndex":9964,"Ġrecru":9965,"Ġkeeps":9966,"Ġintervals":9967,"Ġdinner":9968,"Ġrecover":9969,"Ġgrant":9970,"made":9971,"icide":9972,"ĠKingdom":9973,"ĠIrish":9974,"Ġwonderful":9975,"arse":9976,"asts":9977,"Ġindependence":9978,"Ġconverted":9979,"Ġrelax":9980,".|":9981,"Ġconce":9982,"Ġpand":9983,"ĠLic":9984,"Ġintense":9985,"Ġassumption":9986,"ĠSwed":9987,"HS":9988,"artifactId":9989,"Ġinfant":9990,"essions":9991,"cludes":9992,"Ġclothes":9993,"ĠKnow":9994,"Ġhill":9995,"Ġthirty":9996,"reek":9997,"Ġnotion":9998,"aren":9999,"osion":10000,"agger":10001,"ĠSpecial":10002,"Ġshortcut":10003,"Supp":10004,"Ġmile":10005,"ĠCreat":10006,"Auth":10007,"lat":10008,"Ġfed":10009,"ĠOrig":10010,"URE":10011,"Ġpoison":10012,"Ġmoderate":10013,"Ġremem":10014,"Ġpulled":10015,"ureau":10016,"bot":10017,"ĠSafari":10018,"course":10019,"books":10020,"Ġaccompan":10021,"Ġunusual":10022,"ĠUpdate":10023,"ĠNations":10024,"lob":10025,"Ġsmallest":10026,"Ã±":10027,"Ġhousing":10028,"Option":10029,"Ġcot":10030,"rose":10031,"ACT":10032,"Ġchose":10033,"Ġintra":10034,"Ġfasc":10035,"Ġopacity":10036,"Ġsettled":10037,"ĠED":10038,"ubble":10039,"Ġslaves":10040,"Ġsupplies":10041,"ja":10042,"eting":10043,"Ġaddressed":10044,"Ġlegislation":10045,"Ġlaunched":10046,"Ġplanned":10047,"language":10048,"Ġorth":10049,"Ġenvironments":10050,"getElement":10051,"ĠPerhaps":10052,"Ġincl":10053,"Ġexhaust":10054,"uts":10055,"upp":10056,"opard":10057,"Ġneighborhood":10058,"args":10059,"application":10060,"ilton":10061,"UD":10062,"Ġcav":10063,"ĠHard":10064,"Pos":10065,"bug":10066,"isk":10067,"Ġpasses":10068,"essages":10069,"irds":10070,"ĠResources":10071,"Ġstruck":10072,"uality":10073,"esides":10074,"ĠPRO":10075,"Ġparticipate":10076,"Ac":10077,"Ġbomb":10078,"itals":10079,"ĠMap":10080,"ĠOcean":10081,"La":10082,"ĠBoston":10083,"Ġ<!--":10084,"Ġfruits":10085,"Ke":10086,"Ġaward":10087,"Ġmedication":10088,"pol":10089,"æŀ":10090,"Ġcharges":10091,"Ġcraft":10092,"Ġfiber":10093,"formed":10094,"Ġstyles":10095,"Ġacids":10096,"Ġsubtract":10097,"las":10098,"ĠYoung":10099,"hyth":10100,"Posted":10101,"Ġprinted":10102,"ĠFil":10103,"Ġoverl":10104,"Ġmeal":10105,"ĠJim":10106,"irectory":10107,"ĠSystems":10108,"Ð¾Ð»":10109,"ĠCast":10110,"Ġsymbols":10111,"Ġbeam":10112,"Ġdelight":10113,"Ġtons":10114,"ĠMaybe":10115,"Ġorganisms":10116,"getElementById":10117,"ĠLight":10118,"Ġdetermining":10119,"Ġregardless":10120,"Ġí":10121,"xml":10122,"Ear":10123,"Ġphenomenon":10124,"ĠAtlantic":10125,"ĠFred":10126,"CF":10127,"Writ":10128,"Ġreferences":10129,"eq":10130,"ĠLo":10131,"Ġcomparing":10132,"Ġmirror":10133,"father":10134,"âĨ":10135,"ĠCross":10136,"Ġaccord":10137,"CRE":10138,"uits":10139,"forward":10140,"------------------------":10141,"uity":10142,"Ġgiant":10143,"Ġ``":10144,"strap":10145,"bind":10146,"ĠLittle":10147,"mers":10148,"Ġstreets":10149,"++;":10150,"Ġlake":10151,"Ġrice":10152,"Output":10153,"HD":10154,"mill":10155,"ĠÐº":10156,"Ġsevent":10157,"Like":10158,"ĠOk":10159,"angers":10160,"Ġsatellite":10161,"Comment":10162,"GA":10163,"Ġbg":10164,"Ġdepos":10165,"chron":10166,"Ġloose":10167,"Ġrend":10168,"Ġ52":10169,"arios":10170,"Ġtransparent":10171,"mann":10172,"afe":10173,"Ġbath":10174,"aration":10175,"Ġsteam":10176,"Ġgram":10177,"ĠExcel":10178,"zone":10179,"Ġsurfaces":10180,"uy":10181,"Ġmanual":10182,"ĠLincoln":10183,"Ġbeneath":10184,"late":10185,"Ġmuscles":10186,"ĠSD":10187,"Ġlips":10188,"Ġwriters":10189,"Ġsle":10190,"[:":10191,"Ġfeeding":10192,"Stream":10193,"SO":10194,"Ġconsequence":10195,"Ġpaying":10196,"Ġpreferred":10197,"ĠColl":10198,"Ġbringing":10199,"wall":10200,"Ġargue":10201,"Ġnod":10202,"bas":10203,"Ġrom":10204,"ITY":10205,"ĠEnter":10206,"Ġtrace":10207,"Ġsuffered":10208,"=\"#":10209,"Ġwhenever":10210,"ĠQueen":10211,"ĠLy":10212,"ĠPrinc":10213,"ĠChild":10214,"scill":10215,"Ġparticipation":10216,"hard":10217,"ĠAst":10218,"Ġthereby":10219,"Ġaged":10220,"ä¹":10221,"isdom":10222,"Ġ56":10223,"sort":10224,"Ġcopies":10225,"ZE":10226,"riz":10227,"Ġdisplays":10228,"Ġintroduce":10229,"Ġsi":10230,"Ġintention":10231,"Ġcenters":10232,"Ġradical":10233,"Ġdiffer":10234,"ĠClin":10235,"har":10236,"into":10237,"Ġcommittee":10238,"ĠValley":10239,"ĠDou":10240,"Ġdrivers":10241,"Ġstomach":10242,"BI":10243,"Ġmovies":10244,"Ġgrain":10245,"groupId":10246,"Fe":10247,"Ġpassion":10248,"aver":10249,"Ġflows":10250,"Ġ46":10251,"Ġoccas":10252,"Ġfossil":10253,"Items":10254,"Ġphrase":10255,"Ġhybrid":10256,"ĠiPod":10257,"plant":10258,"()\\":10259,"ensed":10260,"Dep":10261,"Ġloud":10262,"Ġgenerations":10263,"Ġoperate":10264,"Ġdynamics":10265,"rapeut":10266,"Ġarc":10267,"placement":10268,"rait":10269,"ĠÂ£":10270,"Ġstuck":10271,"regular":10272,"igenous":10273,"Sep":10274,"Ġchlor":10275,"Ġsenior":10276,"Ġheter":10277,"ogenic":10278,"ĠHas":10279,"eenth":10280,"front":10281,"Ġhell":10282,"Ġdesigns":10283,"Ġknock":10284,"Ġaside":10285,"ĠJo":10286,"Ġadjacent":10287,"ĠMaterial":10288,"ĠPerson":10289,"ograp":10290,"cover":10291,"Ġtrigger":10292,"åĨ":10293,"attered":10294,"yes":10295,"git":10296,"Good":10297,"mond":10298,"Ġrevers":10299,"ANT":10300,"Ġrestric":10301,"prise":10302,"Ð¿":10303,"Ġgly":10304,"Ġconference":10305,"columns":10306,"âĤ¬":10307,"Ġholid":10308,"ĠSenate":10309,"endicular":10310,"raining":10311,"Ġteen":10312,"Ġprovider":10313,"ĠFar":10314,"Options":10315,"etics":10316,"avery":10317,"ĠSciences":10318,"Ġgranted":10319,"pages":10320,"ĠCr":10321,"Ġpipe":10322,"ASE":10323,"Ġdrives":10324,"00000000":10325,"Nov":10326,"Ġ1992":10327,"Ġreplacement":10328,"yr":10329,"toString":10330,"Ġcombat":10331,"ĠOhio":10332,"ĠEth":10333,"Ġheavily":10334,"ĠUI":10335,"Ġreveal":10336,"Ġpriority":10337,"ĠViet":10338,"Ġslave":10339,"Body":10340,"dot":10341,"ĠSar":10342,"Ġjo":10343,"Ġ99":10344,"Route":10345,"uns":10346,"Ġflour":10347,"ĠSupport":10348,"Ġminimal":10349,"ĠColumbia":10350,"ĠBr":10351,"ĠHoly":10352,"ĠPH":10353,"material":10354,"ĠOnline":10355,"Ġprohib":10356,"Ġnervous":10357,"åľ¨":10358,"BO":10359,"Ġislands":10360,"Ġshouldn":10361,"Ġstrike":10362,"ĠPreferences":10363,"ĠCaptain":10364,"Ġmarine":10365,"API":10366,"Ġvoc":10367,"Provider":10368,"hop":10369,"ĠonClick":10370,"clock":10371,"Ġglucose":10372,"ĠEq":10373,"Ġcontroller":10374,"pread":10375,"Ġbind":10376,"edu":10377,"ussian":10378,"agraph":10379,"icked":10380,"Ġâī¥":10381,"Ġchap":10382,"Ġdistant":10383,"rollers":10384,"big":10385,"ĠStudent":10386,"Ġthickness":10387,"Ġcow":10388,"Height":10389,"ĠAlgebra":10390,"Ġneu":10391,"Ġcalendar":10392,"Ġcovering":10393,"ĠSquare":10394,"Ġspoken":10395,"}}\\":10396,"unic":10397,"printf":10398,"Ġinch":10399,"Ġ{{":10400,"Ġtrave":10401,"SL":10402,"Ġapple":10403,"every":10404,"Ġplt":10405,"older":10406,"Ġfeat":10407,"mu":10408,"ĠDid":10409,"Ġvertex":10410,"\"/>":10411,"Ġprecip":10412,"Ġcompens":10413,"$(":10414,"ĠAlexander":10415,"hour":10416,"Ġsending":10417,"Ġreporting":10418,"Ġseeking":10419,"Ġip":10420,"Ġpor":10421,"omorph":10422,"redit":10423,"ĠMur":10424,"ĠWrit":10425,"ĠCE":10426,"Ġcontributions":10427,"dest":10428,"Ġdeeper":10429,"ĠER":10430,"Ġusername":10431,"ulture":10432,"Left":10433,"Ġinhabit":10434,"2009":10435,"agnetic":10436,"ÂłÂłÂłÂłÂłÂłÂł":10437,"Ġ101":10438,"Ġremarkable":10439,"Ġsemi":10440,"forcement":10441,"Header":10442,"chain":10443,"EMAIL":10444,"Ġ54":10445,")),":10446,"eta":10447,"bat":10448,"ventions":10449,"Ġbreaking":10450,"Ġsq":10451,"Ġvolcan":10452,"window":10453,"Ġ47":10454,"blog":10455,"ĠFair":10456,"Ġfavour":10457,")$$":10458,"Ñħ":10459,"adel":10460,"ĠFROM":10461,"Ġoffering":10462,"Ġpregnant":10463,"Ġsorry":10464,"Ġnerve":10465,"century":10466,"omatic":10467,"Ġdisturb":10468,"cr":10469,"Ġmetric":10470,"ĠCancer":10471,"ÐµÑĤ":10472,"Ġhate":10473,"ĠMaster":10474,"ema":10475,"Ġobesity":10476,"ĠLee":10477,"ĠUnit":10478,"Ġassembly":10479,"Ġreset":10480,"(_":10481,"utils":10482,"rients":10483,"Ġinjuries":10484,"isons":10485,"ĠFacebook":10486,"jango":10487,"Ġhosp":10488,"Ġimplications":10489,"Ġcattle":10490,"ami":10491,"Ġdecreases":10492,"Ġforecast":10493,"ĠFund":10494,"Ġrefused":10495,"Ġreduces":10496,"best":10497,"ulous":10498,"ĠEnt":10499,"Ġdisput":10500,"ĠPoly":10501,"Ġresc":10502,"Ġvo":10503,"Ġ1993":10504,"efined":10505,"obs":10506,")?":10507,"uce":10508,"IX":10509,"Ġfacing":10510,"Ġrivers":10511,"ĠInteg":10512,"ĠBox":10513,"develop":10514,"Ġdiagnosed":10515,"Ġcomfortable":10516,"Chapter":10517,"Ġfur":10518,"ìĿ´":10519,"gi":10520,"Integer":10521,"ĠBush":10522,"Ġrouter":10523,"Ġrely":10524,"Ġearthqu":10525,"Ġcellular":10526,"Ġcircular":10527,"Version":10528,"pin":10529,"render":10530,"Ġweigh":10531,"Ġfeels":10532,"Ġwatched":10533,"Handler":10534,"Dev":10535,"-[":10536,"gged":10537,"GET":10538,"tim":10539,"aine":10540,"Ġcort":10541,"Ġboost":10542,"Ġlights":10543,"Ð·":10544,"ĠEvent":10545,"hab":10546,"Ġdrought":10547,"Ġroyal":10548,"phi":10549,"Ġ01":10550,"rupted":10551,"necess":10552,"Ġbusinesses":10553,"etal":10554,"Ġcultures":10555,"Row":10556,"Ġstations":10557,"prom":10558,"Ġda":10559,"Ġlean":10560,"widget":10561,"Ġdial":10562,"Ġcombinations":10563,"}_{":10564,"abeth":10565,"Ġattitude":10566,"Ġsale":10567,"iger":10568,"Ġasp":10569,"omer":10570,"opher":10571,"Ġcontributed":10572,"Ġadvantages":10573,"leting":10574,"ĠLow":10575,"onder":10576,"Ġdates":10577,"folio":10578,"bound":10579,"Ġhtml":10580,"Ġrent":10581,"2007":10582,"Ġappointed":10583,"ĠSn":10584,"Ġmaxim":10585,"ĠGard":10586,"Ġartists":10587,"ĠTerminal":10588,"Ġperforming":10589,"idespread":10590,"Ġneurons":10591,"Ġadmin":10592,"ymmet":10593,"=>":10594,"ĠCore":10595,"Delete":10596,"150":10597,"eared":10598,"Ġregulations":10599,"swing":10600,"Ġdiox":10601,"Ġlosing":10602,"ĠCalculate":10603,"Ġrepresentative":10604,"complete":10605,"MENT":10606,"Ġmuseum":10607,"Did":10608,"ranch":10609,"Found":10610,"Ġshore":10611,"Ġcircles":10612,"options":10613,"Ġfre":10614,"Ġdance":10615,"ĠVen":10616,"wa":10617,"Ġoccupied":10618,"Today":10619,"Ġoffset":10620,"Ġanimation":10621,"Ġbuying":10622,"Ġadequate":10623,"Ġinflammation":10624,"cule":10625,"ĠCommand":10626,"ĠDespite":10627,"Ġfertil":10628,"Ġconstraints":10629,"annotation":10630,"ints":10631,"ĠEarly":10632,"Ġplasma":10633,"lishing":10634,"Ġviewed":10635,"Ġsees":10636,"Ġ85":10637,"Ġnavigation":10638,"ito":10639,"Category":10640,"Section":10641,"report":10642,"Ġopposition":10643,"Ġdrew":10644,"uesday":10645,"Ġov":10646,"Ġreaching":10647,"ido":10648,"pad":10649,"2008":10650,"Core":10651,"ĠIT":10652,"ĠUnfortunately":10653,"Ġaggreg":10654,"ĠStatistics":10655,"ãģ®":10656,"Ġvarying":10657,"worth":10658,"Ġvictory":10659,"ibl":10660,"iotics":10661,"Ġaimed":10662,"archy":10663,"health":10664,"ilation":10665,"ĠPS":10666,"Ġmultipl":10667,"Ġseriously":10668,"gressive":10669,"?)":10670,"ĠVictor":10671,"Ġinstances":10672,"Ġrecommendations":10673,"Ġ800":10674,"æį":10675,"Ġfool":10676,"Ġupdates":10677,"ÑĨ":10678,"Ġbulk":10679,"ĠKn":10680,"Ġgenome":10681,"eries":10682,"consc":10683,"Ġ1991":10684,"Const":10685,"Ġconfusion":10686,"Ġcontacts":10687,"original":10688,"aints":10689,"Ġeffectiveness":10690,"Ġthinks":10691,"Ġremoval":10692,"Ġproud":10693,"stein":10694,"Ġenorm":10695,"ĠÐ¾":10696,"Ġcopyright":10697,"Ġmurder":10698,"Ġintake":10699,"Ġbeliefs":10700,"None":10701,"ĠLady":10702,"Ġchannels":10703,"Ġbiology":10704,"induced":10705,"uscript":10706,"ĠProcess":10707,"isting":10708,"four":10709,"Ġflying":10710,"Ġprominent":10711,"great":10712,"Ġwelcome":10713,"Ġquadratic":10714,"ĠFamily":10715,"8080":10716,"Ġscholar":10717,"ĠInput":10718,"ercury":10719,"Ġtransportation":10720,"Ġmanufacturing":10721,"Store":10722,"Ð°ÑĤ":10723,"Ġ?>":10724,"Ġentering":10725,"Ġwid":10726,"emia":10727,"Property":10728,"Long":10729,"ĠIF":10730,"Ġcriminal":10731,"Ġsymp":10732,"itled":10733,"Ġgau":10734,"Ġeverywhere":10735,"Ġparad":10736,"Ġrequests":10737,"People":10738,"Ġtap":10739,"Ġelder":10740,"gal":10741,"Ġinputs":10742,"Ġargued":10743,"Ġdifficulties":10744,"Ġinequality":10745,"uum":10746,"åį":10747,"Api":10748,"BM":10749,"Ġsphere":10750,"Ġvolumes":10751,"END":10752,"property":10753,"=\\\"":10754,"Ġformulas":10755,"aturday":10756,"Ġriv":10757,"aman":10758,"Gen":10759,"!)":10760,"ursday":10761,"Ġneutral":10762,"Ġgrace":10763,"ĠÂłĠÂłĠÂłĠÂł":10764,"Ġpainting":10765,"Level":10766,"velength":10767,"Ġcomputing":10768,"ĠPen":10769,"ĠCub":10770,"Ġsilence":10771,"lymp":10772,"Ġedited":10773,"ĠCL":10774,"ĠLanguage":10775,"Ġinsulin":10776,"ĠDistrict":10777,"ATA":10778,"Ġverify":10779,"TA":10780,"square":10781,"Ġfriction":10782,"ftware":10783,"120":10784,")))":10785,"Ġforming":10786,"Command":10787,"oggle":10788,"ylvan":10789,"(`":10790,"Ġoverflow":10791,"Â©":10792,"Ġfacility":10793,"icing":10794,"super":10795,"Ġincidence":10796,"Ġborrow":10797,")|":10798,"Ġyields":10799,"Under":10800,"ĠNaz":10801,"ĠRh":10802,"iÃ³n":10803,"cussion":10804,"WS":10805,"Ġnest":10806,"Ġclassified":10807,"ĠIntroduction":10808,"peat":10809,"Ġearliest":10810,"ĠÐ´":10811,"Ġkidney":10812,"ĠWi":10813,"emed":10814,"Ġcurves":10815,"Ġbaseline":10816,"Ġroads":10817,"ä¸Ń":10818,"hma":10819,"Screen":10820,"obe":10821,"Ġfought":10822,"Ġhang":10823,"Ġthrows":10824,"submit":10825,"lie":10826,"Ġcube":10827,"Ġpros":10828,"element":10829,"Ġlosses":10830,"))\\":10831,"Description":10832,"HA":10833,"urches":10834,"acco":10835,"Factory":10836,"Ġveter":10837,"Ġserving":10838,"Ġhabits":10839,"AAAA":10840,"Ġharder":10841,"mult":10842,"rained":10843,"Ġconfused":10844,"Ġboxes":10845,"Ġassessed":10846,"ĠMoon":10847,"Ġalarm":10848,"Ġtexts":10849,"Ġexponential":10850,"Ġmad":10851,"Ġremoving":10852,"Ġartificial":10853,"esome":10854,"Ġwhis":10855,"Ġexpanded":10856,"undle":10857,"Ġvertices":10858,"oples":10859,"ĠKar":10860,"Ġaddresses":10861,"ĠWikipedia":10862,"ĠAdministration":10863,"ĠSupreme":10864,"ĠPhot":10865,"ragment":10866,"ashes":10867,"Ġmini":10868,"Ġloading":10869,"ni":10870,"yan":10871,"Ġgraphs":10872,"nesday":10873,"YPE":10874,"ectors":10875,"ĠHospital":10876,"ĠEffect":10877,"never":10878,"Ġengage":10879,"ĠPur":10880,"BR":10881,"Ġattempted":10882,"Ġnearest":10883,"'])":10884,"Ġholes":10885,"ĠIR":10886,"Stack":10887,"ĠContin":10888,"ortion":10889,"ĠVan":10890,"Ġshoulder":10891,"oa":10892,"Ġash":10893,"ĠClub":10894,"GO":10895,"Ġdual":10896,"vy":10897,"ĠStill":10898,"Ġprogression":10899,"abul":10900,"Ġaccessible":10901,"factory":10902,"Ġwake":10903,"Ġgest":10904,"umer":10905,"Ġalbum":10906,"apper":10907,"Ġvictims":10908,"Sw":10909,"ĠFriday":10910,"vard":10911,"ĠInterest":10912,"Ġreviews":10913,"Ġexhibit":10914,"access":10915,"Ġmistake":10916,"Ġ\",":10917,"Ġears":10918,"school":10919,"move":10920,"Ġpayment":10921,"diff":10922,"Ġincred":10923,"ĠSQL":10924,"ĠFall":10925,"Ġcreative":10926,"ĠColon":10927,"Ġprecisely":10928,"Ġdisaster":10929,"General":10930,"props":10931,"Mem":10932,"ĠMid":10933,"Ġtongue":10934,"CM":10935,"Ġinstallation":10936,"ĠInteger":10937,"Ġwidespread":10938,"Ġnamely":10939,"heets":10940,"Ġafternoon":10941,"Ġprevalence":10942,"ICE":10943,"Ġlying":10944,"Ġfunc":10945,"Print":10946,"Ġbatt":10947,"Ġsymmetry":10948,"çĽ":10949,"ĠDisease":10950,"):\\":10951,"Ġmoments":10952,"LS":10953,"Ġsomehow":10954,"Ġfilms":10955,"Ġwinning":10956,"bour":10957,"Ġmagic":10958,"ĠSnow":10959,"Ġprofessionals":10960,"phant":10961,"Ġscarce":10962,"Panel":10963,"igration":10964,"ĠIns":10965,"ialize":10966,"Ġpse":10967,"Ġtom":10968,"ï¼ļ":10969,"ila":10970,"IE":10971,"ĠMinister":10972,"Ġgrave":10973,"Ġwireless":10974,"Ġ\");":10975,"Ġshorter":10976,"Ġdoct":10977,"ĠLinear":10978,"ĠMonday":10979,"Ġsmell":10980,"ĠDirector":10981,"Storage":10982,"Ġtens":10983,"Ġoscill":10984,"izabeth":10985,"Ġcategor":10986,"ethe":10987,"ĠForest":10988,"ĠShort":10989,"ÃĤ":10990,"ati":10991,"alities":10992,"Ġbuck":10993,"Ġlicense":10994,"tab":10995,"ython":10996,"Ġstir":10997,"wrap":10998,"inces":10999,"Ġnoble":11000,",-":11001,"ĠCustom":11002,"Ġhandling":11003,".(":11004,"acle":11005,"âĢī":11006,"Ġtumors":11007,"enza":11008,"Ġreasoning":11009,"stack":11010,"ĠAdditionally":11011,"irable":11012,"Ġbull":11013,"Ġpresc":11014,"letes":11015,"Ġreq":11016,"Ġmapping":11017,"ĠRest":11018,"Display":11019,"Selector":11020,"ĠOxford":11021,"eps":11022,"Ġassets":11023,"Dialog":11024,"Ġ(_":11025,"Ġowned":11026,"uct":11027,"Ġjail":11028,"coll":11029,"Ġloaded":11030,"æľī":11031,"Ġclouds":11032,"Ġregistered":11033,"Ġangular":11034,"ĠMedia":11035,"Ġbabies":11036,"ĠSi":11037,"icy":11038,"Ġarts":11039,"Ġpicked":11040,"Ġtow":11041,"ĠDutch":11042,"Ġsimultaneously":11043,"Ġphysician":11044,"ĠContact":11045,"Ġsons":11046,"selected":11047,"ARY":11048,"Ġfung":11049,"Ġpale":11050,"Ġhealthcare":11051,"Ġpilot":11052,"rong":11053,"Ġtowns":11054,"fin":11055,"Filter":11056,"Vari":11057,"Ġserves":11058,"terior":11059,"five":11060,"Ġreconst":11061,"ĠBased":11062,"ĠLink":11063,"Ġattributes":11064,"Ġsilent":11065,"etts":11066,"ĠAction":11067,"iratory":11068,"Ġclusters":11069,"Child":11070,"Ġincorrect":11071,".).":11072,"Ġ\"\"":11073,"navbar":11074,"FC":11075,"Ġproven":11076,"ographical":11077,"ÙĦ":11078,"ĠABC":11079,"ifer":11080,"imated":11081,"Ġadmitted":11082,"Ġcurriculum":11083,"Ġcontrad":11084,"ĠKen":11085,"Ġdock":11086,"ĠSN":11087,"Ġma":11088,"Ġplaceholder":11089,"Ġlibraries":11090,"hidden":11091,"terday":11092,"ĠAsian":11093,"Ġoccasionally":11094,"Ġapplies":11095,"ĠMajor":11096,"Ġtemporary":11097,"Ġresident":11098,"Ġhyd":11099,"Pa":11100,"ĠĠĠĠĠĠĠĠĠĠĠĠĠĠĠĠĠĠ":11101,"Ġcurious":11102,"Ġdioxide":11103,"appy":11104,"Ġplanets":11105,"Ġpreferences":11106,"Ġpaint":11107,"Ġequilibrium":11108,"Ġbegun":11109,"ĠAndrew":11110,"azz":11111,"Ġmask":11112,"ĠBlue":11113,"olester":11114,"Ġchallenging":11115,"Ġceremon":11116,"ĠKorea":11117,"rav":11118,"Ġpup":11119,"Ġthrown":11120,"ĠBul":11121,"ĠTurn":11122,"Ġorb":11123,"leton":11124,"Ġviolent":11125,"ĠCommunity":11126,"Ġmatrices":11127,"iah":11128,"Ġ&=":11129,"ĠDick":11130,"Ġreflected":11131,"Ġcuts":11132,"ĠBattle":11133,"Ġdispers":11134,"pur":11135,"Ġgathered":11136,"Ġperpendicular":11137,"Ġtutorial":11138,"prov":11139,"Ġlens":11140,"onald":11141,"Ġeliminate":11142,"Ġvot":11143,"Ġupgrade":11144,"iations":11145,"etc":11146,"Ġentertain":11147,"arith":11148,"zero":11149,"rr":11150,"apor":11151,"insert":11152,"earchers":11153,"tle":11154,"etary":11155,"ĠJoe":11156,"Ġ1950":11157,"Ġlistening":11158,"Ġcounsel":11159,"pres":11160,"eros":11161,"Ġavailability":11162,"ĠFrancisco":11163,"Ġexped":11164,"ĠDeterm":11165,"ushing":11166,"olesc":11167,"Ġunlikely":11168,"ĠGar":11169,"Ġcompact":11170,"Ġrooms":11171,"ilateral":11172,"Ġride":11173,".$":11174,"MAT":11175,"Â®":11176,"Ġiter":11177,"Mark":11178,"Ġterrible":11179,"aters":11180,"Ġcandidates":11181,"Ġenhanced":11182,"Ġconsent":11183,"Ġbeneficial":11184,"Ġtrends":11185,"Ġstup":11186,"Ġselling":11187,"Ġ02":11188,"Ġsearching":11189,"ĠMu":11190,"Ġputs":11191,"Ġreaches":11192,"obj":11193,"}+":11194,"................":11195,"Ġdistances":11196,"ĠNeg":11197,"bury":11198,"ĠProp":11199,"ĠLim":11200,"Ġburied":11201,"Ġperceived":11202,"Ġrequirement":11203,"emon":11204,"Ġsuggestions":11205,"iary":11206,"ĠReal":11207,"Ġenthus":11208,"Lear":11209,"rapeutic":11210,"ĠSelect":11211,"Ġkiss":11212,"Further":11213,"Ġrib":11214,"achus":11215,"ILL":11216,"Ġ:)":11217,"Ġcrown":11218,"Ġongoing":11219,"Ġprecision":11220,"Ġreceptor":11221,"Ġfabric":11222,"Ġnitrogen":11223,"Ġdense":11224,"Ġrecycl":11225,"ylvania":11226,"Ġpill":11227,"uto":11228,"away":11229,"åĮ":11230,"Ġscales":11231,"ĠHead":11232,"ĠChristians":11233,"Ġstrains":11234,"Ġmothers":11235,"Ġscreens":11236,"Ġspr":11237,"Ġcrowd":11238,"Ġbacterial":11239,"Ġdemands":11240,"etric":11241,"Ġgast":11242,"Ġafterwards":11243,"Ġminister":11244,"dim":11245,"Ġsoc":11246,"Ġdisag":11247,"ĠÂ»":11248,"Ġmasses":11249,"Ġcooling":11250,"empty":11251,"ĠGall":11252,"Ġirr":11253,"Ġbat":11254,"Ġham":11255,"Ġverb":11256,"Ġpenal":11257,"iro":11258,"tmp":11259,"ĠPath":11260,"Ġelectrons":11261,"door":11262,"Ġsaving":11263,"ĠVector":11264,"Ġcycles":11265,"FO":11266,"rying":11267,"Ġtherap":11268,"HTML":11269,"Ġnutrition":11270,"Ġfifty":11271,"Ġrecording":11272,"Which":11273,"Ġ700":11274,"Ġmanually":11275,"Ġtract":11276,"Ġoccurring":11277,"ĠMusic":11278,"ĠCT":11279,"Ġclassic":11280,"ĠHebrew":11281,"Ġvariant":11282,"Ġquot":11283,"Ġadverse":11284,"Ġuncertainty":11285,"âĦ":11286,"decoration":11287,"three":11288,"Ġrestart":11289,"Ġconve":11290,"Ġmaintaining":11291,"uma":11292,"Ġcoat":11293,"Ġlaptop":11294,"Ġrating":11295,"Ġ09":11296,"icking":11297,"Ġcontemporary":11298,"Ġrefuge":11299,"Ġoppon":11300,"Ġutter":11301,"ĠEngineering":11302,"Ġasks":11303,"Ġïĥ":11304,"track":11305,"Ġseparation":11306,"ĠNative":11307,"ington":11308,"rooms":11309,"Jun":11310,"Ġcord":11311,"Ġæ":11312,"Ġvice":11313,"Ġsubstr":11314,"Ġpoetry":11315,"Ġvaries":11316,"Ġgraphics":11317,"ĠRepublican":11318,"ĠRAM":11319,"ĠNewton":11320,"city":11321,"whe":11322,"Î¸":11323,"Ġsuscept":11324,"Ġbeings":11325,"ĠHor":11326,"ĠKenn":11327,"Ġhook":11328,"Ġemission":11329,"Have":11330,"gly":11331,"Ġbug":11332,"ĠAsk":11333,"Ġassuming":11334,"Ġtransferred":11335,"ĠLew":11336,"Ġinspired":11337,"pc":11338,"unct":11339,"Ġresolve":11340,"Ġpsychological":11341,"Ġ\"$":11342,"repos":11343,"sequently":11344,"Ġbreathing":11345,"Ġexecution":11346,"ĠSimilarly":11347,"uels":11348,"ĠSource":11349,"Ġworship":11350,"Introduction":11351,"ĠAgricult":11352,"Ġpathways":11353,"Ġheating":11354,"ĠĠĠĠĠĠĠĠĠĠĠĠĠĠĠĠĠĠĠĠ":11355,"Ġpaths":11356,"ĠMO":11357,"ĠFA":11358,"elihood":11359,"services":11360,"Ġfulf":11361,"irl":11362,"mount":11363,"Ġenemies":11364,"Ġsteady":11365,"sun":11366,"ĠPL":11367,"Ġcommunicate":11368,"turn":11369,"estyle":11370,"Ġovercome":11371,"Ġscholars":11372,"Ġtwelve":11373,"figure":11374,"lls":11375,"UG":11376,"iams":11377,"ĠOlymp":11378,"Ġpreserve":11379,"ĠWithout":11380,"'].":11381,"Only":11382,"Ġdeeply":11383,"Ġfifth":11384,"ĠArthur":11385,"Pub":11386,"Ġcalculating":11387,"ä¸º":11388,"Ġbehaviors":11389,"Ġpartly":11390,"Ġindirect":11391,"ĠLeague":11392,"Ġconsisting":11393,"ĠEquations":11394,"Ġprivile":11395,"Ġillegal":11396,"Ġstrings":11397,"Ġ'/":11398,"Ġaccompanied":11399,"Ġpod":11400,"ements":11401,"anol":11402,"imen":11403,"Ġjudgment":11404,"Ġincub":11405,"Div":11406,"Ġhistoric":11407,"PRO":11408,"agan":11409,"Ġslavery":11410,"bean":11411,"Ġwildlife":11412,"Ġintest":11413,"domain":11414,"ĠSC":11415,"plus":11416,"Ġliterary":11417,"Ġignore":11418,"Ġarbitrary":11419,"ĠRat":11420,"ĠAF":11421,"ĠDictionary":11422,"Ġamazing":11423,"ĠResults":11424,"Ġsubstances":11425,"Ġcv":11426,"Ġfrust":11427,"Ġratios":11428,"beta":11429,"ĠOption":11430,"flu":11431,"Ġanticip":11432,"clear":11433,"Ġmodeling":11434,"Ġbusy":11435,"Ġgay":11436,"replace":11437,"children":11438,"Ġmodes":11439,"Ġradi":11440,"Ġgeometric":11441,"Day":11442,"Ġdominant":11443,"cha":11444,"Ġallerg":11445,"Ġnutrients":11446,"Ġwearing":11447,"ĠPO":11448,"Ġsignaling":11449,"ÂĿ":11450,"Ġalpha":11451,"olds":11452,"Ġrobust":11453,"Ġfans":11454,"Ġcounting":11455,"bial":11456,"Ġwal":11457,"Ġbund":11458,"learn":11459,"Ġexercises":11460,"Ver":11461,"Ġmb":11462,")).":11463,"Ġ'../":11464,"125":11465,"Ġcompos":11466,"ilst":11467,"ĠNorm":11468,"Ð¾ÑĢ":11469,"Ġgolden":11470,"Full":11471,"Ġcomposite":11472,"?:":11473,"Ġconclude":11474,"Ġcoastal":11475,"Ġintr":11476,"Ġsettlement":11477,"Empty":11478,"ĠAud":11479,"marks":11480,"Joined":11481,"omers":11482,"ĠPrime":11483,">,":11484,"Ġfishing":11485,"Ġfragment":11486,"ĠCambridge":11487,"Ġtan":11488,"days":11489,"=-":11490,"Ġow":11491,"Ġreads":11492,"Ġcomprom":11493,"Î½":11494,"comfort":11495,"Price":11496,"ĠRoad":11497,"ĠPrint":11498,"Ġwing":11499,"ĠBern":11500,"Ġhier":11501,"ĠConsole":11502,"2006":11503,"plane":11504,"cart":11505,"Ġneural":11506,"Draw":11507,"Finally":11508,"ä¼":11509,"Ġdistinguish":11510,"clip":11511,"ĠKent":11512,"Ġparas":11513,"speed":11514,"Ġrectangle":11515,"Ġmanifest":11516,"nings":11517,"ĠZeal":11518,"gines":11519,"final":11520,"ĠCost":11521,"Ġattributed":11522,"Ġdescribing":11523,"ä¸į":11524,"Ġdamaged":11525,"Ġwavelength":11526,"Ġtears":11527,"Ġjur":11528,"Ġlayout":11529,"Ġscroll":11530,"Calcul":11531,"ĠLove":11532,"å½":11533,"Ġinvasion":11534,"Ġinfect":11535,"Ġethnic":11536,"Ġschedul":11537,"Ġconfident":11538,"Ġpi":11539,"Ġdot":11540,"ordinary":11541,"Connection":11542,"ados":11543,"ghan":11544,"Ġoutline":11545,"iii":11546,"Ġ58":11547,"Ġvaried":11548,"oving":11549,"iry":11550,"Ġsearc":11551,"apsed":11552,"ĠCoast":11553,"xs":11554,"Ġperf":11555,"Ġcomplications":11556,"icker":11557,"Ġidentifying":11558,"VE":11559,"Ġending":11560,"ikes":11561,"ele":11562,"Ġschedule":11563,"ĠFed":11564,"Ġplates":11565,"Ġpushed":11566,"ĠSeveral":11567,"000000":11568,"Ġwondering":11569,"Ġextracted":11570,"una":11571,"Ġburden":11572,"KE":11573,"actic":11574,"Ġcalm":11575,"Ġminds":11576,"Ġarranged":11577,"ĠCro":11578,"ĠEU":11579,"ĠWay":11580,"Ġnewspaper":11581,"MT":11582,"Ġfaced":11583,"Ġprintf":11584,"ĠCPU":11585,"erer":11586,"Ġmeter":11587,"Ġ---":11588,"Ġlin":11589,"PP":11590,"Ġelif":11591,"ORE":11592,"serif":11593,"lisher":11594,"ĠAgency":11595,"adelph":11596,"ĠJones":11597,"ando":11598,"lined":11599,"ĠDie":11600,"Ġperception":11601,"Ġsel":11602,"ategories":11603,"aired":11604,"Ġcodes":11605,"olesterol":11606,"Thread":11607,"erred":11608,"Ġencouraged":11609,"ACE":11610,"dependent":11611,"ĠScotland":11612,"achusetts":11613,"Her":11614,"uction":11615,"whel":11616,"bow":11617,"android":11618,"Ġupload":11619,"Ġcombine":11620,"ĠGeorgia":11621,"Ġfails":11622,"âĢ²":11623,"Ġmagazine":11624,"zyme":11625,"Ġgrey":11626,"Ġconvenient":11627,"bec":11628,"Ġdeleted":11629,"Ġgift":11630,"Ġreturning":11631,"Ġexecutive":11632,"ĠPut":11633,"ĠHig":11634,"ĠÏĨ":11635,"Ġdefinitions":11636,"Ġ53":11637,"Ġdistinction":11638,"Ġmounted":11639,"iotic":11640,"123":11641,"Ġbelieves":11642,"yy":11643,"Ġtooth":11644,"Ġranges":11645,"uting":11646,"Ġepisode":11647,"iser":11648,"ĠAh":11649,"Ġsystematic":11650,"ĠExamples":11651,"Ġsingular":11652,"Ġhopes":11653,"zym":11654,"Ġmusical":11655,"ĠPortug":11656,">\",":11657,"ĠRo":11658,"Ġna":11659,"Ġcapabilities":11660,"because":11661,"Ġviruses":11662,"Ġwound":11663,"Ġimprovements":11664,"Ġcited":11665,"ascript":11666,"Po":11667,"Ġexert":11668,"lectric":11669,"elcome":11670,"Ġvig":11671,"Ġtracks":11672,"Ġswit":11673,"Ġguns":11674,"irus":11675,"Ġtranscription":11676,"eor":11677,"Ġ51":11678,"ĠNavy":11679,"Ġ1989":11680,"copy":11681,"jud":11682,"PUT":11683,"Ġaccurately":11684,"Ġreflection":11685,"Ġorgans":11686,"Ġreson":11687,"Ġ66":11688,"ocytes":11689,"Ġcoh":11690,"inch":11691,"aka":11692,"Ġoperators":11693,"Ġscientist":11694,"Ġranging":11695,"ĠâĬ":11696,"Ġcomputed":11697,"Ġrevenue":11698,"Bas":11699,"Ġexisted":11700,"Ġfrequencies":11701,"Ġshed":11702,"ologic":11703,"bes":11704,"ĠSem":11705,"sylvania":11706,"Ġcounts":11707,"ependent":11708,"Ġrespective":11709,"Ġrandomly":11710,"uid":11711,"ĠIC":11712,"Ġfactory":11713,"ĠPrince":11714,"know":11715,"ä¿":11716,"offset":11717,"Ġtired":11718,"Ġtends":11719,"Ġ2022":11720,"Ġlabour":11721,"chat":11722,"Ġreign":11723,"ĠHot":11724,"Ġvulnerable":11725,"ĠZealand":11726,"æ³":11727,"ĠCopyright":11728,"ĠBon":11729,"ĠLocal":11730,"Ġcopper":11731,"Ġentries":11732,"Ġmood":11733,"Ġmanuscript":11734,"Ġorientation":11735,"sn":11736,"ĠEll":11737,"Ġfunctionality":11738,"ĠÎ´":11739,"Ġaffairs":11740,"Ġspecify":11741,"Ġmutations":11742,"Return":11743,"orters":11744,"Ġarmed":11745,"ĠHP":11746,"Ð¸ÑĤ":11747,"Ġkitchen":11748,"ĠSon":11749,"ashboard":11750,"Ġestablishment":11751,"Ġlets":11752,"ĠâĪĨ":11753,"Ġmineral":11754,"idal":11755,"ĠMember":11756,"Ġmodify":11757,"Ġdramatic":11758,"adelphia":11759,"Ant":11760,"rend":11761,"Ġstones":11762,"shot":11763,"Ġmyster":11764,"Ġaffecting":11765,"ĠPA":11766,"Ġraising":11767,"Contact":11768,"Ġdestination":11769,"ĠLE":11770,"ceive":11771,"Ġremainder":11772,"alm":11773,"ĠMove":11774,"ĠHon":11775,"been":11776,"Ġweights":11777,"Ġopens":11778,"Ġexcited":11779,"Ġguidance":11780,"ighth":11781,"Ġoldest":11782,"ĠLos":11783,"Ġdifferently":11784,"Ġentity":11785,"Ġsurge":11786,"Ġprocessed":11787,"ĠHa":11788,"Ġcontrary":11789,"Ġoutbreak":11790,"ĠDuke":11791,"Ġfriendly":11792,"ĠFa":11793,"ĠApplication":11794,"Ġappeal":11795,"ĠOK":11796,"Ġinteractive":11797,"ĠComputer":11798,"Ġcorresponds":11799,"ĠSeries":11800,"interest":11801,"Ġproportional":11802,"Christ":11803,"kt":11804,"Ġquantitative":11805,"ĠRs":11806,"people":11807,"disc":11808,"mn":11809,"Ġadapted":11810,"Make":11811,"eh":11812,"focus":11813,"abling":11814,"ðĿĲ":11815,"Ġtort":11816,"Ġ×":11817,"ĠAccount":11818,"ĠPak":11819,"Collections":11820,"gt":11821,"Ġhunting":11822,"Ġsodium":11823,"Ġsulf":11824,"è¡Į":11825,"asures":11826,"ĠJSON":11827,"Ġcalories":11828,"dependency":11829,"Ġdenominator":11830,"Ġdocumentation":11831,"sex":11832,"Ġinsight":11833,"Ġinline":11834,"ricts":11835,"Pop":11836,"Ġfest":11837,"register":11838,"Ġreserv":11839,"Ġpitch":11840,"ĠAI":11841,"activity":11842,"Ġster":11843,"Weight":11844,"Ġcollapse":11845,"Ġenormous":11846,"country":11847,"culiar":11848,"Ġeveryday":11849,"Ġaims":11850,"device":11851,"Ġregime":11852,"Ġflux":11853,"ollo":11854,"ĠConfed":11855,"\\$":11856,"ĠEN":11857,"Ġpreserved":11858,"ĠLat":11859,"Ġpel":11860,"Ġdish":11861,"Ġpreventing":11862,"Ġengineers":11863,"ĠObserv":11864,"ĠRub":11865,"isition":11866,"asses":11867,"Ġchemistry":11868,"Ġliked":11869,"ĠMic":11870,"Ġreviewed":11871,"mus":11872,"Ġpocket":11873,"Ġeigen":11874,"Ġdisabled":11875,"Ġarrival":11876,"`.":11877,"Ġweakness":11878,"ĠSecretary":11879,"Ġbars":11880,"Ġemployee":11881,"Ġdies":11882,"ĠLi":11883,"Ġunemploy":11884,"Ġcout":11885,"ĠDom":11886,"ritis":11887,"Ġdistinguished":11888,"ìĹ":11889,"Ġdying":11890,"ĠDam":11891,"ĠIdent":11892,"ĠJon":11893,"ä»¥":11894,"econom":11895,"Ġ06":11896,"Ġinterventions":11897,"Ev":11898,"Ġchamber":11899,"Ġconnecting":11900,"Ġboundaries":11901,"ĠSolutions":11902,"ĠJackson":11903,"iva":11904,"Ġtreating":11905,"Vector":11906,"Ġwisdom":11907,"ĠÂ°":11908,"Ġlegend":11909,"SR":11910,"shall":11911,"ysical":11912,"ĠCase":11913,"ĠHo":11914,"erals":11915,"mi":11916,"Ġmeta":11917,"Ġpound":11918,"Ġmagnet":11919,"could":11920,"Ġforever":11921,"uming":11922,"Ġchances":11923,"Ġacres":11924,"Json":11925,"Ġinsects":11926,"Ġengines":11927,"Ġdivine":11928,"ĠSurvey":11929,"ĠLib":11930,"aternal":11931,"ĠPractice":11932,"racle":11933,"Ġclothing":11934,"engers":11935,"Ġgreenhouse":11936,"Ġfra":11937,"pelled":11938,"Ġdiver":11939,"Ġrotate":11940,"Ġacknowled":11941,"Ġhazard":11942,"Oper":11943,"Ġfant":11944,"Ġcoin":11945,"Ġrequiring":11946,"Ġvotes":11947,"Ġconclusions":11948,"ĠMah":11949,"Ġthreatened":11950,"Ġaver":11951,"Ġsans":11952,"Ġserum":11953,"fr":11954,"pow":11955,"ller":11956,"Ġrecurs":11957,"åı¯":11958,"Ġappreciate":11959,"ĠCorn":11960,"ĠFre":11961,"Ġtendency":11962,"mother":11963,"æĢ":11964,"odox":11965,"Ġtemple":11966,"ĠCOVID":11967,"chor":11968,"Ġsake":11969,"Ġpossibilities":11970,"AF":11971,"æĸĩ":11972,"PATH":11973,"ben":11974,"Ġupgrad":11975,"Ġproposal":11976,"inois":11977,"ĠLaboratory":11978,"hips":11979,"anes":11980,"ologically":11981,"ropy":11982,"without":11983,"ãĥ¼":11984,"Ġsatisfy":11985,"ĠPD":11986,"overnment":11987,"Ġdevelopers":11988,"INS":11989,"Ġmd":11990,"Ġfluores":11991,"Ġcod":11992,"Ġcoc":11993,"Ġ'<":11994,"acks":11995,"perature":11996,"Ġannoy":11997,"ĠØ":11998,"ĠGulf":11999,"Ġbreaks":12000,"question":12001,"Ġbrill":12002,"Ġacceptable":12003,"Ġaccommod":12004,"heart":12005,"modal":12006,"Ġinnovation":12007,"ois":12008,"ĠHim":12009,"Ġhasn":12010,"Ġdimin":12011,"(&":12012,"ä»¶":12013,"ëĭ¤":12014,"Ġfallen":12015,"?'":12016,"cod":12017,"å¾":12018,"Ġtough":12019,"Ġbasket":12020,"ĠCrit":12021,"illing":12022,"ĠColorado":12023,"Ġreadily":12024,"ĠIslamic":12025,"Ġtalked":12026,"Ġsatisfied":12027,"ĠDaniel":12028,"Ġpeoples":12029,"Ġproviders":12030,"Ġfate":12031,"250":12032,"LR":12033,"Ġcust":12034,"estamp":12035,"Ġlengths":12036,"ĠDisplay":12037,"Ġabundance":12038,"ĠTree":12039,"sudo":12040,"aylor":12041,"ĠBal":12042,"closed":12043,"changed":12044,"Ġsubsequently":12045,"Sk":12046,"pref":12047,"Ġevolved":12048,"Ġbands":12049,"otor":12050,"ĠSaturday":12051,"aping":12052,"Types":12053,"hemistry":12054,"Ġdiagnostic":12055,"ĠComment":12056,"Area":12057,"ĠSP":12058,"Ġracial":12059,"Ġcats":12060,"Ġholy":12061,"ĠSpirit":12062,"Ġassumptions":12063,"ĠStan":12064,"Ġinval":12065,"Ġliterally":12066,"pot":12067,"Ġemphasis":12068,"heimer":12069,"Ġsegments":12070,"Ġoverride":12071,"Ġsynthesis":12072,"Ġtender":12073,"Ġcreatures":12074,"Ġinvolvement":12075,"Ġmolecule":12076,"Ġmerch":12077,"Ġbrothers":12078,"usalem":12079,"ĠConservation":12080,"Ġbottle":12081,"Ġdx":12082,"formance":12083,"ĠBasic":12084,"km":12085,"ĠWeek":12086,"ĠElizabeth":12087,"ĠEquation":12088,"Ġforty":12089,"Ġshares":12090,"ĠÎ³":12091,"issipp":12092,"require":12093,"nbsp":12094,"Ġarrow":12095,"present":12096,"^{\\":12097,"Ġven":12098,"Ġrod":12099,"ovascular":12100,"cence":12101,"Ġtension":12102,"Ġwra":12103,"Ġrh":12104,"ĠPlace":12105,"uv":12106,"Ġpace":12107,"quired":12108,"ĠGB":12109,"ĠMichigan":12110,"endment":12111,"comb":12112,"Ġgrows":12113,"900":12114,"ĠSus":12115,"ante":12116,"acon":12117,"sters":12118,"owed":12119,"Ġignor":12120,"}\"":12121,"}-":12122,"Ġfir":12123,"Ġloan":12124,"urable":12125,"Ġmonthly":12126,"controller":12127,"predict":12128,"achers":12129,"ĠLiter":12130,"__(":12131,"orne":12132,"ĠMessage":12133,"athan":12134,"Ġcooking":12135,"Ġgenerating":12136,"ĉĉĉĉĉĉĉĉ":12137,"Ġprovince":12138,"ĠIslands":12139,"Ġbreeding":12140,"Ġexplicitly":12141,"Ġ\"-":12142,"Ġbeta":12143,"Ġpenet":12144,"Ġcoinc":12145,"ĠOrganization":12146,"Ġpredictions":12147,"Ġhast":12148,"ĠRandom":12149,"onds":12150,"features":12151,"å¸":12152,"ĠBuddh":12153,"ctu":12154,"ĠPennsylvania":12155,"Ġcourts":12156,"Ġelevated":12157,"Font":12158,"ĠJustice":12159,"Ġtags":12160,"Ġalloc":12161,"Ġdecor":12162,"eras":12163,"Ġdrain":12164,"ĠBE":12165,"inth":12166,"infl":12167,"Ġstiff":12168,"ĠBY":12169,"agram":12170,"lesh":12171,"Ġeverybody":12172,"ĠÏģ":12173,"ĠMassachusetts":12174,"Ġcig":12175,"udos":12176,"again":12177,"Ġenjoyed":12178,"Ġsacred":12179,"Ġliberal":12180,"Ãł":12181,"Ġmos":12182,"ĠSSD":12183,"entry":12184,"Ġ68":12185,"verted":12186,"ĠArrayList":12187,"expl":12188,"Ġvisitors":12189,"asets":12190,"grow":12191,"ĠCond":12192,"Ġclients":12193,"Ġreputation":12194,"Ġmissed":12195,"Ġviral":12196,"quer":12197,"ĠDraw":12198,"Does":12199,"Ġcancers":12200,"created":12201,"ĠBoy":12202,"ĠGreg":12203,"$$.":12204,"ulative":12205,"Ġstatistically":12206,"live":12207,"say":12208,"Ġbytes":12209,"Ġrestricted":12210,"Ġwings":12211,"advant":12212,"abulary":12213,"Ġbearing":12214,"Ġsubmit":12215,"Ġses":12216,"asis":12217,"ĠBest":12218,"Ġillustrated":12219,"è§":12220,")\"]},":12221,"cellular":12222,"Ġlegit":12223,"Ġdividing":12224,"osome":12225,"Ġdoors":12226,"ĠThank":12227,"Ġsheep":12228,"requency":12229,"viously":12230,"ÂĿÂ":12231,"tx":12232,"Ġbot":12233,"ĠTags":12234,"valu":12235,"asi":12236,"ãĢģ":12237,"bc":12238,"Ġbeer":12239,"Ġspir":12240,"Ġpartially":12241,"Ġchoosing":12242,"Ġbalanced":12243,"ĠLicense":12244,"Ġdipl":12245,"cpp":12246,"Ġyards":12247,"Ġ57":12248,"Ġmatches":12249,"plicity":12250,"Ġassignment":12251,"necessary":12252,"holders":12253,"ĠContent":12254,"éĹ":12255,"Ġcommunications":12256,"Ġcollaboration":12257,"article":12258,"Ġamino":12259,"Ġcum":12260,"urd":12261,"Ġencounter":12262,"ĠAmazon":12263,"Ġhover":12264,"}$.":12265,"ĠPalest":12266,"Ġdiscrimination":12267,"uz":12268,"ibration":12269,"Ġports":12270,"Ġchamp":12271,"Ġsucceeded":12272,"Ġmoisture":12273,"ïĢ":12274,"ĠGrade":12275,"Ġoccurrence":12276,"ĠNotes":12277,"Ġweapon":12278,"Ġinhabitants":12279,"adder":12280,"ĠPed":12281,"ques":12282,"English":12283,"Ġdistributions":12284,"Ġthr":12285,"Ġ07":12286,"star":12287,"Ġarithmetic":12288,"nut":12289,"Ġdischarge":12290,"Ġbarrier":12291,"Ġgases":12292,"Ġwithdraw":12293,"Ġorange":12294,"Ġevolutionary":12295,"*(":12296,"early":12297,"1111":12298,"ĠDeath":12299,"æĹ¶":12300,"Ġprovision":12301,"Ġbonds":12302,"Ġembry":12303,"Ġimplements":12304,"ĠImport":12305,"ĠDocument":12306,"Ġwheat":12307,"Ġ08":12308,"Ġactor":12309,"Ġoste":12310,"olves":12311,"ĠEncyclopedia":12312,"ĠEss":12313,"Ġanymore":12314,"Ġtape":12315,"Ġopinions":12316,"olutions":12317,"Ġcontinuing":12318,"vue":12319,"Ġgrounds":12320,"ĠConnect":12321,"Ġgradient":12322,"Ġgods":12323,"ulates":12324,"ĠAdam":12325,"ilipp":12326,"ĠTwitter":12327,"History":12328,"Ġdwell":12329,"Ġatomic":12330,"Ġcolonies":12331,"Null":12332,"norm":12333,":**":12334,"Ġinherit":12335,"Ġoverwhel":12336,"fi":12337,"Thank":12338,"Ġlikelihood":12339,"Ġtorch":12340,"SIZE":12341,"Ġepit":12342,"Ġdisappoint":12343,"High":12344,"elled":12345,"Ġpersu":12346,"Ġindustries":12347,"issippi":12348,"Ġbon":12349,"ĠLuc":12350,"enda":12351,"Ġrobot":12352,"rh":12353,"ĠPolicy":12354,"Ġpreference":12355,"Ġarchae":12356,"uh":12357,"ĠParliament":12358,"STR":12359,"ĠMil":12360,"WE":12361,"Ð±":12362,"operative":12363,"Ġmatching":12364,"Ġkingdom":12365,"ĠBooks":12366,"Loading":12367,"Ġelastic":12368,"Args":12369,"irical":12370,"Ġvalidation":12371,"natural":12372,"Ġrats":12373,"ĠSmall":12374,"ĠDaily":12375,"ìŀ":12376,"æĿ":12377,"ĠBa":12378,"Ġdozen":12379,"SELECT":12380,"Health":12381,"bid":12382,"dr":12383,"Ġlanding":12384,"Ġbroadcast":12385,"DU":12386,"wan":12387,"Ġscatter":12388,"Ġtransf":12389,"mun":12390,"Ġdeck":12391,"arded":12392,"Ġentitled":12393,"Ġirrit":12394,"ocent":12395,"Ġvalley":12396,"Ġstreams":12397,"Ġchat":12398,"Ġfolks":12399,"ĠTuesday":12400,"ĠOs":12401,"ifi":12402,"Ġdiscussions":12403,"Ġabilities":12404,"Ġyard":12405,"Ġdollar":12406,"Window":12407,"Ġ\"../":12408,"Ġexploration":12409,"Ġdin":12410,"Ġadolesc":12411,"Ġresem":12412,"Ġprayer":12413,"erk":12414,"angered":12415,"Ġserial":12416,"Ġenables":12417,"ĠCart":12418,"Ġmining":12419,"Ġchecking":12420,"Ġoun":12421,"Account":12422,"Ġdiscount":12423,"ĠChristianity":12424,"match":12425,"vation":12426,"eling":12427,"Ġatom":12428,"Ãª":12429,"Ġinert":12430,"256":12431,"alo":12432,"ulo":12433,"ĠDifferent":12434,"Ġburned":12435,"berry":12436,"DD":12437,"Ġcaptain":12438,"eman":12439,"Ġscrew":12440,"Ġdecent":12441,"Ġequality":12442,"Ġasthma":12443,"Hence":12444,"Ġpermitted":12445,"Ġadmit":12446,"ĠConference":12447,"}=\\":12448,"Ġsoph":12449,"180":12450,"Ġbench":12451,"Ġml":12452,"Ġchurches":12453,"Ġ::":12454,"ĠKh":12455,"Ġapproval":12456,"ĠJacob":12457,"Ġexcessive":12458,"ĥ½":12459,"Ġrespiratory":12460,"ĠExpress":12461,"ĠBusiness":12462,"Ġlecture":12463,"ulpt":12464,"Format":12465,"ĠKeep":12466,"ĠClimate":12467,"Ġphenomena":12468,"Ġcorporate":12469,"RS":12470,"Ġthroat":12471,"sit":12472,"Ġelementary":12473,"Ġretro":12474,"Ġcompetitive":12475,"itical":12476,"tail":12477,"ĠEdition":12478,"Person":12479,"Ġapproximation":12480,"ĠPhiladelphia":12481,"Graph":12482,"Ġtargeted":12483,"Ġarise":12484,"forms":12485,"Ġdrops":12486,"%%":12487,"commun":12488,"Ġtwe":12489,"LC":12490,"Ġcaps":12491,"perm":12492,"ĠIndones":12493,"Ġsurely":12494,"risk":12495,"Ġvirtually":12496,"Ġbeside":12497,"Ġarrangement":12498,"ĠWilson":12499,"Av":12500,"Ð¾Ð´":12501,"ders":12502,"ĠiMac":12503,"Ġangry":12504,"ĠWilliams":12505,"Ġhumanity":12506,"video":12507,"oment":12508,"Ġchip":12509,"Ġattribute":12510,"Ġcylinder":12511,"Ġsurrounded":12512,"Ġwarrant":12513,"ëĬ":12514,"Ġsurgical":12515,"razy":12516,"ìĦ":12517,"ĠProblems":12518,"ilty":12519,"Ġingredients":12520,"shaped":12521,"Ġdescend":12522,"Ġunto":12523,"Ġodds":12524,"LY":12525,"ograms":12526,"efully":12527,"iano":12528,"ĠCarl":12529,"ĠNY":12530,"ĠGene":12531,"Ġcream":12532,"ĠActivity":12533,"Ġunexpected":12534,"Close":12535,"Ah":12536,"Ġcomparable":12537,"Ġ110":12538,"Ġcholesterol":12539,"}}$":12540,"ivities":12541,"Ġchecks":12542,"poss":12543,"Unit":12544,"åĴ":12545,"Ġprolif":12546,"ĠPrice":12547,"Ġflexible":12548,"Ġexecuted":12549,"phe":12550,"uf":12551,"Ġfocuses":12552,"Function":12553,"Ġtherapeutic":12554,"\")\\":12555,"Ġlifetime":12556,"Ġyesterday":12557,"Ġthumb":12558,"Ġeager":12559,"RT":12560,"Ġpeculiar":12561,"stop":12562,"nn":12563,"etooth":12564,"Ñİ":12565,"Ġantibiotics":12566,"asive":12567,"ĠThird":12568,"around":12569,"Ġmodules":12570,"ĠMcC":12571,"ĠTB":12572,"2005":12573,"ĠModern":12574,"ntil":12575,"Ġextrem":12576,"%=":12577,"ĠInvest":12578,"tsx":12579,"roductive":12580,"aughed":12581,"Ġfart":12582,"ĠDVD":12583,"OB":12584,"ropri":12585,"ĠRay":12586,"hero":12587,"week":12588,"lan":12589,"security":12590,"ilon":12591,"Ġdisable":12592,"Ġsword":12593,"Ġseparately":12594,"ĠNode":12595,"ĠLie":12596,"Ġtraject":12597,"pair":12598,"Ġdegradation":12599,"Ġquit":12600,"ç½":12601,"clean":12602,"ĠNob":12603,"ĠWednesday":12604,"Ġhills":12605,"ceptions":12606,"Ġwider":12607,"acles":12608,"Ġaccomplish":12609,"ĠIce":12610,"uther":12611,"ĠWas":12612,"Ġbleeding":12613,"Ġsimulations":12614,"fficial":12615,"Ġpersonality":12616,"Ġdocumented":12617,"ê°":12618,"orer":12619,"Ġpossession":12620,"Ġtropical":12621,"ĠLead":12622,"rer":12623,"Ġarrive":12624,"Ġparagraph":12625,"Props":12626,"Ġstriking":12627,"looking":12628,"ĠAsh":12629,"ulator":12630,"Ġpoem":12631,"ropol":12632,"Ġroutes":12633,"Ġ62":12634,"letter":12635,"Local":12636,"iop":12637,"Ġbunch":12638,"Ġly":12639,"Ġabdom":12640,"ĠThursday":12641,"ĠIndust":12642,"Ġpromising":12643,"Ġtower":12644,"Ġresolved":12645,"ĠAfghan":12646,"loss":12647,"ulse":12648,"Ġmarketing":12649,"Ġhappiness":12650,"Press":12651,"pet":12652,"Ġobjectives":12653,"Ġemotion":12654,"Ġprofound":12655,"Ġindependently":12656,"Ġrecur":12657,"awa":12658,"Ġinfants":12659,"ĠDisk":12660,"(\"\\":12661,"ĠDarwin":12662,"bool":12663,"ĠSaint":12664,"Ġ\"\",":12665,"endix":12666,"Ġ63":12667,"ierce":12668,"Ġphysically":12669,"supp":12670,"Ġsoldier":12671,"ÏĦ":12672,"Ġgam":12673,"Ġbesides":12674,"ĠAcc":12675,"ificate":12676,"ĠJerusalem":12677,"burn":12678,"ĠRepresent":12679,"æİ":12680,"Ġdevoted":12681,"equals":12682,"Ġattended":12683,"outputId":12684,"Ġemerging":12685,"Que":12686,"Ġfisher":12687,"Ġcouncil":12688,"escope":12689,"thew":12690,"oli":12691,"Ġcontrolling":12692,"ĠÏī":12693,"ĠPakistan":12694,"elly":12695,"Ġreveals":12696,"Sur":12697,"ĠTheory":12698,"Ġplots":12699,"Ġspecimens":12700,"Ġ1930":12701,"Ġtrail":12702,"Ġcompletion":12703,"Ġ[-":12704,"Ġcommitment":12705,"Lin":12706,"Ġvisits":12707,"required":12708,"Ġ04":12709,"ĠShould":12710,"ĠDemocr":12711,"Ġdeveloper":12712,"half":12713,"Ġinev":12714,"oping":12715,"Ġmarkers":12716,"ffffff":12717,"rin":12718,"Ġhospitals":12719,"God":12720,"Ġell":12721,"ĠVideo":12722,"ĠNC":12723,"Ġ96":12724,"ĠAlf":12725,"Ġ..":12726,"Ġrear":12727,"Ġballs":12728,"Ġuniversities":12729,"åĴĮ":12730,"NT":12731,"Ġstabil":12732,"NF":12733,"itic":12734,"phabet":12735,"console":12736,"Ġdependence":12737,"ogeneous":12738,"thread":12739,"Ġestate":12740,"history":12741,"ĠLater":12742,"raham":12743,"odynam":12744,"Ġemerged":12745,"ĩĴ":12746,"ĠEc":12747,"Ġaltered":12748,"////////////////":12749,"Ġguarantee":12750,"Ġsafely":12751,"Ġtribes":12752,"avascript":12753,"ĠIllinois":12754,"Ġhoney":12755,"ugged":12756,"Ġobl":12757,"Ġseverity":12758,"Ġtob":12759,"igue":12760,"Ġhearts":12761,"Ġintersection":12762,"Ġtranslated":12763,"Ġperpet":12764,"Ġentrance":12765,"Ġdetermination":12766,"Ġ1988":12767,"UID":12768,"Ġdeliber":12769,"Ġbatch":12770,"ouri":12771,"Ġworker":12772,"chnology":12773,"Ġhomework":12774,"Ġsufficiently":12775,"æĪĲ":12776,"cost":12777,"Ġabsorption":12778,"World":12779,"iodiversity":12780,"little":12781,"Ġpainted":12782,"Ġcotton":12783,"Ġ({":12784,"æį®":12785,"Ġoptimization":12786,"ĠTurk":12787,"Ġ59":12788,"ĠDigital":12789,"KS":12790,"Ġspacecraft":12791,"creat":12792,"ĠTown":12793,"Ġgovernor":12794,"DC":12795,"ĠAA":12796,"Big":12797,"NET":12798,"Ġcul":12799,"Ġstake":12800,"ARS":12801,"short":12802,"âĢ¦âĢ¦âĢ¦âĢ¦":12803,"neum":12804,"Ġelections":12805,"Results":12806,"Ġremembered":12807,"essment":12808,"FAULT":12809,"ti":12810,"orus":12811,"Ġrepository":12812,"lessly":12813,"Ġcarb":12814,"åĢ":12815,"Ġnobody":12816,"Ġrelate":12817,"Ġsleeping":12818,"Ġconsciousness":12819,"mad":12820,"Ġtied":12821,"Ġdistricts":12822,"Ġwinds":12823,"oped":12824,"details":12825,"Ġmol":12826,"Ġrestrictions":12827,"Ġbears":12828,"Ġtermin":12829,"Ġdoses":12830,"Ġsculpt":12831,"Ġultimate":12832,"Î»":12833,"Fore":12834,"mind":12835,"Ġexpense":12836,"Spec":12837,"Ġinvari":12838,"Ġrgb":12839,"Ġamplitude":12840,"Ġexplan":12841,"Ġeru":12842,"Ġmetabolic":12843,"Non":12844,"Ġrum":12845,"ĠChief":12846,".:":12847,"ĠME":12848,"ĠHit":12849,"Ġdemocracy":12850,"Ġprinting":12851,"Ġpleasant":12852,"Ġsau":12853,"Ġintegrity":12854,"Ġmetabolism":12855,"ĠIM":12856,"ĠWould":12857,"Ġspite":12858,"Ġfi":12859,"stock":12860,"ĠBow":12861,"Ġpolymer":12862,"Ġ1920":12863,"Modal":12864,"Ġforgotten":12865,"Ġgif":12866,"Ġrecon":12867,"ĠBru":12868,"Ġessay":12869,"Ġdictionary":12870,"Ġproductivity":12871,"Ġdiagonal":12872,"Ġsupplied":12873,"ĠRam":12874,"Ġinfluences":12875,"Ġmicrosc":12876,"Ġonset":12877,"plates":12878,"ĠException":12879,"ĠÏĦ":12880,"entials":12881,"Ġnic":12882,"ĠDiff":12883,"ITH":12884,"Services":12885,"ogenesis":12886,"Three":12887,"Ġ360":12888,"Ġpersonnel":12889,"Ġantibodies":12890,"Ġtraditions":12891,"ein":12892,"zheimer":12893,"atre":12894,"Ġjack":12895,"Ġminority":12896,"å®ļ":12897,"Mapping":12898,"ìł":12899,"Ġdecreasing":12900,"Ġfarming":12901,"Both":12902,"Ġsessions":12903,"Ġlob":12904,"Ġresearcher":12905,"Ġlos":12906,"Ġpointing":12907,"ĠRemember":12908,"Ġpour":12909,"Ġtack":12910,"ĠAngeles":12911,"Serv":12912,"Ġfeas":12913,"Ġpreview":12914,"human":12915,"olph":12916,"scribe":12917,"Ġgran":12918,"Ġduties":12919,"ĠWin":12920,"Ġpride":12921,"untu":12922,"Ġneighbour":12923,"âĢĶâĢĶ":12924,"Ġnecessity":12925,"Ġbases":12926,"ĠRog":12927,"Ġcoach":12928,"Ġintermediate":12929,"Ġcataly":12930,"Ax":12931,"OG":12932,"Di":12933,"Database":12934,"Ġhex":12935,"Ġservers":12936,"fields":12937,"ĠHop":12938,"Ġpatch":12939,"Ġfaculty":12940,"ĠMississippi":12941,"Ġruled":12942,"Ġexpectations":12943,"Ġsubsid":12944,"Ġhash":12945,"rivial":12946,"Ġkilometers":12947,"erry":12948,"Ġdispos":12949,"Ġlocked":12950,"thritis":12951,"Ġobj":12952,"2003":12953,"Ġpulse":12954,"ĠConstant":12955,"SM":12956,"}\")":12957,"Ġlaughed":12958,"ĠAlaska":12959,"Ġharmful":12960,"Ġ03":12961,"Ġcrash":12962,"Ġscenes":12963,"Ġobsc":12964,"Footnote":12965,"Ġod":12966,"Ġgrasp":12967,"Ġinfluenza":12968,"ptr":12969,"Ġcrossed":12970,"ĠEs":12971,"Ġchicken":12972,"å¹":12973,"Ġ~/":12974,"ĠMother":12975,"character":12976,"ĠBerlin":12977,"sample":12978,"cout":12979,"Ġextraction":12980,"ĠâĢ²":12981,"ĠSoftware":12982,"Ġminimize":12983,"Consider":12984,"Ġcollections":12985,"Ġprotective":12986,"ynt":12987,"Ġps":12988,"ĠRating":12989,"Ġimpression":12990,"hythm":12991,"connected":12992,"cloud":12993,"Ġvarieties":12994,"ptic":12995,"ĠUr":12996,"icture":12997,"Ġstupid":12998,"Ġexecute":12999,"Admin":13000,"ĠSM":13001,",[":13002,"Ġ[[":13003,"Ġandroidx":13004,"å¯¹":13005,"distance":13006,"Ġfacilitate":13007,"Ġattractive":13008,"Ġtrading":13009,"ĠRab":13010,"Profile":13011,"Ġanger":13012,"articles":13013,"Ġtangent":13014,"Ġlocally":13015,"\"));":13016,"ĠQuant":13017,"Ġliberty":13018,"ĠJr":13019,"Ġcolony":13020,"Ġamongst":13021,"Ġbuttons":13022,"!!!!":13023,"conscious":13024,"Ġmelan":13025,"eah":13026,"Ġinsights":13027,"æĮ":13028,"Ġslide":13029,"Ġassociate":13030,"è¦":13031,"ARE":13032,"Ġspeeds":13033,"iosity":13034,"Ġabundant":13035,"Ġ```":13036,"Ġrejected":13037,"Ġcollision":13038,"ç±":13039,"ĠSa":13040,"ths":13041,"ĠGreece":13042,"ĠPay":13043,"Ġautomatic":13044,"Ġempire":13045,"Block":13046,"otypes":13047,"PWH":13048,"Similar":13049,"ĠDue":13050,"rass":13051,"upiter":13052,"Ġurine":13053,"Ġautism":13054,"gradient":13055,"Har":13056,"Submit":13057,"cam":13058,"Ġinherent":13059,"pered":13060,"exper":13061,"Ġkinetic":13062,"Ġmystery":13063,"TI":13064,"Ġfocusing":13065,"Ġconsumed":13066,"achel":13067,"Ġphases":13068,"psy":13069,"Ġmarker":13070,"2001":13071,"Ġburst":13072,"Save":13073,"counter":13074,"Ġsavings":13075,"Ġcave":13076,"Ġexcluded":13077,"ĠHarr":13078,"bootstrap":13079,"Ġabandoned":13080,"'))":13081,"Ġplugin":13082,"aware":13083,"Ġpersonally":13084,"Ġregulatory":13085,"held":13086,"upon":13087,"Ġdarkness":13088,"(@":13089,"Ġenzyme":13090,"Ġspray":13091,"110":13092,"positive":13093,"Ġfolders":13094,"Tree":13095,"ĠBol":13096,"2020":13097,"ĠFunctions":13098,"ĠAff":13099,"omega":13100,"2014":13101,"Session":13102,"Ġpeer":13103,"6666":13104,"ĠFri":13105,"Ġdefines":13106,"Ġencoding":13107,"Ġgentleman":13108,"Ġphilosoph":13109,"Ġtobacco":13110,"\\,":13111,"ez":13112,"secutive":13113,"Ġretire":13114,"Ġsubmitted":13115,"ĠArm":13116,"Ġrestored":13117,"ĠHarvard":13118,"Ġsatisfaction":13119,"idx":13120,"tery":13121,"Ġfloating":13122,"itzer":13123,"agle":13124,"Ġ97":13125,"Ġcarrier":13126,"Ġindicator":13127,"Ġintu":13128,"Ġsmiled":13129,"rior":13130,"Active":13131,"ĠDemocratic":13132,"Ġembedded":13133,"Ġelabor":13134,"Ġbreed":13135,"follow":13136,"clusively":13137,"ysics":13138,"Ġminus":13139,"Ġelevation":13140,"ĠQuick":13141,"Ġwelfare":13142,"ĠĠĠĠĠĠĠĠĠĠĠĠĠĠĠĠĠĠĠĠĠĠ":13143,"Ġpresum":13144,"Ġspeaker":13145,"arding":13146,"blank":13147,"Ġadjusted":13148,"Ġliv":13149,"ĠScript":13150,"Ġdefeat":13151,"dc":13152,"ĠHeart":13153,"Ġselecting":13154,"Ġprosper":13155,"Ġdign":13156,"Ġmeaningful":13157,"ĠHawai":13158,"Ġconvention":13159,"uals":13160,"Ġscenarios":13161,"oline":13162,"Ġinflation":13163,"ucky":13164,"'];":13165,"izers":13166,"Ġdoi":13167,"Ġshout":13168,"agent":13169,"ressing":13170,"Ġdifferentiation":13171,"fly":13172,"ecut":13173,"esty":13174,"phase":13175,"Ġassistant":13176,"untime":13177,"Ġpermit":13178,"help":13179,"Ġpunishment":13180,"Cart":13181,"iy":13182,"Ġprofiles":13183,"ĠEu":13184,"ships":13185,"Ġcourage":13186,"}_":13187,"inced":13188,"ĠPope":13189,"Ġcous":13190,"instance":13191,"aft":13192,"orious":13193,"Ġengineer":13194,"Ġbelongs":13195,"Ġphy":13196,"ĠAltern":13197,"Ġpromoting":13198,"Ġmutation":13199,"Ġadopt":13200,"ĠĠĠĠĠĠĠĠĠĠĠĠĠĠĠĠĠĠĠĠĠĠĠĠ":13201,"Reader":13202,"Ġirre":13203,"Ġtracking":13204,"layer":13205,"Ġconservative":13206,"ĠSanta":13207,"Ġpuzzle":13208,"Ġwed":13209,"amount":13210,"Ãº":13211,"itational":13212,"ĠArctic":13213,"Ġanx":13214,"Ġenzym":13215,"Ġpsychology":13216,"ivate":13217,"Ġexciting":13218,"Ġmeetings":13219,"Ġaltogether":13220,"Ġsorts":13221,"ĠLoad":13222,"Ġaccomplished":13223,"Ġbrilliant":13224,"ĠCook":13225,"Ġfee":13226,"Ġvariability":13227,"havior":13228,";\"":13229,"Ġattacked":13230,"ĠInstall":13231,"Ġspeakers":13232,"IGHT":13233,"ĠCourse":13234,"Ġcorrelated":13235,"National":13236,"Ġcache":13237,"ĠSav":13238,"Target":13239,"pic":13240,"azy":13241,"Ġtransformed":13242,"Year":13243,"plies":13244,"ocolate":13245,"Ġhormone":13246,"osity":13247,"outheast":13248,"Ġdenote":13249,"Ġcatalog":13250,"ĠBoot":13251,"Ġblame":13252,"![":13253,"inton":13254,"Ġclosest":13255,"irk":13256,"ocker":13257,"camp":13258,"ĠHad":13259,"Conf":13260,"Ġshoes":13261,"Ġaggressive":13262,"ĠRT":13263,"Ġrays":13264,"unicipal":13265,"2004":13266,"Ġlifestyle":13267,"hor":13268,"wt":13269,"ĠDun":13270,"Ġpainful":13271,"ĠButton":13272,"countered":13273,"Ġmanufacturers":13274,"ova":13275,"Ġnarrative":13276,"Ġcha":13277,"Ġfreely":13278,"Ð°Ð»":13279,"library":13280,"Ġhath":13281,"Ġmanagers":13282,"Ã§Ã£o":13283,"oning":13284,"Selected":13285,"Ġweren":13286,"Ġdisplacement":13287,"ĠArticle":13288,"ĠMexican":13289,"wtemp":13290,"Ġlift":13291,"Ġlighting":13292,"cient":13293,"bran":13294,"ĠTy":13295,"ĠAssembly":13296,"Ġstrictly":13297,"Ġoh":13298,"Ġpanels":13299,"lower":13300,"Ġparse":13301,"Ġhack":13302,"itar":13303,"ĠSimple":13304,"Ġdesper":13305,"cursor":13306,"vh":13307,"ĠCentre":13308,"rod":13309,"ĠIncre":13310,"168":13311,"``````":13312,"shire":13313,"iley":13314,"(:":13315,"Ġgrams":13316,"Ġthreats":13317,"ĠMP":13318,"produ":13319,"News":13320,"ĠRus":13321,"teenth":13322,"equal":13323,"ĠNut":13324,"Ġsentences":13325,"ç§":13326,"aux":13327,"Ġpept":13328,"Ġbreakfast":13329,"Ġemotions":13330,"Ġgear":13331,"ĠSher":13332,"ĠFord":13333,"anna":13334,"theme":13335,"ĠLeopard":13336,"Ïĥ":13337,"Ġaging":13338,"Ġsynthetic":13339,"Ġholiday":13340,"ĠOrth":13341,"Ġpromised":13342,"Ð½Ñĭ":13343,"Ġillustrate":13344,"Ġlogarith":13345,"uine":13346,"Attribute":13347,"ĠRod":13348,"Ġimagination":13349,"Ġcompatible":13350,"Ġaccordance":13351,"Ġmock":13352,"ĠCI":13353,"Ġphones":13354,"Ġcelebrated":13355,"ĠLewis":13356,"Rest":13357,"Ġinjection":13358,"rifice":13359,"cies":13360,"western":13361,"Process":13362,"Ġsensors":13363,"Ġpaste":13364,"Ġpatent":13365,"ĠMulti":13366,"mg":13367,"Ġerect":13368,"Ġspark":13369,"rowser":13370,"Ġende":13371,"íķĺ":13372,"}}$$":13373,"ÐµÐ¼":13374,"ĠNevertheless":13375,"stic":13376,"Ġlogging":13377,"Models":13378,"chi":13379,"Ġdemanded":13380,"bus":13381,"ci":13382,"ĠConvention":13383,"Ġrestaurant":13384,"ella":13385,"bage":13386,"leq":13387,"IES":13388,"owing":13389,"odge":13390,"Ġsubstitute":13391,"\"?":13392,"BB":13393,"Ġtries":13394,"Ġignored":13395,"Ġtransmitted":13396,"ĠTeam":13397,":||":13398,"imeters":13399,"Ġassault":13400,"Ġ77":13401,"Ġcure":13402,"igm":13403,"news":13404,"quarters":13405,"Ġvon":13406,"Ġcreature":13407,"Ġprotecting":13408,"Ġpackages":13409,"Ġlabeled":13410,"\"'":13411,"Ġmechanics":13412,"ĠDesc":13413,"Ġcleaning":13414,"Intern":13415,"Ïī":13416,"Ġlig":13417,"Ġmanaging":13418,"inator":13419,"erion":13420,"ĠVietnam":13421,"Ġincent":13422,"Ġcitizen":13423,"ĠHE":13424,"ochond":13425,"ĠMethods":13426,"Ġconvey":13427,"ultural":13428,"ouses":13429,"oves":13430,"Ġrelating":13431,"burgh":13432,"ç±»":13433,"Ġ67":13434,"Ġpredomin":13435,"delta":13436,"ela":13437,"Ġrecovered":13438,"Ġhotel":13439,"ĠProbability":13440,"uer":13441,"Ġ05":13442,"reatment":13443,"Ġfrozen":13444,"Ġfright":13445,"ĠIss":13446,"rizona":13447,"ĠmL":13448,"Ġdigest":13449,"Ġachievement":13450,"OUR":13451,"Ġpx":13452,"Ġhadn":13453,"ĠCorpor":13454,"Access":13455,"Ġ98":13456,"Ġindicators":13457,"watch":13458,"Ġspots":13459,"Ġbitter":13460,"Ġinterpre":13461,"NOT":13462,"ë¡":13463,"ĠâĢĻ":13464,"%),":13465,"Ġdivisors":13466,"ethyl":13467,"Ġmetals":13468,"Ġtraveling":13469,"ĠSettings":13470,"Ġmacro":13471,"jan":13472,"omal":13473,"acer":13474,"Generic":13475,"lis":13476,"Ġdy":13477,"ĠFuture":13478,"ĠUV":13479,"Ġbehavioral":13480,"ĠStephen":13481,"Mean":13482,"Ġdecom":13483,"ĠGP":13484,"Ġearned":13485,"Ġstops":13486,"ĠBureau":13487,"Ġdesignated":13488,";\\":13489,"Ġearthquake":13490,"Mus":13491,"ordinate":13492,"loat":13493,"Ġ78":13494,"Ġmanufacturer":13495,"both":13496,"fd":13497,"esian":13498,"Ã¦":13499,"ĠCF":13500,"Ġsovere":13501,"Ġsignature":13502,"Ġwooden":13503,"Ġprisoners":13504,"lang":13505,"ĠJane":13506,"Ġassay":13507,"ĠRen":13508,"Ġinduction":13509,"Ġbore":13510,"ĠEPA":13511,"ĠVersion":13512,"ourier":13513,"ĠBall":13514,"errors":13515,"Ġfunny":13516,"illance":13517,"ĠStory":13518,"airy":13519,"ridges":13520,"Ġdefects":13521,"Ġ----------------":13522,"ĠNA":13523,"âī":13524,"ĠAlzheimer":13525,"Despite":13526,"ĠHaving":13527,"ĠPhoto":13528,"ĠSafety":13529,"mut":13530,"ivari":13531,"Ġabroad":13532,"ordan":13533,"Move":13534,"ÐµÐ½Ð¸":13535,"åĪĨ":13536,"SION":13537,"Ġpushing":13538,"social":13539,"ĠÎĶ":13540,"Ġwoods":13541,"Ġdismiss":13542,"years":13543,"Ġextraordinary":13544,"Ġefficacy":13545,"Ġflesh":13546,"Ġknee":13547,"Ġdownloaded":13548,"Ġhoping":13549,"Ġtolerance":13550,"ĠCre":13551,"Ġcurrency":13552,"Ġauton":13553,"ĠBelg":13554,"piece":13555,"ĠNic":13556,"Ġcapability":13557,"AMP":13558,"Ġinterpreted":13559,"Ġwebsites":13560,"Ġactivated":13561,"igious":13562,"ĉĉĉĉĉĉĉ":13563,"ĠPlant":13564,"DTO":13565,"ju":13566,"ĠSU":13567,"Ġlungs":13568,"Ġsheets":13569,"Ġtact":13570,"Ġencountered":13571,"å·":13572,"Ġunw":13573,"Ġpreparing":13574,"Ġinflammatory":13575,"Ġcrystal":13576,"Ġinvention":13577,"Ġimpair":13578,"ĠArmen":13579,"Related":13580,"Based":13581,"Ġretrie":13582,"wd":13583,"]['":13584,"Ġantibody":13585,"IVE":13586,"Ġcardiac":13587,"NC":13588,"route":13589,"Ġtraits":13590,"ARCH":13591,"ãĤĴ":13592,"Ġ1940":13593,"Ġreflects":13594,"ĠProtection":13595,"Ġcarries":13596,"Ġshooting":13597,"Ġapplicable":13598,"results":13599,"Ġfires":13600,"Ġcolored":13601,"ĠPhilipp":13602,"Ġsorted":13603,"Pres":13604,"Sec":13605,"Ġaster":13606,"quality":13607,"Ġdenied":13608,"Ġdiscipline":13609,"gb":13610,"Ġcomplement":13611,"loading":13612,"Ġreproductive":13613,"food":13614,"irs":13615,"Ġwash":13616,"oler":13617,"ĠPresent":13618,"ĠFront":13619,"Ġshaped":13620,"Ġsubstit":13621,"Ġ1986":13622,"Ġembra":13623,"ĠPear":13624,"ĠDB":13625,"Ġinduce":13626,"zes":13627,"Ġvibr":13628,"written":13629,"orient":13630,"uli":13631,"comput":13632,"ĠTABLE":13633,"Ġendl":13634,"Ġmature":13635,"Ġcolonial":13636,"Ġsuspected":13637,"Engine":13638,"ĠUnivers":13639,"ĠGovernor":13640,"Ġstretch":13641,"ĠBesides":13642,"Ġrit":13643,"stat":13644,"elle":13645,"Ġreceives":13646,"Ġfusion":13647,"sets":13648,")\"":13649,"Dom":13650,"ÑĪ":13651,"Ġmeals":13652,"Ġcheer":13653,"Ġqualities":13654,"Ġneighbors":13655,"ighed":13656,".\",":13657,"ĠMAT":13658,"Ġatmospheric":13659,"Ġwars":13660,"Ġprox":13661,"ĠStandards":13662,"Ġmultiplied":13663,"Ġ61":13664,"Ġpriest":13665,"Ġecological":13666,"Ïģ":13667,"Ġglac":13668,"Ġfortune":13669,"Ġstere":13670,"stra":13671,"Ġassem":13672,"Ġquote":13673,"ĠChrome":13674,"Ġelig":13675,"Ġdepict":13676,"Ġbatteries":13677,"Ġalgebraic":13678,"Ġrolling":13679,"Ġediting":13680,"DIR":13681,"ĠBlu":13682,"Ġworried":13683,"Ġprey":13684,"Ùħ":13685,"Ġhits":13686,"ĠOtt":13687,"Ġgauge":13688,"Ġclosing":13689,"Ġgraduate":13690,"Ġderivatives":13691,"ï¿½ï¿½":13692,"scss":13693,"interface":13694,"Ġpink":13695,"iph":13696,"Ins":13697,"Ġcompanion":13698,"Micro":13699,"Ġinsu":13700,"Ġconvinced":13701,"igo":13702,"anean":13703,"ONE":13704,"ĠReference":13705,"negative":13706,"inv":13707,"Ġhealing":13708,"Ġsuggestion":13709,"æĸ¹":13710,"ieval":13711,"Ġpython":13712,"Ġbeach":13713,"these":13714,"Ġslower":13715,"ĠApollo":13716,"Ġdisappear":13717,">{":13718,"ĠAIDS":13719,"ĠSequ":13720,"Ġworthy":13721,"Grid":13722,"Ġworn":13723,"quire":13724,"Ġsomebody":13725,"Ġalternatives":13726,"Equal":13727,"sent":13728,"Ġjuris":13729,"thal":13730,"Ġdeer":13731,"Ġactively":13732,"rightarrow":13733,"Ġpleased":13734,"owers":13735,"ĠOpt":13736,"ĠÐ¿ÑĢ":13737,".âĢĻ":13738,"ea":13739,"ĠOp":13740,"Ġtranscript":13741,"products":13742,"Ġvegetation":13743,"Ġgang":13744,"LD":13745,"Ġshield":13746,"Ġweekly":13747,"ĠOSX":13748,"Ġ1987":13749,"Ġrings":13750,"Ġelderly":13751,"AI":13752,"SU":13753,"ĠHal":13754,"Ġfunded":13755,"Ġgrab":13756,"Ġswitching":13757,"ĠBang":13758,"Bet":13759,"zo":13760,"Ġtet":13761,"Ġheaders":13762,"mega":13763,"Ġdomains":13764,"Ġadaptation":13765,"Ġdisappeared":13766,"Ġintelligent":13767,"ĠLeon":13768,"ãĤĭ":13769,"Ġfolk":13770,"Mrs":13771,"esh":13772,"Ġvillages":13773,"ĠCreated":13774,"ĠEmer":13775,"phones":13776,"Ġretail":13777,"raging":13778,"Ġestimation":13779,"repository":13780,"Ġglory":13781,"Ġassociations":13782,"dp":13783,"Ġinvestors":13784,"catch":13785,"ĠFollowing":13786,"Ġmemor":13787,"wrapper":13788,"aron":13789,"imental":13790,"ĠTaylor":13791,"forced":13792,"Ġofficially":13793,"ĠDer":13794,"Ġsoils":13795,"prob":13796,"Ġexplored":13797,"Ġadvances":13798,"rific":13799,"ĠPeace":13800,"Ġanten":13801,"ĠParent":13802,"ëĬĶ":13803,"ĠSH":13804,"Free":13805,"Ġsciences":13806,"borne":13807,"DI":13808,"Ġspectra":13809,"Ġdread":13810,"ĠStation":13811,"Ġspell":13812,"Ġfiction":13813,"ĠSix":13814,"Ġethical":13815,"Ġbay":13816,"Ġdiscrete":13817,"Ġintersect":13818,"olas":13819,"Ġfeather":13820,"ĠJean":13821,"DNA":13822,"Ġ1984":13823,"ĠHttp":13824,"Ġtransaction":13825,"ĠGuard":13826,"çī":13827,"abases":13828,"Ġhouseholds":13829,"global":13830,"ĠClear":13831,"Ġfarms":13832,"Ġanthrop":13833,"ĠLay":13834,"Ġsew":13835,"Ġthrew":13836,"ĠLind":13837,"Ġclay":13838,"odd":13839,"ĠLiber":13840,"Op":13841,"izable":13842,"compose":13843,"Ġpione":13844,"station":13845,"gered":13846,"Ġperipher":13847,"Video":13848,"educ":13849,"Ġtitles":13850,"umph":13851,"Ġpatri":13852,"since":13853,"ĠIde":13854,"Ġvag":13855,"Ġconfront":13856,"ĠCould":13857,"Ġpropose":13858,"ĠWalk":13859,"Ġparams":13860,"Ġreceptors":13861,".),":13862,"rels":13863,"ĠTenn":13864,"Ġtempt":13865,"Î³":13866,"Ġmt":13867,"Ġdefining":13868,"Ġthoroughly":13869,"GC":13870,"Explanation":13871,"Ġfunctioning":13872,"Delta":13873,"aki":13874,"Ġmart":13875,"ĠWales":13876,"ĠWithin":13877,"Ġclicking":13878,"each":13879,"rock":13880,"Ġshame":13881,"Îµ":13882,"ĠÄ":13883,"Ġpap":13884,"Ġconsecutive":13885,"ĠSuppose":13886,"Ġlikes":13887,"ryption":13888,"gging":13889,"cmd":13890,"Ġlunch":13891,"apache":13892,"ĠPrevention":13893,"é¡":13894,"nu":13895,"rup":13896,"ĠKansas":13897,"Ġindigenous":13898,"Ġgrades":13899,"Ġseats":13900,"Ġanybody":13901,"Ġgeneric":13902,"ĠDavis":13903,"ĠNi":13904,"Ġspons":13905,"Ġirregular":13906,"Ġreferring":13907,"Ġcompression":13908,"Ġoccupation":13909,"Ġcriticism":13910,"Ġloyal":13911,"osomes":13912,"Ġmethyl":13913,"Ġsophistic":13914,"ECT":13915,"}[":13916,"Ġfatal":13917,"ĠXX":13918,"Ġviewing":13919,"Background":13920,"Ġcooperation":13921,"Ġsecre":13922,"Ġpowder":13923,"secondary":13924,"Ġ69":13925,"Ġadvis":13926,"ĠCompar":13927,"Ġmedicines":13928,"Ġapt":13929,"ERR":13930,"rypted":13931,"Ġfluctu":13932,"respons":13933,"Ġdemonstrates":13934,"comment":13935,"ĠRos":13936,"Ġrectangular":13937,"ĠBrook":13938,"=[":13939,"Ġ130":13940,"Ġprotest":13941,"Ġ\".":13942,"Ġcant":13943,"ĠGi":13944,"Ġperimeter":13945,"Ġpixel":13946,"fox":13947,"Ġplacing":13948,"rule":13949,"Ġentre":13950,"ĠuseEffect":13951,"Ġinhibition":13952,"Copyright":13953,"hu":13954,"æĶ":13955,"Ġcups":13956,"enny":13957,"Ġretain":13958,"Ġcollective":13959,"Ġtorn":13960,"ĠDescription":13961,"erving":13962,"Ð¹":13963,"Ġgon":13964,"ĠEconomic":13965,"Radius":13966,"Ġpharmac":13967,"Pay":13968,"eto":13969,"ĠÐ¼":13970,"ĠWhether":13971,"rf":13972,"Ġions":13973,"Ġcommod":13974,"ancel":13975,"ĠMaths":13976,"ë¥":13977,"Ġdetermines":13978,"Ġcough":13979,"acion":13980,"arians":13981,"energy":13982,"Desc":13983,"Hello":13984,"aunt":13985,"racks":13986,"ĠSamuel":13987,"Ġcorrection":13988,"Ġphotographs":13989,"Ġconsisted":13990,"Ġframes":13991,"VAL":13992,"cb":13993,"hea":13994,"2002":13995,"Ġownership":13996,"Ġ1985":13997,"ĠBetween":13998,"Ġrenewable":13999,"pb":14000,")=\\":14001,"Ġinitiative":14002,"Ġtelephone":14003,"AK":14004,"ĠMarc":14005,"Ġthemes":14006,"Ġdevast":14007,
[...]
