{"version": "1.0", "truncation": null, "padding": null, "added_tokens": [{"id": 0, "content": "<|padding|>", "single_word": false, "lstrip": false, "rstrip": false, "normalized": false, "special": true}, {"id": 1, "content": "<|endoftext|>", "single_word": false, "lstrip": false, "rstrip": false, "normalized": false, "special": true}, {"id": 2, "content": "<|im_start|>", "single_word": false, "lstrip": false, "rstrip": false, "normalized": false, "special": true}, {"id": 3, "content": "<|im_end|>", "single_word": false, "lstrip": false, "rstrip": false, "normalized": false, "special": true}], "normalizer": {"type": "NFC"}, "pre_tokenizer": {"type": "ByteLevel", "add_prefix_space": false, "trim_offsets": true, "use_regex": true}, "post_processor": null, "decoder": {"type": "ByteLevel", "add_prefix_space": true, "trim_offsets": true, "use_regex": true}, "model": {"type": "BPE", "dropout": null, "unk_token": null, "continuing_subword_prefix": null, "end_of_word_suffix": null, "fuse_unk": false, "byte_fallback": false, "ignore_merges": false, "vocab": {"<|padding|>": 0, "<|endoftext|>": 1, "<|im_start|>": 2, "<|im_end|>": 3, "!": 4, "\"": 5, "#": 6, "$": 7, "%": 8, "&": 9, "'": 10, "(": 11, ")": 12, "*": 13, "+": 14, ",": 15, "-": 16, ".": 17, "/": 18, "0": 19, "1": 20, "2": 21, "3": 22, "4": 23, "5": 24, "6": 25, "7": 26, "8": 27, "9": 28, ":": 29, ";": 30, "<": 31, "=": 32, ">": 33, "?": 34, "@": 35, "A": 36, "B": 37, "C": 38, "D": 39, "E": 40, "F": 41, "G": 42, "H": 43, "I": 44, "J": 45, "K": 46, "L": 47, "M": 48, "N": 49, "O": 50, "P": 51, "Q": 52, "R": 53, "S": 54, "T": 55, "U": 56, "V": 57, "W": 58, "X": 59, "Y": 60, "Z": 61, "[": 62, "\\": 63, "]": 64, "^": 65, "_": 66, "`": 67, "a": 68, "b": 69, "c": 70, "d": 71, "e": 72, "f": 73, "g": 74, "h": 75, "i": 76, "j": 77, "k": 78, "l": 79, "m": 80, "n": 81, "o": 82, "p": 83, "q": 84, "r": 85, "s": 86, "t": 87, "u": 88, "v": 89, "w": 90, "x": 91, "y": 92, "z": 93, "{": 94, "|": 95, "}": 96, "~": 97, "¡": 98, "¢": 99, "£": 100, "¤": 101, "¥": 102, "¦": 103, "§": 104, "¨": 105, "©": 106, "ª": 107, "«": 108, "¬": 109, "®": 110, "¯": 111, "°": 112, "±": 113, "²": 114, "³": 115, "´": 116, "µ": 117, "¶": 118, "·": 119, "¸": 120, "¹": 121, "º": 122, "»": 123, "¼": 124, "½": 125, "¾": 126, "¿": 127, "À": 128, "Á": 129, "Â": 130, "Ã": 131, "Ä": 132, "Å": 133, "Æ": 134, "Ç": 135, "È": 136, "É": 137, "Ê": 138, "Ë": 139, "Ì": 140, "Í": 141, "Î": 142, "Ï": 143, "Ð": 144, "Ñ": 145, "Ò": 146, "Ó": 147, "Ô": 148, "Õ": 149, "Ö": 150, "×": 151, "Ø": 152, "Ù": 153, "Ú": 154, "Û": 155, "Ü": 156, "Ý": 157, "Þ": 158, "ß": 159, "à": 160, "á": 161, "â": 162, "ã": 163, "ä": 164, "å": 165, "æ": 166, "ç": 167, "è": 168, "é": 169, "ê": 170, "ë": 171, "ì": 172, "í": 173, "î": 174, "ï": 175, "ð": 176, "ñ": 177, "ò": 178, "ó": 179, "ô": 180, "õ": 181, "ö": 182, "÷": 183, "ø": 184, "ù": 185, "ú": 186, "û": 187, "ü": 188, "ý": 189, "þ": 190, "ÿ": 191, "Ā": 192, "ā": 193, "Ă": 194, "ă": 195, "Ą": 196, "ą": 197, "Ć": 198, "ć": 199, "Ĉ": 200, "ĉ": 201, "Ċ": 202, "ċ": 203, "Č": 204, "č": 205, "Ď": 206, "ď": 207, "Đ": 208, "đ": 209, "Ē": 210, "ē": 211, "Ĕ": 212, "ĕ": 213, "Ė": 214, "ė": 215, "Ę": 216, "ę": 217, "Ě": 218, "ě": 219, "Ĝ": 220, "ĝ": 221, "Ğ": 222, "ğ": 223, "Ġ": 224, "ġ": 225, "Ģ": 226, "ģ": 227, "Ĥ": 228, "ĥ": 229, "Ħ": 230, "ħ": 231, "Ĩ": 232, "ĩ": 233, "Ī": 234, "ī": 235, "Ĭ": 236, "ĭ": 237, "Į": 238, "į": 239, "İ": 240, "ı": 241, "Ĳ": 242, "ĳ": 243, "Ĵ": 244, "ĵ": 245, "Ķ": 246, "ķ": 247, "ĸ": 248, "Ĺ": 249, "ĺ": 250, "Ļ": 251, "ļ": 252, "Ľ": 253, "ľ": 254, "Ŀ": 255, "ŀ": 256, "Ł": 257, "ł": 258, "Ń": 259, "ĠĠ": 260, "Ġt": 261, "in": 262, "Ġa": 263, "he": 264, "ĠĠĠĠ": 265, "re": 266, "on": 267, "Ġs": 268, "er": 269, "at": 270, "Ġthe": 271, "en": 272, "Ġw": 273, "Ġc": 274, "ing": 275, "Ġo": 276, "nd": 277, "es": 278, "it": 279, "ed": 280, "or": 281, "is": 282, "ou": 283, "Ġb": 284, "Ġf": 285, "al": 286, "Ġp": 287, "Ġm": 288, "an": 289, "ar": 290, "Ġand": 291, "Ġto": 292, "ĠĠĠĠĠĠĠĠ": 293, "Ġin": 294, "Ġd": 295, "ion": 296, "le": 297, "Ġh": 298, "Ġof": 299, "as": 300, "ic": 301, "ro": 302, "--": 303, "ent": 304, "Ġth": 305, "el": 306, "Ġl": 307, "st": 308, "ct": 309, "om": 310, "Ġe": 311, "Ġhe": 312, "Ġre": 313, "et": 314, "Ġn": 315, "il": 316, "ĠI": 317, "Ġg": 318, "id": 319, "ut": 320, "im": 321, "ly": 322, "ot": 323, "ĠĠĠ": 324, "ac": 325, "ig": 326, "ve": 327, "ĠS": 328, "âĢ": 329, "ow": 330, "ĠT": 331, "ad": 332, "Ġy": 333, "ur": 334, "ation": 335, "am": 336, "Ġ|": 337, "us": 338, "ol": 339, "Ġst": 340, "Ġbe": 341, "Ġon": 342, "ĠA": 343, "ver": 344, "Ġfor": 345, "Ġyou": 346, "ul": 347, "ir": 348, "ĠC": 349, "----": 350, "Ġas": 351, "ay": 352, "ith": 353, "ĠĠĠĠĠĠĠĠĠĠĠĠĠĠĠĠ": 354, "ce": 355, "Ġher": 356, "ch": 357, "Ġis": 358, "if": 359, "se": 360, "Ġthat": 361, "Ġwith": 362, "un": 363, "Ġcon": 364, "od": 365, "Ġit": 366, "ag": 367, "Ġ(": 368, "ĠM": 369, "ter": 370, "ra": 371, "Ġwas": 372, "pp": 373, "em": 374, "Ġ1": 375, "ab": 376, "ht": 377, "ate": 378, "Ġal": 379, "ri": 380, "Ġpro": 381, "ĠP": 382, "Ġan": 383, "Ġwh": 384, "ess": 385, "qu": 386, "ers": 387, "um": 388, "ke": 389, "ĠH": 390, "Ġex": 391, "ĠB": 392, "her": 393, "res": 394, "and": 395, "Ġv": 396, "oc": 397, "Ġse": 398, "ld": 399, "th": 400, "ist": 401, "ore": 402, "pe": 403, "ĠD": 404, "Ġwe": 405, "ain": 406, "Ġor": 407, "Ġcom": 408, "ant": 409, "est": 410, "ity": 411, "Ġ2": 412, "os": 413, "Ġat": 414, "ill": 415, "ĠThe": 416, "iv": 417, "ment": 418, "ight": 419, "Ġ\"": 420, "Ġu": 421, "ort": 422, "ĠR": 423, "ĠĠĠĠĠĠĠ": 424, "Ġr": 425, "ĠW": 426, "Ġde": 427, "ies": 428, "ĠF": 429, "Ġsu": 430, "Ġhis": 431, "Ġsh": 432, "Ġmy": 433, "'s": 434, "ĠE": 435, "..": 436, "Ġle": 437, "Ġme": 438, "Ġshe": 439, "pt": 440, "ĠL": 441, "ction": 442, "rom": 443, "ive": 444, "art": 445, "Ġen": 446, "Ġne": 447, "00": 448, "Ġare": 449, "ust": 450, "ĠN": 451, "Ġ=": 452, "**": 453, "__": 454, "Ġha": 455, "ure": 456, "pl": 457, "ould": 458, "Ġint": 459, "rou": 460, "nt": 461, "ack": 462, "--------": 463, "op": 464, "all": 465, "ard": 466, "ial": 467, "Ġthis": 468, "Ġnot": 469, "red": 470, "Ġby": 471, "iz": 472, "ud": 473, "Ġfrom": 474, "Ġk": 475, "Ġch": 476, "Ġcl": 477, "end": 478, "ĠG": 479, "king": 480, "ip": 481, "Ġus": 482, "Ġ*": 483, "ass": 484, "ĠO": 485, "our": 486, "per": 487, "Ġ{": 488, "ame": 489, "oo": 490, "out": 491, "ine": 492, "ide": 493, "Ġj": 494, "age": 495, "ect": 496, "Ġyour": 497, "ge": 498, "ie": 499, "ff": 500, "ast": 501, ");": 502, "Ġcan": 503, "ue": 504, "ally": 505, "âĢĻ": 506, "ell": 507, "ome": 508, "able": 509, "ind": 510, "ĠJ": 511, "Ġab": 512, "Ġup": 513, "ong": 514, "ex": 515, "og": 516, "ĉĉ": 517, "Ġhave": 518, "Ġall": 519, "ult": 520, "Ġ0": 521, "//": 522, "ub": 523, "Ġout": 524, "Ġwhe": 525, "Ġdo": 526, "ther": 527, "ations": 528, "cl": 529, "gh": 530, "orm": 531, "ance": 532, "Ġ\\": 533, "Ġtr": 534, "uc": 535, "Ġso": 536, "Ġbut": 537, "ep": 538, "Ġcont": 539, "ous": 540, "Ġpl": 541, "Ġad": 542, "Âł": 543, "Ġun": 544, "ile": 545, "ked": 546, "ost": 547, "Ġ-": 548, "ated": 549, "are": 550, "Ġhad": 551, "Ġim": 552, "ions": 553, "ap": 554, "Ġres": 555, "Ġcomp": 556, "ans": 557, "Ġwor": 558, "ib": 559, "ime": 560, "ace": 561, "ice": 562, "Ġgo": 563, "act": 564, "ign": 565, "cc": 566, "ress": 567, "Ġfe": 568, "ne": 569, "one": 570, "Ġtheir": 571, "ĠâĢ": 572, "own": 573, "Ġli": 574, "==": 575, "ĠU": 576, "Ġinto": 577, "ase": 578, "ach": 579, "Ġ'": 580, "av": 581, "Ġapp": 582, "ical": 583, "Ġhim": 584, "urn": 585, "ake": 586, "ĠĠĠĠĠĠĠĠĠĠĠ": 587, "'t": 588, "Ġif": 589, "int": 590, "ks": 591, "Ġ$": 592, "ĠTh": 593, "ual": 594, "ich": 595, "</": 596, "ely": 597, "Ġthey": 598, "Ġwill": 599, "Ġag": 600, "form": 601, "ary": 602, "con": 603, "Ġ&": 604, "\\_": 605, "ens": 606, "ere": 607, "01": 608, "elf": 609, "ath": 610, "hed": 611, "Ġ3": 612, "ating": 613, "Ġover": 614, "ition": 615, "ire": 616, "ĠIn": 617, "ĠĠĠĠĠ": 618, "The": 619, "Ġdis": 620, "Ġ}": 621, "ents": 622, "ĠSt": 623, "ry": 624, "),": 625, "ence": 626, "ber": 627, "Ġman": 628, "Ġsp": 629, "Ġmore": 630, "Ġone": 631, "____": 632, "ear": 633, "Ġsa": 634, "ft": 635, "ĠK": 636, "very": 637, "Ġro": 638, "Ġqu": 639, "=\"": 640, ").": 641, "Ġev": 642, "Ġlike": 643, "ite": 644, "Ġoff": 645, "ĠHe": 646, "Ġback": 647, "Ġother": 648, "ak": 649, "ang": 650, "Ġper": 651, "Ġar": 652, "ĠShe": 653, "ail": 654, "ov": 655, "Ġwere": 656, "ru": 657, "ick": 658, "nder": 659, "ll": 660, "we": 661, "erv": 662, "Ġabout": 663, "low": 664, "ia": 665, "ord": 666, "Ġtime": 667, "ove": 668, "âĢĿ": 669, "Ġthem": 670, "Ġpart": 671, "vel": 672, "ock": 673, "port": 674, "ĠY": 675, "ĠV": 676, "Ġ<": 677, "ose": 678, "Ġget": 679, "com": 680, ".\"": 681, "ound": 682, "iss": 683, "ef": 684, "Ġsc": 685, "lic": 686, "round": 687, "Ġwhen": 688, "Ġany": 689, "Ġhand": 690, "Ġwhich": 691, "Ġass": 692, "::": 693, "Ġcould": 694, "ild": 695, "----------------": 696, "ors": 697, "itt": 698, "Ġwould": 699, "',": 700, "ount": 701, "ces": 702, "âĢĦ": 703, "Ġhas": 704, "Ġem": 705, "ple": 706, "so": 707, "oy": 708, "{\\": 709, "Ġkn": 710, "Ġpre": 711, "Ġsome": 712, "Ġthere": 713, "Ġloo": 714, "Ġjust": 715, "ĠIt": 716, "Ġte": 717, "get": 718, "Ġwhat": 719, "ph": 720, "Ġdown": 721, "Ġbet": 722, "ory": 723, "ings": 724, "ont": 725, "Ġind": 726, "ater": 727, "ull": 728, "ext": 729, "Ġunder": 730, "Ġdes": 731, "old": 732, "ob": 733, "ific": 734, "ize": 735, "pect": 736, "Ġsm": 737, "rough": 738, "ata": 739, "Ġ4": 740, "Ġwho": 741, "du": 742, "ious": 743, "row": 744, "ree": 745, "Ġbl": 746, "Ġhow": 747, "Ġrel": 748, "ish": 749, "ty": 750, "ject": 751, "Ġcons": 752, "les": 753, "self": 754, "Ġagain": 755, "ities": 756, "eg": 757, "oth": 758, "igh": 759, "ric": 760, "ond": 761, "Ġsl": 762, "##": 763, "ays": 764, "irst": 765, "te": 766, "Ġam": 767, "Ġcomm": 768, "ĠCh": 769, "In": 770, "ys": 771, "ert": 772, "Ġthen": 773, "Ġsex": 774, "Ġacc": 775, "eth": 776, "Ġour": 777, "Ġtw": 778, "ss": 779, "Ġwant": 780, "Ġthan": 781, "Ġclass": 782, "pec": 783, "ark": 784, "ates": 785, "Ġ19": 786, "Ġ5": 787, "Ġbeen": 788, "cre": 789, "rib": 790, "Ġ[": 791, "ring": 792, "Ġnew": 793, "vers": 794, "ps": 795, "fter": 796, "turn": 797, "ments": 798, "clud": 799, "Ġalso": 800, "Ġno": 801, "Ġthrough": 802, "\">": 803, "aus": 804, "ood": 805, "ful": 806, "iff": 807, "ility": 808, "ĠThis": 809, "Ġdid": 810, "cess": 811, "fore": 812, "ning": 813, "ms": 814, "....": 815, "Ġinter": 816, "()": 817, "Ġthese": 818, "\",": 819, "Ġprov": 820, "ract": 821, "lect": 822, "ĠĠĠĠĠĠĠĠĠĠĠĠĠĠĠ": 823, "ode": 824, "Ġsaid": 825, "Ġcol": 826, "ink": 827, "ons": 828, "sp": 829, "ward": 830, "ody": 831, "Ġknow": 832, "ug": 833, "Ġits": 834, "ade": 835, "Ġfl": 836, "Ġneed": 837, "ng": 838, "ian": 839, "St": 840, "Ġpos": 841, "Ġsee": 842, "Ġob": 843, "âĢħ": 844, "ting": 845, "hen": 846, "uring": 847, "ool": 848, "Ġmay": 849, "ax": 850, "ec": 851, "iew": 852, "====": 853, "ween": 854, "ough": 855, "ied": 856, "ips": 857, "Ġreg": 858, "Ġonly": 859, "pro": 860, "anc": 861, "Ġact": 862, "}}": 863, "Ġatt": 864, "its": 865, "Ġlet": 866, "reat": 867, "aking": 868, "ures": 869, "Ġbetween": 870, "Ġbec": 871, "Ġrem": 872, "ise": 873, "yst": 874, "oint": 875, "led": 876, "Ġval": 877, "Ġinv": 878, "Ġwhile": 879, "ER": 880, "Ġfeel": 881, "ption": 882, "Ġtoo": 883, "ient": 884, "hes": 885, "Ġsuch": 886, "Ġadd": 887, "Ġtwo": 888, "Ġfirst": 889, "ement": 890, "enc": 891, "Ġ201": 892, "Ġgu": 893, "02": 894, "Ġbefore": 895, "ular": 896, "over": 897, "Ġset": 898, "Ġsub": 899, "ative": 900, "ices": 901, "ower": 902, "Ġeff": 903, "Ġbre": 904, "uss": 905, "Ġpe": 906, "Ġdiff": 907, "olog": 908, "Ġinst": 909, "Ġmod": 910, "Ġ.": 911, "to": 912, "Ġwhere": 913, "ĠâĢľ": 914, "sc": 915, "wn": 916, "Ġaround": 917, "Ġac": 918, "Ġke": 919, "Ġrec": 920, "Ġ6": 921, "hat": 922, "Ġph": 923, "irl": 924, "ased": 925, "ctions": 926, "Ġrequ": 927, "ystem": 928, "Ġeven": 929, "ener": 930, "Ġlong": 931, "Ġexper": 932, "Ġeach": 933, "Ġvar": 934, "other": 935, "Ġins": 936, "gan": 937, "ics": 938, "Ġstud": 939, "Ġtrans": 940, "ĠĠĠĠĠĠ": 941, "Ġinclud": 942, "ale": 943, "Ġent": 944, "elt": 945, "ublic": 946, "Ġstr": 947, ",\"": 948, "Ġmake": 949, "ave": 950, "Ġway": 951, "ee": 952, "Ġ+": 953, "Ġshould": 954, "Ġstart": 955, "ible": 956, "Ġevery": 957, "sh": 958, "Ġwom": 959, "uck": 960, "****": 961, "pen": 962, "pport": 963, "________": 964, "Ġhead": 965, "ange": 966, "IN": 967, "ause": 968, "Ġfin": 969, "Ġnow": 970, "ĠâĢĵ": 971, "velop": 972, "atch": 973, "als": 974, "uch": 975, "tern": 976, "Ġfun": 977, "erson": 978, "Ġpr": 979, "err": 980, "ife": 981, "arg": 982, "ily": 983, "Ġwork": 984, "Ġboth": 985, "up": 986, "Ġreturn": 987, "Ġyear": 988, "Ġspec": 989, "Ġdef": 990, "pos": 991, "ype": 992, "Ġche": 993, "ict": 994, "ues": 995, "10": 996, "ential": 997, "ĠCom": 998, "Ġcr": 999, "Ġey": 1000, "riv": 1001, "ix": 1002, "Ġend": 1003, "ght": 1004, "ational": 1005, "Ġright": 1006, "ĠWe": 1007, "pped": 1008, "Ġbody": 1009, "ĠYou": 1010, "ĠPro": 1011, "Ġafter": 1012, "way": 1013, "ner": 1014, "Ġloc": 1015, "erm": 1016, "ribut": 1017, "ck": 1018, "Ġconst": 1019, "put": 1020, "iel": 1021, "li": 1022, "ollow": 1023, "ram": 1024, "ience": 1025, "Ġnum": 1026, "Ġ//": 1027, "Ġsign": 1028, "air": 1029, "Ġcre": 1030, "ness": 1031, "line": 1032, "ev": 1033, "âĢľ": 1034, "ook": 1035, "Ġcur": 1036, "Ġhel": 1037, "->": 1038, "ON": 1039, "Ġexpl": 1040, "dd": 1041, "Ġhard": 1042, "aw": 1043, "Ġserv": 1044, "Ġwell": 1045, "eng": 1046, "Ġsim": 1047, "ĠĠĠĠĠĠĠĠĠ": 1048, "Ġuse": 1049, "Ġgr": 1050, "outh": 1051, "...": 1052, "ĠAs": 1053, "ever": 1054, "ruct": 1055, "Ġform": 1056, "âĪ": 1057, "ble": 1058, "ĠUn": 1059, "Ġ7": 1060, "Ġsk": 1061, "Ġsur": 1062, "io": 1063, "esc": 1064, "Ġdiffere": 1065, "Ġ200": 1066, "ized": 1067, "Ġbu": 1068, "Ġgirl": 1069, ".,": 1070, "Ġcock": 1071, "ider": 1072, "Ġmin": 1073, "ages": 1074, "Ġappro": 1075, "Ġext": 1076, "Ġra": 1077, "ople": 1078, "Ġco": 1079, "read": 1080, "ered": 1081, "ield": 1082, "stand": 1083, "Ġleg": 1084, "ittle": 1085, "Ġmost": 1086, "chn": 1087, "Ġdisc": 1088, "Ġfollow": 1089, "12": 1090, "ident": 1091, "resent": 1092, "let": 1093, "orn": 1094, "arch": 1095, "Ġgood": 1096, "Ġ8": 1097, "Ġtra": 1098, "Ġhigh": 1099, "duct": 1100, "ually": 1101, "Ġvery": 1102, "arm": 1103, "Ġreal": 1104, "Ġmade": 1105, "Ġdata": 1106, "Ġbeing": 1107, "Ġresult": 1108, "Ġdet": 1109, "par": 1110, "pr": 1111, "ES": 1112, "ared": 1113, "Ġdon": 1114, "Ġref": 1115, "Ġdist": 1116, "Ġfind": 1117, "Ġagainst": 1118, "Ġtake": 1119, "Ġopen": 1120, "ving": 1121, "Ġ#": 1122, "nc": 1123, "Ġplay": 1124, "?\"": 1125, "\\_{": 1126, "alth": 1127, "19": 1128, "Ġdevelop": 1129, "nce": 1130, "Ġgl": 1131, "tain": 1132, "Ġmuch": 1133, "Ġturn": 1134, "Ġ:": 1135, "Ġlittle": 1136, "ought": 1137, "Ġused": 1138, "ĠAn": 1139, "ew": 1140, "Ġperson": 1141, "Ġshow": 1142, "âĢĵ": 1143, "Ġdec": 1144, "Ġ`": 1145, "cept": 1146, "Ġown": 1147, "ives": 1148, "ited": 1149, "Ġel": 1150, "(\"": 1151, "AT": 1152, "Ġeyes": 1153, "ined": 1154, "ature": 1155, "Ġinform": 1156, "the": 1157, "fr": 1158, "right": 1159, "wor": 1160, "ross": 1161, "ines": 1162, "Ġpeople": 1163, "Ġi": 1164, "Ġ/": 1165, "Ġstill": 1166, "ĠFor": 1167, "Ġ10": 1168, "vent": 1169, "new": 1170, "ying": 1171, "ash": 1172, "iqu": 1173, "Ġexp": 1174, "ym": 1175, "Ġresp": 1176, "Ġsom": 1177, "val": 1178, "Ġsystem": 1179, "ateg": 1180, "riend": 1181, "Ġthose": 1182, "px": 1183, "tr": 1184, "Ġple": 1185, "Ġface": 1186, "Ġhelp": 1187, "Ġread": 1188, "ts": 1189, "ĠĠĠĠĠĠĠĠĠĠĠĠĠĠĠĠĠĠĠ": 1190, "Ġcall": 1191, "\":": 1192, "Ġprovid": 1193, "olut": 1194, "ample": 1195, "orts": 1196, "Ġpublic": 1197, "ather": 1198, "ling": 1199, "Ġfr": 1200, "Ġ9": 1201, "ma": 1202, "EN": 1203, "ead": 1204, "ivid": 1205, "Ġbel": 1206, "Ġgoing": 1207, "els": 1208, "math": 1209, "rent": 1210, "ann": 1211, "Ġcontin": 1212, "Ġconf": 1213, "xt": 1214, "Ġself": 1215, "mer": 1216, "und": 1217, "ah": 1218, "name": 1219, "app": 1220, "Ġear": 1221, "Ġed": 1222, "imes": 1223, "der": 1224, "ince": 1225, "ins": 1226, "Ġpar": 1227, "irect": 1228, "Ġaut": 1229, "Th": 1230, "Ġdoes": 1231, "cond": 1232, "Ġbecause": 1233, "Ġpartic": 1234, "ott": 1235, "ĉĉĉĉ": 1236, "AR": 1237, "Ġfelt": 1238, "Ġpol": 1239, "Ġav": 1240, "Ġcle": 1241, "ĠAl": 1242, "Ġpull": 1243, "Ġmem": 1244, "ox": 1245, "11": 1246, "less": 1247, "duc": 1248, "Ġcommun": 1249, "Ġwr": 1250, ".âĢĿ": 1251, "ired": 1252, "Ġdifferent": 1253, "iness": 1254, "hip": 1255, "ush": 1256, "iting": 1257, "Ġprocess": 1258, "ability": 1259, "oci": 1260, "Ġallow": 1261, "Ġgener": 1262, "Ġequ": 1263, "Ġhands": 1264, "atic": 1265, "oid": 1266, "Ġfing": 1267, "Ġbeh": 1268, "ional": 1269, "ets": 1270, "Ġeffect": 1271, "Ġusing": 1272, "Ġpoint": 1273, "ream": 1274, "oad": 1275, "Ġtechn": 1276, "rol": 1277, "ator": 1278, "asure": 1279, "AL": 1280, "Ġcare": 1281, "ants": 1282, "Ġmain": 1283, "span": 1284, "yp": 1285, "Ġthought": 1286, "Ġinc": 1287, "ately": 1288, "aut": 1289, "tt": 1290, "Ġfound": 1291, "Ġmouth": 1292, "ĠHow": 1293, "Ġduring": 1294, "Ġmany": 1295, "Ġmov": 1296, "ural": 1297, "ining": 1298, "Ġdel": 1299, "201": 1300, "ern": 1301, "Ġincre": 1302, "oot": 1303, "Ġcor": 1304, "Ġfact": 1305, "ĠIf": 1306, "ense": 1307, "ering": 1308, "Ġcar": 1309, "ĠEx": 1310, "az": 1311, "ently": 1312, "ĠAnd": 1313, "OR": 1314, "view": 1315, "Ġmust": 1316, "Ġdidn": 1317, "Ġhere": 1318, "'re": 1319, "div": 1320, "roup": 1321, "erg": 1322, "Ġdi": 1323, "ality": 1324, "Ġsame": 1325, "();": 1326, "Ġstand": 1327, "ank": 1328, "000": 1329, "set": 1330, "ethod": 1331, "Ġbed": 1332, "any": 1333, "ĠThey": 1334, "UL": 1335, "))": 1336, "ething": 1337, "lex": 1338, "Ġprog": 1339, "20": 1340, "$$": 1341, "au": 1342, "ision": 1343, "til": 1344, "Ġlead": 1345, "Ġprof": 1346, "ched": 1347, "br": 1348, "add": 1349, "ividual": 1350, "Ġtop": 1351, "........": 1352, "ource": 1353, "Ġname": 1354, "be": 1355, "chool": 1356, "Ġinf": 1357, "by": 1358, "Ġunderstand": 1359, "amp": 1360, "ves": 1361, "://": 1362, "ively": 1363, "Ġwithin": 1364, "Ġpass": 1365, "ĠSe": 1366, "gg": 1367, "^{": 1368, "Ġgot": 1369, "Ġsw": 1370, "bs": 1371, "Ġlook": 1372, "raph": 1373, "ĠWh": 1374, "Ġworld": 1375, "Ġanother": 1376, "Ġrep": 1377, "Ġcou": 1378, "Ġimport": 1379, "Ġroom": 1380, "ĠDe": 1381, "Ġreally": 1382, "Ġmom": 1383, "Ġsmall": 1384, "Ġthink": 1385, "ĠCon": 1386, "min": 1387, "Ġimp": 1388, "Ġmat": 1389, "ĠĠĠĠĠĠĠĠĠĠĠĠĠĠĠĠĠĠĠĠĠĠĠĠ": 1390, "========": 1391, "ouse": 1392, "itut": 1393, "ency": 1394, "16": 1395, "ref": 1396, "Ġmed": 1397, "ĠQ": 1398, "text": 1399, "Ġmon": 1400, "ten": 1401, "Ġlife": 1402, "ved": 1403, "ars": 1404, "Ġwa": 1405, "You": 1406, "Ġest": 1407, "32": 1408, "ology": 1409, "Ġsomething": 1410, "Ġmight": 1411, "arge": 1412, "ization": 1413, "Ġ18": 1414, "Ġanal": 1415, "âĢ¦": 1416, "ically": 1417, "Ġindividual": 1418, "Ġtest": 1419, "Ġlooked": 1420, "ters": 1421, "Ġdesign": 1422, "ren": 1423, "Ġinformation": 1424, "ital": 1425, "med": 1426, "('": 1427, "Ġlove": 1428, "Ġnever": 1429, "Ġgrow": 1430, "'m": 1431, "here": 1432, "ĠBut": 1433, "Ġperform": 1434, "Ġyears": 1435, "ways": 1436, "Ġcour": 1437, "Ġ@": 1438, "Ġposs": 1439, "Ġeng": 1440, "ier": 1441, "Ġsat": 1442, "Ġadv": 1443, "ĠSh": 1444, "thing": 1445, "Ġbus": 1446, "Ġpat": 1447, "Ġfunction": 1448, "Ġfew": 1449, "ists": 1450, "Ġmen": 1451, "Ġser": 1452, "Ġaway": 1453, "itions": 1454, "ried": 1455, "erest": 1456, "}\\": 1457, "Ġwomen": 1458, "wards": 1459, "ey": 1460, "ãģ": 1461, "ety": 1462, "Ġkiss": 1463, "Ġpen": 1464, "Ġnumber": 1465, "Ġpract": 1466, "Ġlear": 1467, "It": 1468, "iven": 1469, "Ġsay": 1470, "Pro": 1471, "ton": 1472, "Ġwithout": 1473, "Ġput": 1474, "ipp": 1475, "day": 1476, "bers": 1477, "Ġpur": 1478, "RE": 1479, "ser": 1480, "ĠAr": 1481, "ĠHer": 1482, "oh": 1483, "15": 1484, "Ġsupport": 1485, "Ġdep": 1486, "ĠCl": 1487, "ven": 1488, "Ġday": 1489, "Ġhapp": 1490, "urther": 1491, "Ġvalue": 1492, "Ġerr": 1493, "akes": 1494, "Ġbest": 1495, "Ġpot": 1496, "Ġclos": 1497, "of": 1498, "Ġdem": 1499, "str": 1500, "âĢĨ": 1501, "Ġseem": 1502, "irt": 1503, "Ġhealth": 1504, "ĠTo": 1505, "ĠBy": 1506, "Ġrest": 1507, "bb": 1508, "Ġbr": 1509, "Ġlast": 1510, "Ġens": 1511, "ci": 1512, "---": 1513, "Ġmass": 1514, "ĠRe": 1515, "ertain": 1516, "ST": 1517, "ases": 1518, "ished": 1519, "Ġconsider": 1520, "Ġmet": 1521, "Ġoper": 1522, "ploy": 1523, "ussy": 1524, "ID": 1525, "Ġx": 1526, "Ġpower": 1527, "Ġvis": 1528, "iving": 1529, "Ġbig": 1530, "ustom": 1531, "Ġleft": 1532, "ention": 1533, "Ġart": 1534, "Ġcome": 1535, "aring": 1536, "frac": 1537, "Ġtook": 1538, "for": 1539, "Ġcase": 1540, "ole": 1541, "ww": 1542, "Ġdeep": 1543, "Ġ**": 1544, "Ġlevel": 1545, "itive": 1546, "25": 1547, "LE": 1548, "Ġhum": 1549, "Ġnext": 1550, "IT": 1551, "Ġele": 1552, "ason": 1553, "agement": 1554, "Ġesc": 1555, "Ġprom": 1556, "ames": 1557, "Ġcent": 1558, "Ġuntil": 1559, "30": 1560, "Ġmark": 1561, "col": 1562, "Ġsignific": 1563, "Ġsens": 1564, "ote": 1565, "Ġopt": 1566, "ism": 1567, "Ġpussy": 1568, "Ġsoft": 1569, "Ġsecond": 1570, "Ġfac": 1571, "clus": 1572, "ccess": 1573, "AN": 1574, "ills": 1575, "ission": 1576, "Ġfam": 1577, "Ġconc": 1578, "Ġrelations": 1579, "ĠThere": 1580, "18": 1581, "joy": 1582, "Ġcond": 1583, "He": 1584, "ted": 1585, "Ġtal": 1586, "ration": 1587, "Ġbro": 1588, "inal": 1589, "izing": 1590, "ocus": 1591, "ery": 1592, "Ġ$\\": 1593, "Ġinvol": 1594, "Ex": 1595, "Ġinterest": 1596, "Ġfriend": 1597, "Ġ</": 1598, "Ġben": 1599, "rr": 1600, "Ġcount": 1601, "ĠOn": 1602, "td": 1603, "Ġsit": 1604, "ember": 1605, "Ġmind": 1606, "ified": 1607, "iter": 1608, "iron": 1609, "14": 1610, "*,": 1611, "Ġchar": 1612, "Ġhot": 1613, "por": 1614, "Ġinside": 1615, "Ġenc": 1616, "Ġlips": 1617, "Ġproduct": 1618, "Ġthree": 1619, "********": 1620, "Ġsize": 1621, "Ġ12": 1622, "Ġlight": 1623, "ances": 1624, "ĠTr": 1625, "lab": 1626, "Ġstarted": 1627, "ination": 1628, "aging": 1629, "ify": 1630, "Ġmus": 1631, "ĠRes": 1632, "She": 1633, "Ġasked": 1634, "CT": 1635, "eting": 1636, "land": 1637, "Ġslow": 1638, "Ġlocal": 1639, "duction": 1640, "Ġbuild": 1641, "Ġincluding": 1642, "Ġplace": 1643, "To": 1644, "Ġproper": 1645, "Ġexc": 1646, "itional": 1647, "ised": 1648, "Ġwoman": 1649, "SE": 1650, "Ġhold": 1651, "Ġtype": 1652, "Ġ=>": 1653, "Ġrun": 1654, "Ġpotential": 1655, "Ġchild": 1656, "Ġlist": 1657, "(*": 1658, "As": 1659, "Ġgra": 1660, "Ġorgan": 1661, "Con": 1662, "Ch": 1663, "Ġident": 1664, "Ġbegan": 1665, "13": 1666, "Ġkeep": 1667, "Ġpress": 1668, "><": 1669, "ivers": 1670, "Ġlooking": 1671, "Ġexpect": 1672, "Ġwal": 1673, "uff": 1674, "hor": 1675, "Ġhome": 1676, "ĠWhen": 1677, "ina": 1678, "apt": 1679, "ulation": 1680, "ples": 1681, "son": 1682, "50": 1683, "play": 1684, "acy": 1685, "ik": 1686, "Ġwater": 1687, "pon": 1688, "fig": 1689, "aster": 1690, "Ġbetter": 1691, "Ġenjoy": 1692, "Ġdirect": 1693, "ĠĠĠĠĠĠĠĠĠĠĠĠĠĠĠĠĠĠĠĠĠĠĠ": 1694, "oor": 1695, "'d": 1696, "Ġrele": 1697, "Ġapplic": 1698, "Ġbusiness": 1699, "Ġexperience": 1700, "work": 1701, "17": 1702, "rem": 1703, "Ġmethod": 1704, "return": 1705, "ane": 1706, "Ġalways": 1707, "Ġmaking": 1708, "Ġnight": 1709, "ences": 1710, "Ġacross": 1711, "Ġbit": 1712, "ĠComm": 1713, "Ġwanted": 1714, "Ġmo": 1715, "Ġz": 1716, "Ġ*/": 1717, "Ġsince": 1718, "ique": 1719, "ware": 1720, "ĠAd": 1721, "Ġside": 1722, "ĠPl": 1723, "itle": 1724, "Ġlegs": 1725, "ript": 1726, "yn": 1727, "Ġmean": 1728, "Ġprogram": 1729, "part": 1730, "Ġiss": 1731, "Ġstre": 1732, "AM": 1733, "Ġsure": 1734, "bl": 1735, "}{": 1736, "man": 1737, "raw": 1738, "ral": 1739, "aterial": 1740, "Ġcame": 1741, "Ġvarious": 1742, "Ġquick": 1743, "left": 1744, "ĠSc": 1745, "Ġmove": 1746, "arr": 1747, "Ġ!": 1748, "htt": 1749, "Ġquest": 1750, "Ġline": 1751, "ivity": 1752, "ek": 1753, "ĠSo": 1754, "rap": 1755, "Ġlim": 1756, "Ġhair": 1757, "Ġtoget": 1758, "ĠWith": 1759, "ources": 1760, "Ġtogether": 1761, "Ġet": 1762, "Ġeas": 1763, "oice": 1764, "viron": 1765, "We": 1766, "Ġcontrol": 1767, "ault": 1768, "ocial": 1769, "arent": 1770, "Ġpresent": 1771, "'ll": 1772, "Ġelse": 1773, "âĪĴ": 1774, "Ġfollowing": 1775, "back": 1776, "Ġfil": 1777, "ape": 1778, "ĠThese": 1779, "ule": 1780, "Ġgre": 1781, "ĉĉĉ": 1782, "Ġstat": 1783, "ml": 1784, "ument": 1785, "Ġdr": 1786, "Ġ202": 1787, "Ġalong": 1788, "________________": 1789, "Ġcap": 1790, "Ġcontinu": 1791, "):": 1792, "ced": 1793, "Ġschool": 1794, "âĢĶ": 1795, "Ġsignificant": 1796, "ĠZ": 1797, "ĠMy": 1798, "ories": 1799, "Ġimpro": 1800, "Ġold": 1801, "64": 1802, "Ġknew": 1803, "Ġthings": 1804, "oring": 1805, "Ġdesc": 1806, "Ġtell": 1807, "ION": 1808, "umm": 1809, "ds": 1810, "Ġfocus": 1811, "Ġmult": 1812, "ior": 1813, "ength": 1814, "Ġaccess": 1815, "Ġide": 1816, "Ġaff": 1817, "Ġcurrent": 1818, "asing": 1819, "Ġoften": 1820, "Ġrese": 1821, "Ġbeg": 1822, "ĠInd": 1823, "import": 1824, "def": 1825, "ending": 1826, "Ġorg": 1827, "Ġprovide": 1828, "fe": 1829, "ains": 1830, "Ġ20": 1831, "ĠNew": 1832, "Ġ15": 1833, "Ġdoor": 1834, "rm": 1835, "Ġnon": 1836, "(\\": 1837, "This": 1838, "Ġenh": 1839, "Ġpriv": 1840, "cur": 1841, "Ġwent": 1842, "},": 1843, "Ġfuck": 1844, "ĠHowever": 1845, "Ġproble": 1846, "],": 1847, "ĠX": 1848, "Ġfree": 1849, "Ġbreast": 1850, "olution": 1851, "Name": 1852, "Ġsqu": 1853, "Ġpop": 1854, "Ġstrateg": 1855, "Ġsuccess": 1856, "Ġrece": 1857, "!\"": 1858, "ump": 1859, "Ġfull": 1860, "Ġmar": 1861, "Ġtou": 1862, "Cl": 1863, "Ġstruct": 1864, "action": 1865, "Ġspecific": 1866, "Ġsexual": 1867, "Ġbra": 1868, "ĠHis": 1869, "Ġpenis": 1870, "Ġever": 1871, "Ġstate": 1872, "Ġgreat": 1873, "Ġkey": 1874, "idd": 1875, "mod": 1876, "ication": 1877, "rop": 1878, "Ġhaving": 1879, "Ġmodel": 1880, "org": 1881, "Ġinvest": 1882, "most": 1883, "ULL": 1884, "Ġ==": 1885, "ened": 1886, "de": 1887, "Ġvari": 1888, "ibility": 1889, "oard": 1890, "vious": 1891, "ĠAll": 1892, "Ġspe": 1893, "Ġdue": 1894, "Ġreport": 1895, "type": 1896, "Ġtrue": 1897, "Ġchang": 1898, "Ġtyp": 1899, "Type": 1900, ",âĢĿ": 1901, "ground": 1902, "abl": 1903, "Ġfingers": 1904, "oss": 1905, "requ": 1906, "ights": 1907, "Ġsol": 1908, "Cont": 1909, "Ġpulled": 1910, "yle": 1911, "Ġla": 1912, "comm": 1913, "ailable": 1914, "ilities": 1915, "Ġsever": 1916, "na": 1917, "Ġbased": 1918, "Ġplan": 1919, "Ġsupp": 1920, "arly": 1921, "Ġtong": 1922, "Ġgive": 1923, "aj": 1924, "not": 1925, "Ġinit": 1926, "Ġyoung": 1927, "Ġless": 1928, "igned": 1929, "ached": 1930, "lection": 1931, "ger": 1932, "OT": 1933, "Ġview": 1934, "Ġpres": 1935, "Ġris": 1936, "ially": 1937, "Ġfuc": 1938, "irc": 1939, "Ġocc": 1940, "arget": 1941, "ĠCol": 1942, "ĠNo": 1943, "Res": 1944, "Re": 1945, "head": 1946, "ask": 1947, "Ġlarge": 1948, "ries": 1949, "ams": 1950, "Ġenough": 1951, "Ġturned": 1952, "Com": 1953, "ored": 1954, "Ġorder": 1955, "Ġbehind": 1956, "Ġcustom": 1957, "Ġdiscuss": 1958, "ots": 1959, "ients": 1960, "stitut": 1961, "ĠIm": 1962, "side": 1963, "Ġchall": 1964, "ĠApp": 1965, "Ġdevelopment": 1966, "att": 1967, "Ġtowards": 1968, "Ġgiven": 1969, "Ġexample": 1970, "Ġfurther": 1971, "Ġcourse": 1972, "></": 1973, "ably": 1974, "pre": 1975, "ended": 1976, "cont": 1977, "Ġcal": 1978, "Ġobject": 1979, "Ġseveral": 1980, "Ġuser": 1981, "Ġwhy": 1982, "ope": 1983, "Ġproject": 1984, "ium": 1985, "Ġtext": 1986, "pportun": 1987, "Ġparticular": 1988, "Ġ16": 1989, "Ġfield": 1990, "room": 1991, "Ġcost": 1992, "Ġtem": 1993, "Ġdev": 1994, "Ġservices": 1995, "Ġmaterial": 1996, "An": 1997, "IC": 1998, "ither": 1999, "Ġposition": 2000, "acter": 2001, "Ġtimes": 2002, "AS": 2003, "asm": 2004, "ron": 2005, "].": 2006, "Ġstep": 2007, "Ġ199": 2008, "ails": 2009, "////": 2010, "Ġmoment": 2011, "\")": 2012, "idth": 2013, "roll": 2014, "Ġcontribut": 2015, "ires": 2016, "*)": 2017, "essage": 2018, "}$": 2019, "Ġfront": 2020, "serv": 2021, "ister": 2022, "Ġgetting": 2023, "amet": 2024, "Ã©": 2025, "Ġcult": 2026, "use": 2027, "cal": 2028, "Ġemploy": 2029, "ung": 2030, "Ġ--": 2031, "ived": 2032, "nect": 2033, "vironment": 2034, "iod": 2035, "Ġtold": 2036, "Ġrequire": 2037, "ĠTe": 2038, "Ġcum": 2039, "ieve": 2040, "à¤": 2041, "Ġinclude": 2042, "face": 2043, "Ġamong": 2044, "Ġpleasure": 2045, "fully": 2046, "Ġve": 2047, "uts": 2048, "ides": 2049, "Ġimportant": 2050, "Ġgirls": 2051, "24": 2052, "Ġtongue": 2053, "rad": 2054, "Ġeduc": 2055, "Ġchange": 2056, "Ġprot": 2057, "Ġonce": 2058, "aked": 2059, "II": 2060, "'ve": 2061, "ession": 2062, "Ġpay": 2063, "ute": 2064, "Ġ14": 2065, "ĠOr": 2066, "imate": 2067, "\\_{\\": 2068, "ĠThat": 2069, "rist": 2070, "Ġbeaut": 2071, "cent": 2072, "Ġ>": 2073, "ibr": 2074, "Ġcertain": 2075, "ude": 2076, "RO": 2077, "ike": 2078, "unt": 2079, "Ġgroup": 2080, "Ġinteg": 2081, "Ġexam": 2082, "Ġarea": 2083, "200": 2084, "Ġlow": 2085, "ogn": 2086, "Ġthing": 2087, "Ġstrong": 2088, "Ġintern": 2089, "Ġdoing": 2090, "Ġblack": 2091, "order": 2092, "Ġbenef": 2093, "ene": 2094, "ready": 2095, "ression": 2096, "Ġopportun": 2097, "ĠIN": 2098, "Ġpain": 2099, "ari": 2100, "Ġtable": 2101, "fun": 2102, "ental": 2103, "aned": 2104, "Ġsing": 2105, "What": 2106, "ED": 2107, "meric": 2108, "ĠPh": 2109, "pping": 2110, "Ġ_": 2111, "Ġphys": 2112, "date": 2113, "Ġstudents": 2114, "ĠIs": 2115, "####": 2116, "Id": 2117, "Ġavailable": 2118, "Ġtight": 2119, "Ġherself": 2120, "alse": 2121, "ĠĠĠĠĠĠĠĠĠĠĠĠĠ": 2122, "Ġhist": 2123, "ĠCont": 2124, "ĠEn": 2125, "Ġess": 2126, "ĠNULL": 2127, "aps": 2128, "ĠBl": 2129, "22": 2130, "Ġfore": 2131, "ours": 2132, "rict": 2133, "vert": 2134, "Ġresults": 2135, "Ġexperi": 2136, "data": 2137, "ohn": 2138, "reg": 2139, "this": 2140, "Ġland": 2141, "iver": 2142, "ograph": 2143, "Ġ17": 2144, "Ġwasn": 2145, "Ġalmost": 2146, "ushed": 2147, "Ġcontent": 2148, "Ġwatch": 2149, "Ġsocial": 2150, "aces": 2151, "Ġaddress": 2152, "isf": 2153, "plement": 2154, "Ġrole": 2155, "Ġpost": 2156, "Ġbecome": 2157, "icy": 2158, "Ġboy": 2159, "33": 2160, "fort": 2161, "lete": 2162, "ken": 2163, "ctor": 2164, "ĠWhat": 2165, "erence": 2166, "Ġmaintain": 2167, "Ġonline": 2168, "ording": 2169, "../": 2170, "clusion": 2171, "ification": 2172, "ĠSp": 2173, "size": 2174, "alls": 2175, "ards": 2176, "Ġcomplet": 2177, "Ġelect": 2178, "ables": 2179, "Ġred": 2180, "?âĢĿ": 2181, "Ġlay": 2182, "ĠMan": 2183, "ening": 2184, "ned": 2185, "Ġrespons": 2186, "Ġpersonal": 2187, "ats": 2188, "ley": 2189, "lu": 2190, "ffic": 2191, "Ġhref": 2192, "Ġalready": 2193, "ĠAt": 2194, "ĠÂ": 2195, "my": 2196, "urb": 2197, "Ġmot": 2198, "irm": 2199, "Ġsound": 2200, "uture": 2201, "itical": 2202, "erc": 2203, "Ġcreate": 2204, "Ġabove": 2205, "Ġswe": 2206, "ites": 2207, "Ġstudy": 2208, "Ġable": 2209, "Ġthough": 2210, "Ġslowly": 2211, "Ġpossible": 2212, "Ġkind": 2213, "code": 2214, "ĠĠĠĠĠĠĠĠĠĠĠĠ": 2215, "sel": 2216, "ured": 2217, "Ġnet": 2218, "Ġaccount": 2219, "Ġrespect": 2220, "Ġlot": 2221, "Ġclose": 2222, "ager": 2223, "Ġstring": 2224, "oney": 2225, "Ġpo": 2226, "Ġshort": 2227, "iled": 2228, "Ġgover": 2229, "Ġenerg": 2230, "atures": 2231, "99": 2232, "mm": 2233, "Ġdeterm": 2234, "Ġskin": 2235, "alf": 2236, "hem": 2237, "istic": 2238, "Ġbreath": 2239, "Ġspecial": 2240, "ĠĠĠĠĠĠĠĠĠĠ": 2241, "Ġ13": 2242, "tic": 2243, "co": 2244, "ãĤ": 2245, "Ġtre": 2246, "Ġlaw": 2247, "idence": 2248, "inking": 2249, "Ġrepl": 2250, "ception": 2251, "anced": 2252, "Ġresearch": 2253, "Ġassoci": 2254, "40": 2255, "hy": 2256, "aced": 2257, "Ġservice": 2258, "lease": 2259, "iversity": 2260, "ĠMar": 2261, "ĠAmeric": 2262, "Ġut": 2263, "Ġanything": 2264, "Ġfeeling": 2265, "Ġcalled": 2266, "angu": 2267, "Ġtot": 2268, "aged": 2269, "Ġrepresent": 2270, "Ġcouldn": 2271, "ĠĠĠĠĠĠĠĠĠĠĠĠĠĠĠĠĠ": 2272, "sw": 2273, "oved": 2274, "Ġvide": 2275, "ilar": 2276, "page": 2277, "Ġnecess": 2278, "Ġimpact": 2279, "umb": 2280, "Ġpub": 2281, "ysis": 2282, "ender": 2283, "ENT": 2284, "ĠEm": 2285, "80": 2286, "Val": 2287, "Ġmonth": 2288, "ĠAss": 2289, "ising": 2290, "ĠÐ": 2291, "Ġprob": 2292, "Ġregard": 2293, "Ġhouse": 2294, "ĠLe": 2295, "Se": 2296, "ET": 2297, "ray": 2298, "Ġstra": 2299, "Ġyet": 2300, "Ġbas": 2301, "Ġneeds": 2302, "Ġlater": 2303, "ift": 2304, "Ġdone": 2305, "log": 2306, "utes": 2307, "Ġtrad": 2308, "ĠThen": 2309, "Ġothers": 2310, "Ġquickly": 2311, "uf": 2312, "ãĥ": 2313, "Ġtouch": 2314, "Ġsaw": 2315, "oll": 2316, "Ġsil": 2317, "fect": 2318, "ĠInt": 2319, "Ġ11": 2320, "bar": 2321, "ĠAfter": 2322, "html": 2323, "fer": 2324, "Sh": 2325, "Ġ)": 2326, "Ġenergy": 2327, "Ġonto": 2328, "agn": 2329, "oun": 2330, "ĠBe": 2331, "Ġreview": 2332, "Ġwet": 2333, "fo": 2334, "opy": 2335, "ĠAdd": 2336, "ai": 2337, "illed": 2338, "Ġ30": 2339, "Ġbegin": 2340, "uation": 2341, "Ġvalues": 2342, "Ġmoved": 2343, "Ġlic": 2344, "23": 2345, "imal": 2346, "ained": 2347, "ĠFr": 2348, "Ġbreasts": 2349, "ze": 2350, "Ġrub": 2351, "itting": 2352, "AC": 2353, "Ġhuman": 2354, "ili": 2355, "Ġpa": 2356, "Ġexist": 2357, "string": 2358, "avor": 2359, "itor": 2360, "Ġtaking": 2361, "0000": 2362, "Ġste": 2363, "UT": 2364, "Ġmeet": 2365, "Ġ:=": 2366, "uild": 2367, "Ġchalleng": 2368, "Ġevent": 2369, "time": 2370, "Ġter": 2371, "ged": 2372, "ottom": 2373, "Ġperiod": 2374, "ators": 2375, "Ġshall": 2376, "ription": 2377, "ules": 2378, "Ġcomb": 2379, "Ġsatisf": 2380, "augh": 2381, "ales": 2382, "Ġunderstanding": 2383, "Ġmembers": 2384, "ney": 2385, "che": 2386, "Ġnipp": 2387, "eta": 2388, "ological": 2389, "Ġworking": 2390, "Ġund": 2391, "conom": 2392, "Ġhig": 2393, "60": 2394, "IS": 2395, "Ġvol": 2396, "key": 2397, "ume": 2398, "ging": 2399, "rect": 2400, "Ġheld": 2401, "Ġid": 2402, "ĠWor": 2403, "Ġtreat": 2404, "Ġoffer": 2405, "ĠDo": 2406, "Ġtool": 2407, "ught": 2408, "Ġessential": 2409, "Ġnat": 2410, "Ġunique": 2411, "Ġ%": 2412, "Err": 2413, "indow": 2414, "ache": 2415, "ĠOne": 2416, "Ġfar": 2417, "Ġorig": 2418, "ches": 2419, "ledge": 2420, "')": 2421, "Ġheart": 2422, "test": 2423, "Ġair": 2424, "rior": 2425, "Ġtry": 2426, "hold": 2427, "Ġca": 2428, "Ġmyself": 2429, "Ġindust": 2430, "Ġdom": 2431, "Ġknown": 2432, "Ġsomeone": 2433, "atform": 2434, "AB": 2435, "Ġactiv": 2436, "ĠBr": 2437, "comes": 2438, "Ġdistribut": 2439, "ners": 2440, "ĠReg": 2441, "iles": 2442, "Ġconne": 2443, "How": 2444, "Ġestabl": 2445, "ird": 2446, "Ġprivate": 2447, "No": 2448, "fl": 2449, "Ġnorm": 2450, "Ġwhether": 2451, "Ġwond": 2452, "hing": 2453, "Ġleast": 2454, "Ġ100": 2455, "ĠMe": 2456, "Ġfour": 2457, "iple": 2458, "})": 2459, "cle": 2460, "Ġenvironment": 2461, "Ġdating": 2462, "Ġperformance": 2463, "though": 2464, "Ġvers": 2465, "aling": 2466, "55": 2467, "empt": 2468, "Ġlab": 2469, "Ġfamily": 2470, "Ġstop": 2471, "Ġindividuals": 2472, "ĠJohn": 2473, "ancial": 2474, "Ġapproach": 2475, "Ġpast": 2476, "Ġcommon": 2477, "ĠĠĠĠĠĠĠĠĠĠĠĠĠĠĠĠĠĠĠĠĠĠĠĠĠĠĠ": 2478, "Ġsuc": 2479, "aving": 2480, "Ġhimself": 2481, "27": 2482, "Ġrequired": 2483, "DE": 2484, "/*": 2485, "Ġparticip": 2486, "For": 2487, "``": 2488, "Ġret": 2489, "iful": 2490, "](": 2491, "ocal": 2492, "Ġcaus": 2493, "Ġdick": 2494, "lement": 2495, "lying": 2496, "String": 2497, "Ġcompon": 2498, "Ġsugg": 2499, "Ġcharacter": 2500, "Ġboo": 2501, "Ġeither": 2502, "yl": 2503, "Ġmax": 2504, "Ġsuggest": 2505, "03": 2506, "aken": 2507, "oud": 2508, "Ġabs": 2509, "................": 2510, "IL": 2511, "Ġdri": 2512, "Ġ///": 2513, "duce": 2514, "Ġactually": 2515, "Oh": 2516, "Ġlog": 2517, "ressed": 2518, "aim": 2519, "Ġcomplex": 2520, "raft": 2521, "mber": 2522, "Ġthr": 2523, "Ġprovided": 2524, "medi": 2525, "Ġspace": 2526, "CO": 2527, "ĠCO": 2528, "eb": 2529, "plic": 2530, "Ġmeans": 2531, "Ġyourself": 2532, "Ġsystems": 2533, "ĠLet": 2534, "load": 2535, "Ġseen": 2536, "Ġwarm": 2537, "Ġach": 2538, "Ġlik": 2539, "Ġfund": 2540, "Ġaspect": 2541, "ends": 2542, "Ġrelationship": 2543, "ĠNot": 2544, "Ġneeded": 2545, "Ġfuture": 2546, "path": 2547, "overed": 2548, "28": 2549, "45": 2550, "Ġwhite": 2551, "hips": 2552, "verse": 2553, "ĠChrist": 2554, "Ġarg": 2555, "enn": 2556, "Ġproblem": 2557, "When": 2558, "ĠGod": 2559, "ided": 2560, "Ġrequest": 2561, "Ġful": 2562, "ison": 2563, "ocument": 2564, "Ġgrowth": 2565, "###": 2566, "Ġbreak": 2567, "Ġer": 2568, "nces": 2569, "amb": 2570, "Ġtoday": 2571, "ĠEng": 2572, "65": 2573, "Ġdays": 2574, "ĠMay": 2575, "Ġtarget": 2576, "Ġkne": 2577, "sequ": 2578, "icture": 2579, "Ġorgasm": 2580, "Ġsle": 2581, "class": 2582, "Ġforward": 2583, "list": 2584, "go": 2585, "Ġmale": 2586, "igure": 2587, "const": 2588, "Ġterm": 2589, "Ġtri": 2590, "ury": 2591, "Ġsn": 2592, "oke": 2593, "Ġappear": 2594, "file": 2595, "Ġgovern": 2596, "Ġcommunity": 2597, "Ġtrying": 2598, "Ġmakes": 2599, "If": 2600, "duced": 2601, "Tr": 2602, "75": 2603, "Ġjob": 2604, "Ġdate": 2605, "Ġaction": 2606, "af": 2607, "Get": 2608, "Ġinn": 2609, "Ġfeet": 2610, "ING": 2611, "---|": 2612, "acing": 2613, "ok": 2614, "Ġminutes": 2615, "Ġarms": 2616, "ounc": 2617, "ones": 2618, "Ġfem": 2619, "Ġbar": 2620, "29": 2621, "Ġgen": 2622, "epend": 2623, "aff": 2624, "------------": 2625, "Ġhtt": 2626, "Data": 2627, "Ġcolor": 2628, "Ġattention": 2629, "Ġ!=": 2630, "Ġstay": 2631, "https": 2632, "rs": 2633, "inc": 2634, "where": 2635, "Ġphot": 2636, "selves": 2637, "ises": 2638, "Ġfile": 2639, "Ġstro": 2640, "inter": 2641, "Ġdescrib": 2642, "Ġupon": 2643, "Ġcirc": 2644, "Ġsingle": 2645, "urs": 2646, "HE": 2647, "inary": 2648, "bed": 2649, "Ġchildren": 2650, "gle": 2651, "Ġperfect": 2652, "Ġensure": 2653, "Ġdig": 2654, "Ġlif": 2655, "rel": 2656, "*(*": 2657, "ems": 2658, "ĠSu": 2659, "oration": 2660, "Ġstory": 2661, "Ġsimilar": 2662, "bf": 2663, "Ġguy": 2664, "Ġaw": 2665, "Ġpant": 2666, "Ġlo": 2667, "ply": 2668, "Ġconsist": 2669, "Ġmanagement": 2670, "Ġsoon": 2671, "umber": 2672, "udd": 2673, "Ġimplement": 2674, "Ġrather": 2675, "ĠPart": 2676, "anguage": 2677, "more": 2678, "Ġnaked": 2679, "Ġbound": 2680, "Ġlearning": 2681, "obal": 2682, "Ġlower": 2683, "Ġquality": 2684, "uly": 2685, "Ġindic": 2686, "une": 2687, "================": 2688, "opt": 2689, "Ġpath": 2690, "Ġcontinued": 2691, "Ġbehav": 2692, "26": 2693, "Ġreason": 2694, "Ġauthor": 2695, "uro": 2696, "05": 2697, "Ġes": 2698, "Ġimprove": 2699, "ony": 2700, "Ġselect": 2701, "Ġbackground": 2702, "Ġgas": 2703, "ici": 2704, "ties": 2705, "ancing": 2706, "Ð¾": 2707, "Ġmarket": 2708, "ajor": 2709, "Ġage": 2710, "Ġobserv": 2711, "Ġann": 2712, "ension": 2713, "clude": 2714, "ĠCar": 2715, "Ġsite": 2716, "ĠWhile": 2717, "posed": 2718, "Ġteam": 2719, "Ġexplore": 2720, "value": 2721, "AD": 2722, "Ġmor": 2723, "ler": 2724, "ĠAm": 2725, "Ġgave": 2726, "Ġreached": 2727, "By": 2728, "Ġsaf": 2729, "\");": 2730, "Ġissues": 2731, "ĠSome": 2732, "Error": 2733, "ĠRep": 2734, "itch": 2735, "ids": 2736, "atives": 2737, "Ġconcern": 2738, "Ġconditions": 2739, "','": 2740, "Ġcompet": 2741, "Ġvoice": 2742, "UR": 2743, "Ġbeautiful": 2744, "IM": 2745, "Ġfoot": 2746, "ilit": 2747, "Ġclear": 2748, "Ġrecord": 2749, "iques": 2750, "iding": 2751, "But": 2752, "AP": 2753, "Ġcover": 2754, "List": 2755, "ands": 2756, "no": 2757, "Ġrange": 2758, "Ġrecogn": 2759, "Ġenhance": 2760, "light": 2761, "Ġwords": 2762, "Ġnull": 2763, "elling": 2764, "Ġslight": 2765, "Ġhalf": 2766, "Ġsuper": 2767, "ulations": 2768, "Ġheard": 2769, "Ġlength": 2770, "Un": 2771, "Ġentire": 2772, "_{": 2773, "egin": 2774, "itted": 2775, "And": 2776, "Ġ25": 2777, "pper": 2778, "35": 2779, "Ġcomput": 2780, "hh": 2781, "Ġready": 2782, "Ġcomes": 2783, "Ġareas": 2784, "Ġsto": 2785, "atus": 2786, "Key": 2787, "34": 2788, "ocks": 2789, "Ġhowever": 2790, "bol": 2791, "Ġsym": 2792, "Int": 2793, "Ġobtain": 2794, "onse": 2795, "umn": 2796, "Ġfinal": 2797, "Ġwat": 2798, "ĠAg": 2799, "Ġwebs": 2800, "Ġaud": 2801, "Ġporn": 2802, "Ġvoid": 2803, "body": 2804, "sy": 2805, "me": 2806, "Ġquestion": 2807, "ĠâĢĶ": 2808, "ĠUniversity": 2809, "Ðµ": 2810, "Ġnothing": 2811, "Ġpers": 2812, "osp": 2813, "Ġhips": 2814, "Ġwhole": 2815, "ĠSl": 2816, "Ġearly": 2817, "04": 2818, "Ġclean": 2819, "imately": 2820, "Ġamount": 2821, "ief": 2822, "Ġreach": 2823, "Ġpret": 2824, "word": 2825, "Ġassociated": 2826, "Ġweek": 2827, "Ġflow": 2828, "Ġmassage": 2829, "cret": 2830, "Ġthroughout": 2831, "Ġchest": 2832, "Ġconcept": 2833, "ruction": 2834, "202": 2835, "Ġresources": 2836, "Ġprim": 2837, "ĠGu": 2838, "Ġresponse": 2839, "ipped": 2840, "So": 2841, "Ġneg": 2842, "Ġfost": 2843, "Ġhigher": 2844, "Ġmeasure": 2845, "atory": 2846, "sub": 2847, "user": 2848, "Ġterms": 2849, "Ġrad": 2850, "Ġinstance": 2851, "ĠMore": 2852, "Ġagre": 2853, "Ġplatform": 2854, "Ġstri": 2855, "Ð°": 2856, "Ġnear": 2857, "ĠMed": 2858, "Ġpack": 2859, "Ġpush": 2860, "ervice": 2861, "Ġwife": 2862, "Ġgame": 2863, "21": 2864, "earch": 2865, "Ġdark": 2866, "(),": 2867, "rew": 2868, "Ġseemed": 2869, "Ġoverall": 2870, "])": 2871, "Ġfucking": 2872, "Ġintro": 2873, "label": 2874, "Ġcam": 2875, "Ġsmiled": 2876, "EM": 2877, "Ġknowledge": 2878, "aining": 2879, "icle": 2880, "Ġlarg": 2881, "Ġcell": 2882, "Ġparent": 2883, "kn": 2884, "rc": 2885, "ishing": 2886, "oat": 2887, "Ġconsum": 2888, "Ġexact": 2889, "argin": 2890, "Ġcruc": 2891, "top": 2892, "off": 2893, "da": 2894, "On": 2895, "ĠCons": 2896, "39": 2897, "Ġfloor": 2898, "ceed": 2899, "ĠâĢ¢": 2900, "ĠĠĠĠĠĠĠĠĠĠĠĠĠĠ": 2901, "Ġbuilding": 2902, "Col": 2903, "Ġheav": 2904, "Ġthigh": 2905, "().": 2906, "imum": 2907, "ĠYour": 2908, "$$\\": 2909, "www": 2910, "Ġdou": 2911, "met": 2912, "Ġcontact": 2913, "iet": 2914, "Ġconnect": 2915, "Ġfeatures": 2916, "Ġprevious": 2917, "ynam": 2918, "Ġdemon": 2919, "ĠQu": 2920, "Ġrisk": 2921, "08": 2922, "Ġtotal": 2923, "Ġfalse": 2924, "ä¸": 2925, "wh": 2926, "Ġfood": 2927, "Ġtaken": 2928, "Ġnatural": 2929, "Ġlonger": 2930, "ĠĠĠĠĠĠĠĠĠĠĠĠĠĠĠĠĠĠ": 2931, "ta": 2932, "Ġshare": 2933, "Ġtransform": 2934, "friend": 2935, "ĠAct": 2936, "bject": 2937, "ĠCan": 2938, "mission": 2939, "ĠStud": 2940, "Ġunit": 2941, "78": 2942, "UN": 2943, "Al": 2944, "Ġcrucial": 2945, "dis": 2946, "TO": 2947, "Ġanalysis": 2948, "CH": 2949, "(&": 2950, "Ġerror": 2951, "Ġprior": 2952, "36": 2953, "Ġbab": 2954, "url": 2955, "Ġ,": 2956, "aches": 2957, "Ġ24": 2958, "Ġground": 2959, "Ġbal": 2960, "roups": 2961, "eks": 2962, "orpor": 2963, "38": 2964, "Ġfriends": 2965, "Ġfinger": 2966, "}^": 2967, "Ġdro": 2968, "chan": 2969, "hers": 2970, "Ġdoesn": 2971, "otic": 2972, "Ġprovides": 2973, "Ġ----------------": 2974, "Set": 2975, "ĠDis": 2976, "Im": 2977, "pri": 2978, "Ġdefin": 2979, "Ġthro": 2980, "Ġactivities": 2981, "Ġeducation": 2982, "verage": 2983, "ming": 2984, "ĠPr": 2985, "ecut": 2986, "Ġphysical": 2987, "reen": 2988, "Ġidea": 2989, "****************": 2990, "asc": 2991, "su": 2992, "orth": 2993, "Ġtast": 2994, "ĠCent": 2995, "ĠPer": 2996, "Ġweb": 2997, "ĠFin": 2998, "Ġinflu": 2999, "');": 3000, "Ġâ": 3001, "but": 3002, "just": 3003, "ĠSystem": 3004, "['": 3005, "Ġstood": 3006, "ĠComp": 3007, "ï¼": 3008, "Ġtried": 3009, "Ġfinancial": 3010, "44": 3011, "Ġnecessary": 3012, "Ġsection": 3013, "Ġcompany": 3014, "Ġill": 3015, "Ġparamet": 3016, "Ġ21": 3017, "Ġworks": 3018, "09": 3019, "aligned": 3020, "Ġsubject": 3021, "Ġsett": 3022, "ĠĠĠĠĠĠĠĠĠĠĠĠĠĠĠĠĠĠĠĠĠ": 3023, "Ġoffers": 3024, "airs": 3025, "AME": 3026, "Ġchanges": 3027, "Ġgeneral": 3028, "ags": 3029, "37": 3030, "eed": 3031, "vant": 3032, "ux": 3033, "Ġjo": 3034, "IV": 3035, "ously": 3036, "Now": 3037, "Ġfactors": 3038, "ky": 3039, "Ġsearch": 3040, "Ġusers": 3041, "Ġsurpr": 3042, "Ġneck": 3043, "Ġquite": 3044, "rown": 3045, "));": 3046, "Ġeverything": 3047, "Ġspread": 3048, "omet": 3049, "Ġdisplay": 3050, "ĠNow": 3051, "ĠEsc": 3052, "pecially": 3053, "Ġcheck": 3054, "Ġlevels": 3055, "Ġstrategies": 3056, "Ġpractices": 3057, "mit": 3058, "Ġskills": 3059, "Ġprotect": 3060, "Ġwalked": 3061, "Ġeval": 3062, "Ġaccept": 3063, "ĠAN": 3064, "Ġincrease": 3065, "07": 3066, "Ġcontext": 3067, "Ġproviding": 3068, "ixed": 3069, "param": 3070, "Ġemot": 3071, "ements": 3072, "pha": 3073, "ober": 3074, "Ġseeking": 3075, "quest": 3076, "uration": 3077, "Ġimmedi": 3078, "ooth": 3079, "ATE": 3080, "Ġleave": 3081, "urt": 3082, "Ġdam": 3083, "Ġfinally": 3084, "pi": 3085, "Ġaffect": 3086, "lege": 3087, "Add": 3088, "Ġescorts": 3089, "Ġmill": 3090, "Ġjour": 3091, "IG": 3092, "Ġinstead": 3093, "Ġtalk": 3094, "Ġsmile": 3095, "ĠUS": 3096, "}(": 3097, "06": 3098, "100": 3099, "ãĢ": 3100, "lt": 3101, "Ġoptions": 3102, "eral": 3103, "icro": 3104, "yond": 3105, "Ġhours": 3106, "reci": 3107, "ĠNOT": 3108, "Ġbase": 3109, "Ġmodels": 3110, "Ġplease": 3111, "atter": 3112, "isions": 3113, "Ġmother": 3114, "Ġopportunities": 3115, "omen": 3116, "Ġbi": 3117, "mathcal": 3118, "Ġ->": 3119, "begin": 3120, "Ġbeyond": 3121, "PE": 3122, "ailed": 3123, "ilt": 3124, "Ġvideo": 3125, "ele": 3126, "Ġ{\\": 3127, "ourse": 3128, "Ġproducts": 3129, "Ġpie": 3130, "Ġmethods": 3131, "color": 3132, "Ġden": 3133, "Ġansw": 3134, "Ġregarding": 3135, "Ġstreng": 3136, "With": 3137, "Ġport": 3138, "box": 3139, "Ġfall": 3140, "Ġpred": 3141, "var": 3142, "equ": 3143, "elta": 3144, "Ġmatter": 3145, "Ġbad": 3146, "Ġmajor": 3147, "Ġevents": 3148, "pose": 3149, "Ġnil": 3150, "ĠAmerican": 3151, "ummary": 3152, "Ġmultiple": 3153, "Ġwon": 3154, "Ġeconom": 3155, "ees": 3156, "Ġopened": 3157, "Ġallows": 3158, "igg": 3159, "Ġpoints": 3160, "icult": 3161, "Ġappe": 3162, "aves": 3163, "Ġdemonstr": 3164, "Ġimag": 3165, "Ġchallenges": 3166, "Ġ},": 3167, "Ġaim": 3168, "Ġcreat": 3169, "Ġnod": 3170, "ana": 3171, "Ġadult": 3172, "Ġcut": 3173, "Ġeffective": 3174, "AA": 3175, "Ġvi": 3176, "iny": 3177, "Ġcompl": 3178, "izes": 3179, "Ġmoney": 3180, "Ġop": 3181, "];": 3182, "Ġrate": 3183, "Value": 3184, "Ġcompletely": 3185, "Ġwait": 3186, "Ġdraw": 3187, "Ġpushed": 3188, "ĠSex": 3189, "LO": 3190, "Ġbelow": 3191, "itionally": 3192, "ĠCo": 3193, "Ġsimply": 3194, "Ġadditional": 3195, "Ġroll": 3196, "Ġmut": 3197, "oper": 3198, "Ġtechniques": 3199, "Ġnipples": 3200, ",'": 3201, "SS": 3202, "Ġthinking": 3203, "Ġbox": 3204, "resp": 3205, "iring": 3206, "band": 3207, "ĠUnited": 3208, "ĠPol": 3209, "Ġquestions": 3210, "Ġencour": 3211, "Ġcontinue": 3212, "Ġindustry": 3213, "sing": 3214, "ternal": 3215, "astic": 3216, "Ġcross": 3217, "bt": 3218, "Ġprofess": 3219, "from": 3220, "Ġbring": 3221, "curity": 3222, "Ġtypes": 3223, "ĠDes": 3224, "rang": 3225, "Rep": 3226, "Ġfant": 3227, "ĠOF": 3228, "Ġconvers": 3229, "aries": 3230, "My": 3231, "*.": 3232, "Is": 3233, "88": 3234, "69": 3235, "Ġincreasing": 3236, "nb": 3237, "Ġmatch": 3238, "coming": 3239, "Ġtrust": 3240, "Ġtechnology": 3241, "Ġbenefits": 3242, "arc": 3243, "Ġbroad": 3244, "Ġassess": 3245, "Mod": 3246, "Ġapplication": 3247, "md": 3248, "Ġregular": 3249, "hib": 3250, "ĠJust": 3251, "index": 3252, "ork": 3253, "Ġguys": 3254, "\".": 3255, "Ġtravel": 3256, "Ġcompan": 3257, "Ġsource": 3258, "Ġanaly": 3259, "\"><": 3260, "avig": 3261, "ped": 3262, "Ġclosed": 3263, "ĠĠĠĠĠĠĠĠĠĠĠĠĠĠĠĠĠĠĠĠ": 3264, "Ġcred": 3265, "Ġtraining": 3266, "include": 3267, "Ġrelated": 3268, "Ġbelieve": 3269, "actions": 3270, ",\\": 3271, "Ġcollect": 3272, "othes": 3273, "Ġeasy": 3274, "Ġbecame": 3275, "minist": 3276, ")\\": 3277, "\";": 3278, "ĠVal": 3279, "ĠMark": 3280, "Ġinnov": 3281, "http": 3282, "Ġload": 3283, "ponse": 3284, "Ġappropri": 3285, "ster": 3286, "Ġcommunication": 3287, "Wh": 3288, "Ġsent": 3289, "Ġoutside": 3290, "Ġreve": 3291, "Ġthemselves": 3292, "Ġaccom": 3293, "Ġpromot": 3294, "67": 3295, "Ġcomfort": 3296, "izations": 3297, "Ġfrequ": 3298, "ifying": 3299, "field": 3300, "ection": 3301, "There": 3302, "Ġexperiences": 3303, "ĠJan": 3304, "Ġ\\(": 3305, "Ġder": 3306, "Ġsimple": 3307, "come": 3308, "Ġescort": 3309, "ulate": 3310, "Ġlive": 3311, "gr": 3312, "Ġwide": 3313, "At": 3314, "ils": 3315, "artment": 3316, "Ġask": 3317, "Ġremember": 3318, "Ġpattern": 3319, "Ġdecision": 3320, "Ġmeeting": 3321, "wise": 3322, "Ġespecially": 3323, "ges": 3324, "Ġelements": 3325, "efore": 3326, "Ġcalc": 3327, "standing": 3328, "Ġwhis": 3329, "rix": 3330, "eq": 3331, "olutions": 3332, "hel": 3333, "Ġprevent": 3334, "illing": 3335, "Ð¸": 3336, "Ġslightly": 3337, "trans": 3338, "Ġsexy": 3339, "enly": 3340, "Ġsleep": 3341, "Ġpretty": 3342, "Ġran": 3343, "Sc": 3344, "Ġgently": 3345, "Ġpositive": 3346, "That": 3347, "ero": 3348, "Ġprec": 3349, "'),": 3350, "Ġcoming": 3351, "Ġ50": 3352, "Ġheight": 3353, "inks": 3354, "Ġways": 3355, "Ġinput": 3356, "Ġoffic": 3357, "ĠPar": 3358, "uments": 3359, "oose": 3360, "ĠAcc": 3361, "Ġfive": 3362, "Ġbur": 3363, "Ġthick": 3364, "48": 3365, "Ġdirectly": 3366, "Ġbottom": 3367, "Ġmiss": 3368, "Ġimm": 3369, "Ġ&&": 3370, "Ġgiving": 3371, "Ġrecomm": 3372, "asual": 3373, "Ġfirm": 3374, "All": 3375, "$,": 3376, "hood": 3377, "Ġproperty": 3378, "Ġaltern": 3379, "ball": 3380, "roduction": 3381, "Ġapart": 3382, "erous": 3383, "uge": 3384, "Ġcouple": 3385, "47": 3386, "Ġcho": 3387, "ĠâĢĺ": 3388, "otal": 3389, "Ġpractice": 3390, "pite": 3391, "ÑĤ": 3392, "Ġpopular": 3393, "ĠĠĠĠĠĠĠĠĠĠĠĠĠĠĠĠĠĠĠĠĠĠĠĠĠĠĠĠĠĠĠ": 3394, "istance": 3395, "Ġbook": 3396, "\",\"": 3397, "Ġemerg": 3398, "Ġliving": 3399, "ait": 3400, "Ġant": 3401, "Ġsoci": 3402, "ille": 3403, "ERT": 3404, "cles": 3405, "Ġsense": 3406, "Ind": 3407, "ĠFl": 3408, "asy": 3409, "Ġlearn": 3410, "enced": 3411, "Ġlimit": 3412, "Ġcomplete": 3413, "Ġkept": 3414, "asures": 3415, "Ġappreci": 3416, "68": 3417, "fil": 3418, "hens": 3419, "uth": 3420, "iment": 3421, "cd": 3422, "table": 3423, "Ġstraight": 3424, "apter": 3425, "rought": 3426, "encies": 3427, "rand": 3428, "erences": 3429, "ĠGet": 3430, "iddle": 3431, "ĠCount": 3432, "Ġcode": 3433, "Ġassert": 3434, "ica": 3435, "Ġincreased": 3436, "Ġrespond": 3437, "Ġlanguage": 3438, "ara": 3439, "Ġsays": 3440, "Ġbare": 3441, "Ġcapt": 3442, "Ġarm": 3443, "ĠMin": 3444, "itten": 3445, "idered": 3446, "NAME": 3447, "Ġinitial": 3448, "ĠDon": 3449, "Ġdifficult": 3450, "ufact": 3451, "Ġprote": 3452, "antly": 3453, "Ġmoving": 3454, "Ġdress": 3455, "Ġexpected": 3456, "ĠUnder": 3457, "Ġwidth": 3458, "ĠRev": 3459, "Ġnormal": 3460, "point": 3461, "Ġmusic": 3462, "nbsp": 3463, "Ġcloser": 3464, "istics": 3465, "ĠState": 3466, "Ġword": 3467, "Ġwar": 3468, "AG": 3469, "Ġstd": 3470, "US": 3471, "iling": 3472, "Ġmess": 3473, "Ġrelationships": 3474, "osed": 3475, "Ġdeg": 3476, "Ġthrust": 3477, "Ġrelax": 3478, "ĠFrom": 3479, "$.": 3480, "Ġsepar": 3481, "////////": 3482, "($": 3483, "void": 3484, "Ġgro": 3485, "sq": 3486, "Ġstyle": 3487, "arily": 3488, "ded": 3489, "Ġlikely": 3490, "ĠGe": 3491, "Ġtakes": 3492, "Ġgrad": 3493, "Ġpartner": 3494, "Ġrequires": 3495, "Ġblood": 3496, "ulated": 3497, "Ġsafety": 3498, "idel": 3499, "inct": 3500, "Ġaccording": 3501, "ĠAre": 3502, "Ġleading": 3503, "func": 3504, "Ġult": 3505, "adding": 3506, "Ġgrabb": 3507, "Ġgroups": 3508, "Ġconsidered": 3509, "Ġsweet": 3510, "Ġfell": 3511, "Ġintegr": 3512, "ĠNational": 3513, "Ġsudd": 3514, "Ġwatching": 3515, "Ġwaiting": 3516, "gt": 3517, "Ġdiv": 3518, "Ġhear": 3519, "FA": 3520, "Ġlad": 3521, "Ġensuring": 3522, "eper": 3523, "Ġgovernment": 3524, "Ġmember": 3525, "ĠDep": 3526, "ĠSim": 3527, "Ġhy": 3528, "Ġbutt": 3529, "Ġround": 3530, "Ġwatched": 3531, "31": 3532, "Ġframe": 3533, "ny": 3534, "Ġcy": 3535, "Ġattract": 3536, "Ġcollab": 3537, "Ġhistory": 3538, "map": 3539, "Ġvia": 3540, "iced": 3541, "ued": 3542, "ĠTrans": 3543, "49": 3544, "Ġtim": 3545, "count": 3546, "Ġcreating": 3547, "Ġmonths": 3548, "Ġisn": 3549, "IP": 3550, "nal": 3551, "iction": 3552, "ii": 3553, "Ġmention": 3554, "Ġstructure": 3555, "Ġkissed": 3556, "ĠCal": 3557, "ha": 3558, "ÂłÂł": 3559, "Ġcoun": 3560, "Ġdim": 3561, "ĠInst": 3562, "Yes": 3563, "zz": 3564, "Ġlov": 3565, "Ġcomponents": 3566, "Ġvibr": 3567, "Ġord": 3568, "Ġcenter": 3569, "Ġshows": 3570, "Or": 3571, "ival": 3572, "Ġver": 3573, "cho": 3574, "Please": 3575, "Ġprobably": 3576, "Ġtools": 3577, "Ġbath": 3578, "ĠIntern": 3579, "Ġconnection": 3580, "Ġweight": 3581, "Ġpolicy": 3582, "ĠSm": 3583, "based": 3584, "ĠĠĠĠĠĠĠĠĠĠĠĠĠĠĠĠĠĠĠĠĠĠ": 3585, "../../": 3586, "Ġmedia": 3587, "Ġeveryone": 3588, "Ġavoid": 3589, "lier": 3590, "sum": 3591, "rief": 3592, "oph": 3593, "Ġimage": 3594, "sl": 3595, "66": 3596, "ĠDE": 3597, "!!": 3598, "Ġpanties": 3599, "Not": 3600, "';": 3601, "state": 3602, "Ġnice": 3603, "with": 3604, "unch": 3605, "iance": 3606, "ĠDevelop": 3607, "Ġsha": 3608, "urch": 3609, "Ġaddition": 3610, "Ġnature": 3611, "icked": 3612, "tes": 3613, "Ġmessage": 3614, "Ġstream": 3615, "vis": 3616, "Ġutil": 3617, "App": 3618, "Ġinvolved": 3619, "Ġprep": 3620, "urope": 3621, "Ġmechan": 3622, "ĠEd": 3623, "ducing": 3624, "Ġsignificantly": 3625, "Ġsum": 3626, "uk": 3627, "77": 3628, "Ġpressure": 3629, "Ġmeaning": 3630, "bing": 3631, "Ġdat": 3632, "Ġphone": 3633, "Ġdynam": 3634, "Ġcry": 3635, "Ġmaterials": 3636, "Ġcases": 3637, "Par": 3638, "TR": 3639, "Ġfast": 3640, "Ġcannot": 3641, "Ġability": 3642, "ĠMr": 3643, "Ġstatic": 3644, "Ġcity": 3645, "ĠCity": 3646, "Ġdesigned": 3647, "Ġtreatment": 3648, "Ġ]": 3649, "ĠAb": 3650, "pace": 3651, "Ġsec": 3652, "ĠÎ": 3653, "Ġ?": 3654, "gy": 3655, "ĠRec": 3656, "Ġexactly": 3657, "Ġsecurity": 3658, "amed": 3659, "Ġcontract": 3660, "ĠSub": 3661, "oe": 3662, "Ar": 3663, "used": 3664, "Ġdriv": 3665, "Ġsal": 3666, "lish": 3667, "Ġfeed": 3668, "Ġclaim": 3669, "annel": 3670, "ï¬": 3671, "Ġaware": 3672, "Ġstandard": 3673, "Ġextra": 3674, "Ġhook": 3675, "ĠPre": 3676, "!âĢĿ": 3677, "ship": 3678, "ĠSee": 3679, "Ġdest": 3680, "Ġattempt": 3681, "Ġdocument": 3682, "Step": 3683, "One": 3684, "Ġfully": 3685, "Ġrequirements": 3686, "era": 3687, "empl": 3688, "Ġsurround": 3689, "ava": 3690, "ube": 3691, "Ġfn": 3692, "Ġtrack": 3693, "Ġsix": 3694, "ĠUser": 3695, "Ġpaper": 3696, "gor": 3697, "ensive": 3698, "Ġclit": 3699, "Ġones": 3700, "Ġmargin": 3701, "Pl": 3702, "osing": 3703, "ĠStates": 3704, "Ġge": 3705, "Ġbrought": 3706, "Ġ22": 3707, "Ġproced": 3708, "idden": 3709, "ĠGr": 3710, "());": 3711, "ithub": 3712, "Ġ<<": 3713, "miss": 3714, "rite": 3715, "Ġblock": 3716, "unk": 3717, "Ġalone": 3718, "Ġloss": 3719, "ius": 3720, "ĠPa": 3721, "Ġoccur": 3722, "alpha": 3723, "gram": 3724, "ĠEscorts": 3725, "ĠBack": 3726, "Ġparticularly": 3727, "Ġtraditional": 3728, "ependent": 3729, "Ġaspects": 3730, "igma": 3731, "Ġallowing": 3732, "}^{": 3733, "Ġcamp": 3734, "respond": 3735, "MM": 3736, "Ġtits": 3737, "Ġrunning": 3738, "rug": 3739, "Ġfont": 3740, "Ġ198": 3741, "dom": 3742, "Ġusually": 3743, "Ġappropriate": 3744, "Â°": 3745, "Ġdigital": 3746, "Ġreflect": 3747, "Ġfemale": 3748, "inner": 3749, "Ġrout": 3750, "Ġaccur": 3751, "Object": 3752, "like": 3753, "net": 3754, "Ġsuccessful": 3755, "mb": 3756, "Ġtemper": 3757, "Ð½": 3758, "ĠĠĠĠĠĠĠĠĠĠĠĠĠĠĠĠĠĠĠĠĠĠĠĠĠ": 3759, "ĠLic": 3760, "rugg": 3761, "acity": 3762, "ĠEl": 3763, "âī": 3764, "Ġcompared": 3765, "Ġitself": 3766, "Ġflex": 3767, "Ġstudies": 3768, "}$$": 3769, "Ġforce": 3770, "ocation": 3771, "79": 3772, "position": 3773, "rous": 3774, "Ġcoll": 3775, "Ġemb": 3776, "care": 3777, "En": 3778, "Ġsem": 3779, "Ġfire": 3780, "ĠDr": 3781, "Ġproduction": 3782, "Ġsmooth": 3783, "ensity": 3784, "Ġpage": 3785, "mp": 3786, "Ġknees": 3787, "Ġwebsite": 3788, "Ġconfig": 3789, "uct": 3790, "Ġevidence": 3791, "ops": 3792, "Ġconduct": 3793, "eah": 3794, "Ġinsights": 3795, "irit": 3796, "ĠMod": 3797, "Ġhus": 3798, "}{\\": 3799, "Ġimmediately": 3800, "Ġglobal": 3801, "Ġbehavior": 3802, "}\\_": 3803, "Ġscen": 3804, "Ġdetails": 3805, "']": 3806, "Ġhor": 3807, "Ġdeeper": 3808, "width": 3809, "Ġencoun": 3810, "Ġpartners": 3811, "Ġsteps": 3812, "nds": 3813, "Ġprocesses": 3814, "Ġopp": 3815, "Ġprofessional": 3816, "Ġtoy": 3817, "odies": 3818, "\\\\": 3819, "Ġtax": 3820, "Ġlate": 3821, "term": 3822, "down": 3823, "ambda": 3824, "Ġclim": 3825, "Ġcand": 3826, "Ġthighs": 3827, "ĠHealth": 3828, "Ġdecided": 3829, "Ġparty": 3830, "Ġtoward": 3831, "Ġsolid": 3832, "Ġyes": 3833, "Time": 3834, "CE": 3835, "error": 3836, "config": 3837, "Ġseries": 3838, "ooking": 3839, "gorith": 3840, "ians": 3841, "Ġpercent": 3842, "zing": 3843, "comp": 3844, "Ġapplications": 3845, "eter": 3846, "-\\": 3847, "ĠFurther": 3848, "Ġfit": 3849, "Ġeffects": 3850, "Ġmodern": 3851, "Ġoriginal": 3852, "Ġoffice": 3853, "arrow": 3854, "Ġwild": 3855, "tch": 3856, "())": 3857, "Test": 3858, "Ġsafe": 3859, "see": 3860, "irection": 3861, "ĠGener": 3862, "Ġing": 3863, "ABLE": 3864, "active": 3865, "gen": 3866, "char": 3867, "Ġproblems": 3868, "Ġrights": 3869, "ĠEurope": 3870, "++": 3871, "itude": 3872, "itation": 3873, "Ġrecent": 3874, "\"></": 3875, "Ġballs": 3876, "Ġgets": 3877, "Title": 3878, "sych": 3879, "59": 3880, "cast": 3881, "Ġincorpor": 3882, "resh": 3883, "Ġpassion": 3884, "Ġbul": 3885, "Ġremain": 3886, "Ġstaff": 3887, "Ġcountry": 3888, "Ġbecomes": 3889, "Ġviol": 3890, "=\\": 3891, "ĠSchool": 3892, "github": 3893, "Ġfre": 3894, "ls": 3895, "Ph": 3896, "max": 3897, "Ġwonder": 3898, "ĠAut": 3899, "Ġlegal": 3900, "Ġhost": 3901, "olds": 3902, ")(": 3903, ":**": 3904, "Ġautom": 3905, "Ġborder": 3906, "Ġshown": 3907, "Ġrelevant": 3908, "aching": 3909, "adem": 3910, "Ġsust": 3911, "Ġdesire": 3912, "Ġstopped": 3913, "FF": 3914, "Def": 3915, "ĠThrough": 3916, "Ġ...": 3917, "Ġfunctions": 3918, "bit": 3919, "icient": 3920, "rate": 3921, "Ġestim": 3922, "Ġaverage": 3923, "70": 3924, "Ġassum": 3925, "amma": 3926, "Ġpants": 3927, "Ġ);": 3928, "apan": 3929, "orage": 3930, "you": 3931, "Ġimportance": 3932, "Ġemail": 3933, "abilities": 3934, "Ġmoan": 3935, "ĠOver": 3936, "Ġappl": 3937, "ese": 3938, "Ġclothes": 3939, "works": 3940, "Ġmis": 3941, "OL": 3942, "Ġliter": 3943, "Ġhom": 3944, "Ġstates": 3945, "ĠDef": 3946, "Ġholding": 3947, "section": 3948, "ittee": 3949, "Ġactivity": 3950, "Ġrates": 3951, "|----------------": 3952, "Ġ23": 3953, "Ġadapt": 3954, "sk": 3955, "Ġ28": 3956, "Ġdistribution": 3957, "{{": 3958, "pid": 3959, "De": 3960, "ibly": 3961, "script": 3962, "Ġquant": 3963, "ocol": 3964, "istress": 3965, "Ġthird": 3966, "Ġlocation": 3967, "Ġcosts": 3968, "print": 3969, "Ġmanufact": 3970, "Ġanyone": 3971, "vey": 3972, "Ġdeal": 3973, "Ġwindow": 3974, "Ġadded": 3975, "CC": 3976, "idge": 3977, "Ġetc": 3978, "Ġshared": 3979, "Ġadvant": 3980, "do": 3981, "Ġ----": 3982, "IR": 3983, "58": 3984, "Ġissue": 3985, "Ġedge": 3986, "Ġcondition": 3987, "sec": 3988, "Ġpowerful": 3989, "Ġmedical": 3990, "Ġlost": 3991, "Ġhon": 3992, "Ġextrem": 3993, "ores": 3994, "aint": 3995, "ÑĢ": 3996, "Ġsolutions": 3997, "ĠFirst": 3998, "Ġspect": 3999, "json": 4000, "Ġdream": 4001, "ĠAdditionally": 4002, "Ġanswer": 4003, "Ġnotice": 4004, "icon": 4005, "ĠChe": 4006, "Well": 4007, "Ġfavor": 4008, "ĠMoreover": 4009, "mut": 4010, "Ġdefined": 4011, "inci": 4012, "Ġded": 4013, "function": 4014, "Ġgreater": 4015, "`,": 4016, "Ġhope": 4017, "js": 4018, "Ġsetting": 4019, "ae": 4020, "Ġsituation": 4021, "State": 4022, "ĠHar": 4023, "Ġsites": 4024, "Ġworked": 4025, "xx": 4026, "Ġprograms": 4027, "Ġcovered": 4028, "Qu": 4029, "ography": 4030, "Ġmorning": 4031, "Ġcorrespond": 4032, "Ġfollowed": 4033, "ĠTw": 4034, "istry": 4035, "change": 4036, "Ġhttp": 4037, "Ġadjust": 4038, "etic": 4039, "aughter": 4040, "pered": 4041, "Ġchoice": 4042, "Ġconclusion": 4043, "ĠSam": 4044, "Ġshap": 4045, "sm": 4046, "ament": 4047, "ĠWill": 4048, "input": 4049, "struct": 4050, "Ġhistor": 4051, "uary": 4052, "Ġgrabbed": 4053, "atal": 4054, "ĠÃ": 4055, "Ġcause": 4056, "Ġblue": 4057, "Ġvalid": 4058, "Ġri": 4059, "Ġslid": 4060, "Ġpref": 4061, "Ġwearing": 4062, "ership": 4063, "Ġhuge": 4064, "oms": 4065, "Ġemp": 4066, "Ġsurface": 4067, "bor": 4068, "Ġstim": 4069, "Ġpurch": 4070, "mu": 4071, "ategory": 4072, "phas": 4073, "Ġhappy": 4074, "Ġstudent": 4075, "pack": 4076, "irth": 4077, "Ġexpress": 4078, "First": 4079, "Ġworth": 4080, "ios": 4081, "Ġinstitut": 4082, "aled": 4083, "ĠTechn": 4084, "Ġopportunity": 4085, "Ġindex": 4086, "ingly": 4087, "Ġarch": 4088, "Ġsomet": 4089, "atively": 4090, "ĠGl": 4091, "mitted": 4092, "Ġmag": 4093, "Bl": 4094, "Ġwouldn": 4095, "ATION": 4096, "Ġstanding": 4097, "pril": 4098, "define": 4099, "Ġtail": 4100, "Ġversion": 4101, "Info": 4102, "stance": 4103, "Ġinstall": 4104, "ULT": 4105, "ĠSouth": 4106, "Ġplaced": 4107, "Ġlines": 4108, "Ġefforts": 4109, "Ġprint": 4110, "Ġnumbers": 4111, "Ġang": 4112, "kay": 4113, "Ġdiverse": 4114, "Ġmarketing": 4115, "ino": 4116, "Ġsoftware": 4117, "Ġvisit": 4118, "Ġiniti": 4119, "ilde": 4120, "Ġsuit": 4121, "After": 4122, "...\"": 4123, "Ġremains": 4124, "File": 4125, "Ġeasily": 4126, "Ġplanning": 4127, "Ġpolic": 4128, "Ġdefault": 4129, "Ġsus": 4130, "inciples": 4131, "Ġwra": 4132, "aur": 4133, "ĠRE": 4134, "pan": 4135, "mathbb": 4136, "Ġengine": 4137, "74": 4138, "çļ": 4139, "iously": 4140, "anks": 4141, "Ġstrength": 4142, "Ġcritical": 4143, "Ġinvestig": 4144, "Ġapprox": 4145, "formation": 4146, "Ġju": 4147, "Ġeye": 4148, "ĠChar": 4149, "public": 4150, "ptions": 4151, "Ġdemand": 4152, "Ġspeed": 4153, "urg": 4154, "Ġcorrect": 4155, "Ġlarger": 4156, "Request": 4157, "Ġten": 4158, "Ġproperties": 4159, "allow": 4160, "amples": 4161, "çļĦ": 4162, "Ġnetwork": 4163, "inate": 4164, "Ġcompre": 4165, "ĠSluts": 4166, "Ġfair": 4167, "Ġleaving": 4168, "ĠPe": 4169, "irr": 4170, "Ġmach": 4171, "ĠSpec": 4172, "icate": 4173, "Ġrules": 4174, "stitutes": 4175, "Ġfilled": 4176, "Ġoutput": 4177, "que": 4178, "Ġreceived": 4179, "ĠInter": 4180, "Ġled": 4181, "ipment": 4182, "Ġson": 4183, "Ġchat": 4184, "Ġorganizations": 4185, "Ġvisual": 4186, "Ġcommit": 4187, "ologies": 4188, "using": 4189, "ĠCommun": 4190, "irty": 4191, "Ġlooks": 4192, "pected": 4193, "Ġexisting": 4194, "ffect": 4195, "Ġsolution": 4196, "Ġsquee": 4197, "content": 4198, "Ġclub": 4199, "Ġparents": 4200, "Ġserve": 4201, "uate": 4202, "Ġdise": 4203, "New": 4204, "CL": 4205, "Ġearlier": 4206, "ada": 4207, "Ġhar": 4208, "ĠJune": 4209, "Ġ29": 4210, "Ġparts": 4211, "Ġstatus": 4212, "Do": 4213, "Ġrev": 4214, "Ġinvolves": 4215, "Ġexpression": 4216, "Ġ(*": 4217, "ĠBoard": 4218, "Ġseason": 4219, "Ġachieve": 4220, "ĠRed": 4221, "mon": 4222, "flow": 4223, "perty": 4224, "orge": 4225, "Ġglass": 4226, "Ġ40": 4227, "Ġcool": 4228, "rt": 4229, "Ġbaby": 4230, "Ġscream": 4231, "uel": 4232, "ĠMarch": 4233, "Ġmillion": 4234, "ayer": 4235, "};": 4236, "Ġclient": 4237, "Ġcore": 4238, "lim": 4239, "ĠMon": 4240, "ĠOff": 4241, "urance": 4242, "Ġ27": 4243, "item": 4244, "Ġqual": 4245, "Ã¡": 4246, "Ġteac": 4247, ".)": 4248, "ALU": 4249, "ĠOct": 4250, "Ġfucked": 4251, "Ġprogress": 4252, "Ġheat": 4253, "Ġstories": 4254, "Ġ/*": 4255, "Ġalthough": 4256, "Ġincluded": 4257, "Ġpan": 4258, "info": 4259, "Ġpair": 4260, "Config": 4261, "rain": 4262, "ĠRem": 4263, "ĠSw": 4264, "mathbf": 4265, "rest": 4266, "Ġcra": 4267, "Ġcreated": 4268, "ĠString": 4269, "Ñģ": 4270, "Ġpills": 4271, "aily": 4272, "ĠAug": 4273, "escription": 4274, "Ġharm": 4275, "Ġwrong": 4276, "Ġ||": 4277, "Ad": 4278, "Ġmagn": 4279, "}\\_{": 4280, "{{\\": 4281, "Man": 4282, "erve": 4283, "asturb": 4284, "ymbol": 4285, "Ġmine": 4286, "EY": 4287, "Ġrelease": 4288, "^{\\": 4289, "Ġfail": 4290, "='": 4291, "Ġtitle": 4292, "Ġcontain": 4293, "Ġmeasures": 4294, "Ġlives": 4295, "Ġthroat": 4296, "Ġrob": 4297, "Ġtip": 4298, "MP": 4299, "anging": 4300, "Ġregion": 4301, "Ġhusband": 4302, "Ġoption": 4303, "\"\"": 4304, "image": 4305, "men": 4306, "Ġhit": 4307, "hand": 4308, "ĠAnal": 4309, "ĠAng": 4310, "Ġfeature": 4311, "bre": 4312, "Ġjourney": 4313, "Ġ2018": 4314, "Ġstarting": 4315, "Ġstar": 4316, "Ġexerc": 4317, "Ġsun": 4318, "46": 4319, "Ġbusinesses": 4320, "Ġcustomer": 4321, "Ġactive": 4322, "Ġinternational": 4323, "Ġpatients": 4324, "Ð¾Ð": 4325, "ho": 4326, "Ġcunt": 4327, "Ġincludes": 4328, "Ġunc": 4329, "Ref": 4330, "example": 4331, "ÂłĊ": 4332, "ĠWorld": 4333, "ĠOnly": 4334, "link": 4335, "Ġsy": 4336, "Ġallowed": 4337, "Ġmaster": 4338, "ĠAust": 4339, "Text": 4340, "Ġgri": 4341, "Ġfather": 4342, "Ġnavig": 4343, "Ġmotion": 4344, "ula": 4345, "Ġ2017": 4346, "Le": 4347, "board": 4348, "icles": 4349, "Table": 4350, "Ġextract": 4351, "Ġshirt": 4352, "ĠDist": 4353, "########": 4354, "ĠĠĠĠĠĠĠĠĠĠĠĠĠĠĠĠĠĠĠĠĠĠĠĠĠĠĠĠ": 4355, "Ġsometimes": 4356, "Ġnote": 4357, "EST": 4358, "Ġloved": 4359, "raint": 4360, "SERT": 4361, "Ġjud": 4362, "Ġprimary": 4363, "Ġ26": 4364, "haps": 4365, "Ġcustomers": 4366, "ĠRet": 4367, "iliar": 4368, "Ġsister": 4369, "block": 4370, "ĠBar": 4371, "Ġactions": 4372, "porary": 4373, "inated": 4374, "Ġconcerns": 4375, "oly": 4376, "Ġexpert": 4377, "Ġitems": 4378, "ĠSet": 4379, "irtual": 4380, "ĠOur": 4381, "---|---|": 4382, "Ġmaybe": 4383, "Ġmaintaining": 4384, "^\\": 4385, "ĠNorth": 4386, "api": 4387, "Ġwritten": 4388, "ĠTHE": 4389, "56": 4390, "Ġcanc": 4391, "ĠStr": 4392, "ptember": 4393, "odes": 4394, "Ġsources": 4395, "ouncil": 4396, "ĠAf": 4397, "Ġwall": 4398, "Ġslave": 4399, "Ġpulling": 4400, "Ġnumerous": 4401, "gl": 4402, "osition": 4403, "iation": 4404, "Ġdouble": 4405, "View": 4406, "Ġprofession": 4407, "Ġtaste": 4408, "lin": 4409, "Ġcommunities": 4410, "apping": 4411, "Ġpun": 4412, "MA": 4413, "lean": 4414, "tered": 4415, "Ġcontribute": 4416, "cember": 4417, "ĠDirect": 4418, "Ġtalking": 4419, "Ġton": 4420, "rection": 4421, "ĠIS": 4422, "ĠApril": 4423, "Ġexcept": 4424, "Ġacqu": 4425, "inding": 4426, "ĠFurthermore": 4427, "Ġexecut": 4428, "last": 4429, "book": 4430, "now": 4431, "Ġnode": 4432, "EL": 4433, "42": 4434, "Ġexploring": 4435, "Ġtransport": 4436, "ĠHigh": 4437, "othing": 4438, "Ġcommand": 4439, "Ġnoticed": 4440, "Ġforms": 4441, "ribute": 4442, "Ġweak": 4443, "Ġmental": 4444, "57": 4445, "Ġwriting": 4446, "xi": 4447, "ĠSer": 4448, "Ġchoose": 4449, "Ġsuck": 4450, "angle": 4451, "EX": 4452, ">>": 4453, "Ġhappened": 4454, "ĠĠĠĠĠĠĠĠĠĠĠĠĠĠĠĠĠĠĠĠĠĠĠĠĠĠ": 4455, "///": 4456, "ret": 4457, "Ġsort": 4458, "Ġec": 4459, "Ġreceive": 4460, "Ġblond": 4461, "ĠRef": 4462, "Of": 4463, "ĠAND": 4464, "Ġhole": 4465, "Ġcopy": 4466, "case": 4467, "Ġcultural": 4468, "ĠST": 4469, "Ġhelps": 4470, "DS": 4471, "ĠHist": 4472, "ĠDav": 4473, "Â±": 4474, "Ġvag": 4475, "mat": 4476, "Dis": 4477, "iciency": 4478, "Ġprinciples": 4479, "Ġpicture": 4480, "Ġstom": 4481, "Report": 4482, "Ġfa": 4483, "Ġ31": 4484, "ĠCounty": 4485, "reate": 4486, "Ġdrive": 4487, "199": 4488, "Ġplaying": 4489, "ï¼Į": 4490, "Ġfine": 4491, "Ġlandsc": 4492, "Ġsuddenly": 4493, "title": 4494, "ĠOh": 4495, "Ġ2020": 4496, "anch": 4497, "Ġamaz": 4498, "Ġpurpose": 4499, "force": 4500, "Ġspeak": 4501, "PI": 4502, "doc": 4503, "ĠCr": 4504, "Ġvir": 4505, "result": 4506, "Ġshower": 4507, "Ġshape": 4508, "Ġupd": 4509, "ĠAc": 4510, "zy": 4511, "ĠMc": 4512, "%;": 4513, "overn": 4514, "Ġmil": 4515, "Ġwalk": 4516, "ups": 4517, "Ġsequ": 4518, "eration": 4519, "Ġ2016": 4520, "Ġbedroom": 4521, "```": 4522, "Ġquiet": 4523, "Ġconstruct": 4524, "Ġmap": 4525, "Ġlack": 4526, "Ġleaned": 4527, "Ġgraph": 4528, "Ġstrugg": 4529, "wide": 4530, "ĠJack": 4531, "Ġsed": 4532, "Ġinj": 4533, "Ġwaist": 4534, "Ġoperations": 4535, "Reg": 4536, "Let": 4537, "Ġdecl": 4538, "place": 4539, "raction": 4540, "Ġcaught": 4541, "Ġharder": 4542, "ĠLicense": 4543, "Ġapply": 4544, "Why": 4545, "Ġreplied": 4546, "Ġchance": 4547, "Ġball": 4548, "Ġcasual": 4549, "py": 4550, "Ġsucking": 4551, "Ġguess": 4552, "Ġalign": 4553, "Ġembr": 4554, "eps": 4555, "Path": 4556, "Ġplatforms": 4557, "Ġabsolut": 4558, "dev": 4559, "Ġsitting": 4560, "Code": 4561, "\":\"": 4562, "Ġpressed": 4563, "Ġtown": 4564, "ocked": 4565, "Ġpubl": 4566, "Ġadminist": 4567, "Ġgrin": 4568, "Ġgain": 4569, "Ġcompanies": 4570, "db": 4571, "Ġalgorith": 4572, "larg": 4573, "Ġbrother": 4574, "uations": 4575, "Ġbodies": 4576, "enty": 4577, "Ġsustain": 4578, "Ġoptim": 4579, "Ġmoaned": 4580, "Ġago": 4581, "Ġminim": 4582, "mar": 4583, "TER": 4584, "option": 4585, "Ġeffectively": 4586, "Ġolder": 4587, "ĠSince": 4588, "Ġrefer": 4589, "Ġje": 4590, "Ġprojects": 4591, "Ġcatch": 4592, "ancy": 4593, "big": 4594, "ĠNe": 4595, "Ġuns": 4596, "Ġprice": 4597, "Ġdeath": 4598, "hent": 4599, "oogle": 4600, "Ġnational": 4601, "Ġerotic": 4602, "Ġlimited": 4603, "Ġreturned": 4604, "Ġ2012": 4605, "Ġroad": 4606, "idelines": 4607, "Ġemphas": 4608, "create": 4609, "ĠEach": 4610, "ĠYork": 4611, "Ġdescribed": 4612, "ĠTO": 4613, "Ġthus": 4614, "Ġsaying": 4615, "Ġcounter": 4616, "à¦": 4617, "ĠJuly": 4618, "Ġstage": 4619, "âĪĪ": 4620, "ĉĉĉĉĉ": 4621, "Ġdifference": 4622, "Ġgrowing": 4623, "Ġsched": 4624, "Ġwants": 4625, "Ġinsp": 4626, "ĠEduc": 4627, "mt": 4628, "Ġwin": 4629, "Ġ2015": 4630, "Ġfinding": 4631, "ĠOf": 4632, "ename": 4633, "Ġbalance": 4634, "ĠPicture": 4635, "Ġnone": 4636, "Ġhol": 4637, "Ġthrow": 4638, "Ġestablished": 4639, "ashing": 4640, "Ġobvious": 4641, "ij": 4642, "ĠCouncil": 4643, "ĠTra": 4644, "inating": 4645, "len": 4646, "ades": 4647, "((": 4648, "Ġmiddle": 4649, "Ġhop": 4650, "aught": 4651, "Ġcro": 4652, "Form": 4653, "ĠResearch": 4654, "plications": 4655, "Ġexpos": 4656, "ĠTest": 4657, "Ġ2010": 4658, "Ġculture": 4659, "Ġ__": 4660, "ĠAugust": 4661, "Ġvac": 4662, "Ġmentioned": 4663, "Ġfigure": 4664, "Ġ\\\\": 4665, "asks": 4666, "uable": 4667, "lesh": 4668, "pty": 4669, "enses": 4670, "Ġneigh": 4671, "Ġparameters": 4672, "lambda": 4673, "itc": 4674, "OS": 4675, "Ġbrief": 4676, "Ġpatterns": 4677, "elebr": 4678, "stant": 4679, "Size": 4680, "Ġresponsible": 4681, "Ġrand": 4682, "ï¬ģ": 4683, "Ġinterested": 4684, "Ġenhancement": 4685, "ĠDating": 4686, "Ġ;": 4687, "ĠUnit": 4688, "Em": 4689, "Ġgoes": 4690, "Ġclients": 4691, "43": 4692, "Ġdecisions": 4693, "Ġpadding": 4694, "ĠSeptember": 4695, "Ġcold": 4696, "Ġhour": 4697, "Ġblow": 4698, "89": 4699, "Ã³": 4700, "Ġ2013": 4701, "41": 4702, "Ġshoulders": 4703, "From": 4704, "Ġspirit": 4705, "leg": 4706, "Ġfollows": 4707, "Ġdeveloped": 4708, "Up": 4709, "iveness": 4710, "ĠINTO": 4711, "Ġsets": 4712, "oom": 4713, "RA": 4714, "Event": 4715, "orry": 4716, "ĠData": 4717, "Ġexpand": 4718, "Ġstress": 4719, "Ġconcent": 4720, "Service": 4721, "ĠDecember": 4722, "Ġpiece": 4723, "._": 4724, "button": 4725, "Ġsluts": 4726, "Ġ2019": 4727, "Ġdevice": 4728, "Result": 4729, "Ġpolitical": 4730, "iam": 4731, "Ġattack": 4732, "Ġmasturb": 4733, "Ġdepend": 4734, "ĠUp": 4735, "Read": 4736, "rated": 4737, "Ġpresented": 4738, "Ġspecies": 4739, "Ġtypically": 4740, "Ġstomach": 4741, "Ġcountries": 4742, "xy": 4743, "ĠJanuary": 4744, "Ġestablish": 4745, "pective": 4746, "Ġnearly": 4747, "phi": 4748, "Ġidentify": 4749, "Ġseems": 4750, "abase": 4751, "Ġchair": 4752, "beta": 4753, "Ġbool": 4754, "post": 4755, "':": 4756, "Ġfeels": 4757, "Ġ});": 4758, "static": 4759, "Ġplayed": 4760, "obile": 4761, "Ġcard": 4762, "Ġbuilt": 4763, "Ġpopulation": 4764, "elled": 4765, "Ġeffort": 4766, "Ġresid": 4767, "core": 4768, "Ġboard": 4769, "Ġuses": 4770, "Ġprofile": 4771, "ears": 4772, "Ġeconomic": 4773, "vest": 4774, "style": 4775, "Ġstandards": 4776, "Ġfostering": 4777, "Ġchec": 4778, "gin": 4779, "Ġgreen": 4780, "[]": 4781, "ĠPublic": 4782, "node": 4783, "ocr": 4784, "Ġelement": 4785, "ĠTom": 4786, "ersion": 4787, "Ġ2011": 4788, "itely": 4789, "ncy": 4790, "ĠId": 4791, "ilon": 4792, "Ġlaugh": 4793, "Ġrepe": 4794, "ĠON": 4795, "Ġgives": 4796, "TH": 4797, "ĠKe": 4798, "ughed": 4799, "Ġrealized": 4800, "Ġpassed": 4801, "fficient": 4802, "Ġdisapp": 4803, ".</": 4804, "font": 4805, "CRE": 4806, "Ġlaughed": 4807, "Ġshaft": 4808, "ĠOctober": 4809, "Ġenter": 4810, "Ġoutcomes": 4811, "ĠPlan": 4812, "Ġarray": 4813, "53": 4814, "ĠInternational": 4815, "Ġsample": 4816, "Context": 4817, "Ġ/**": 4818, "Ġpool": 4819, ")]": 4820, "ovember": 4821, "Ġdrug": 4822, "Ġexperienced": 4823, "ham": 4824, "Ġreduce": 4825, "Ġeth": 4826, "Ġcomprehens": 4827, "aks": 4828, "Ġimpl": 4829, "Ġconnections": 4830, "partial": 4831, "Ġequipment": 4832, "Ġcomputer": 4833, "call": 4834, "ette": 4835, "ocking": 4836, "enge": 4837, "Î±": 4838, "ĠCON": 4839, "Ġwhispered": 4840, "PL": 4841, "Ġinformed": 4842, "going": 4843, "Ġveh": 4844, "ĠWell": 4845, "ialog": 4846, "Ġopening": 4847, "atever": 4848, "Ġbuy": 4849, "ipping": 4850, "asons": 4851, "ensions": 4852, "Ġbeginning": 4853, "ibrary": 4854, "Ġarriv": 4855, "Ġstore": 4856, "52": 4857, "arant": 4858, "ĠSection": 4859, "User": 4860, "Ġhttps": 4861, "ĠTherefore": 4862, "Ġcollege": 4863, "ĠOut": 4864, "Ġbrand": 4865, "Ġpolicies": 4866, "group": 4867, "MS": 4868, "Ġoffered": 4869, "Ġ2014": 4870, "Ġengagement": 4871, "Ġpet": 4872, "ama": 4873, "Ġdog": 4874, "rupt": 4875, "Ġresource": 4876, "ĠEv": 4877, "ĠDan": 4878, "ĠOR": 4879, "ĠPres": 4880, "Ġefficient": 4881, "ipl": 4882, "Equ": 4883, "Exception": 4884, "zed": 4885, "Ġfinished": 4886, "ĠJapan": 4887, "Ġspan": 4888, "Ġì": 4889, "plit": 4890, "atar": 4891, "ĠTheir": 4892, "ĠEX": 4893, "Ġbond": 4894, "Ġplans": 4895, "76": 4896, "Ġdistinct": 4897, "Ġthreat": 4898, "tag": 4899, "ervices": 4900, "Ġscene": 4901, "ĠEven": 4902, "web": 4903, "Ġsecret": 4904, "Ä±": 4905, "Ġgone": 4906, "Ġkissing": 4907, "ieved": 4908, "Ġign": 4909, "ĠNone": 4910, "Ġauto": 4911, "img": 4912, "Ġscient": 4913, "Ġwrite": 4914, "Ġgames": 4915, "Ø§": 4916, "Ġadvance": 4917, "Ġq": 4918, "ĠPark": 4919, "ario": 4920, "Ġspecifically": 4921, "ALUES": 4922, "Ġdistance": 4923, "ĠOther": 4924, "Ġpatient": 4925, "54": 4926, "ba": 4927, "Log": 4928, "Ġknowing": 4929, "pub": 4930, "Ġfacilit": 4931, "PR": 4932, "ĠDepartment": 4933, "HO": 4934, "known": 4935, "ĠBro": 4936, "icit": 4937, "oes": 4938, "build": 4939, "Ġdetermine": 4940, "Ġrecommend": 4941, "Ġpric": 4942, "Ġmix": 4943, "Ġstrategy": 4944, "Ġinternal": 4945, "Ġplant": 4946, "ĠCor": 4947, "ĠGerm": 4948, "Ġpul": 4949, "ync": 4950, "Ġhappen": 4951, "Ġloud": 4952, "ĠBec": 4953, "Ġtransfer": 4954, "hern": 4955, "INSERT": 4956, "Ġcoord": 4957, "isms": 4958, "ĠWhe": 4959, "Ġ2009": 4960, "ĠOnce": 4961, "ĠAfric": 4962, "Ġmid": 4963, "PS": 4964, "ĠFeb": 4965, "Ġfactor": 4966, "gn": 4967, "Ġcraft": 4968, "stances": 4969, "åı": 4970, "ĠDevelopment": 4971, "Out": 4972, "ounds": 4973, "Ġchem": 4974, "+\\": 4975, "Ġreading": 4976, ";&": 4977, "Ġshoulder": 4978, "ederal": 4979, "ini": 4980, "Ġdirection": 4981, "ĠPat": 4982, "inally": 4983, "\"]": 4984, "Ġtransl": 4985, "Ġarous": 4986, "stitute": 4987, "Ġreported": 4988, "Ġmovement": 4989, "Ġyield": 4990, "otes": 4991, "Ġsurrounding": 4992, "Ġpsych": 4993, "Ġrandom": 4994, "Ġsensitive": 4995, "Ġtoys": 4996, "ĠProgram": 4997, "Ġraised": 4998, "Ġgoals": 4999, "eline": 5000, "Ġtemperature": 5001, "Ġequal": 5002, "Be": 5003, "Ġseeing": 5004, "Ġpushing": 5005, "unction": 5006, "Ġdaily": 5007, "Ġtruly": 5008, "Ġnodded": 5009, "udget": 5010, "default": 5011, "df": 5012, "amily": 5013, ")$": 5014, "Ġmere": 5015, "Ġtele": 5016, "Ġsociety": 5017, "oon": 5018, "ESS": 5019, "uid": 5020, "Ġcontroll": 5021, "Ġvaluable": 5022, "Ġpal": 5023, "Ġles": 5024, "Ġnames": 5025, "Ġenvironmental": 5026, "ĠArt": 5027, "ĠWar": 5028, "IF": 5029, "ris": 5030, "Ġinches": 5031, "Ġbathroom": 5032, "They": 5033, "Ġpresence": 5034, "ĠĠĠĠĠĠĠĠĠĠĠĠĠĠĠĠĠĠĠĠĠĠĠĠĠĠĠĠĠĠ": 5035, "ga": 5036, "bon": 5037, "CK": 5038, "Index": 5039, "iable": 5040, "ĠSte": 5041, "ĠBen": 5042, "Ġcollection": 5043, "Ġcircum": 5044, "Ġorganization": 5045, "ĠĠĠĠĠĠĠĠĠĠĠĠĠĠĠĠĠĠĠĠĠĠĠĠĠĠĠĠĠ": 5046, "rim": 5047, "ĠAnn": 5048, "Ġlat": 5049, "73": 5050, "Ã¼": 5051, "icks": 5052, "Ġsoftly": 5053, "Ġchanged": 5054, "Ġadopt": 5055, "ĠRel": 5056, "ĠService": 5057, "alk": 5058, "âĢ¢": 5059, "Ent": 5060, "Ġcurrently": 5061, "Trans": 5062, "ĠStory": 5063, "Ġdiscover": 5064, "Ġcareer": 5065, "Ġclearly": 5066, "Node": 5067, "Ġconsistent": 5068, ".'": 5069, "start": 5070, "Ġtherefore": 5071, "Ġthoughts": 5072, "Ġspent": 5073, "cam": 5074, "ĠMass": 5075, "Ġnegative": 5076, "sigma": 5077, "ĠSE": 5078, "Ġremoved": 5079, "ows": 5080, "ĠEnglish": 5081, "Ġgoal": 5082, "Ġcaused": 5083, "Hand": 5084, "usiness": 5085, "ĠLocal": 5086, "aved": 5087, "ĠUse": 5088, "Ġbutton": 5089, "mark": 5090, "amm": 5091, "Ġ2021": 5092, "Ġfet": 5093, "72": 5094, "Ġimages": 5095, "level": 5096, "Ġfilm": 5097, "Ġproposed": 5098, "51": 5099, "usion": 5100, "ĠSch": 5101, "vention": 5102, "Ġrapid": 5103, "æľ": 5104, "Ġsmaller": 5105, "Ġur": 5106, "client": 5107, "Ġhandle": 5108, "uster": 5109, "ĠAssoci": 5110, "Ġactual": 5111, "Ġcompar": 5112, "90": 5113, "Ġcarry": 5114, "ĠYes": 5115, "Ġengage": 5116, "Ġheavy": 5117, "ĠManagement": 5118, "INT": 5119, "ĠThus": 5120, "Ġcontr": 5121, ")}": 5122, "Ġtow": 5123, "Ġanim": 5124, "à¥": 5125, "ĠVALUES": 5126, "Ġsession": 5127, "ĠAlthough": 5128, "ptr": 5129, "theta": 5130, "Ġprefer": 5131, "std": 5132, "Ġweeks": 5133, "Ġspot": 5134, "ĠBrit": 5135, "Ġillust": 5136, "Ġgent": 5137, "Ġpin": 5138, "Field": 5139, "Ġproceed": 5140, "align": 5141, "pm": 5142, "Ġobserved": 5143, "âĢ¦âĢ¦": 5144, "FAULT": 5145, ">,": 5146, "Ġwish": 5147, "orrow": 5148, "Ġoil": 5149, "Ġstuff": 5150, "Ġparties": 5151, "Ġcomment": 5152, "Ġpump": 5153, "Ġtheory": 5154, "ĠNovember": 5155, "Ġgay": 5156, "Ġitem": 5157, "Count": 5158, "Ġfaster": 5159, "ãĢĤ": 5160, "yles": 5161, "idate": 5162, "Ġcomponent": 5163, "*/": 5164, "ruary": 5165, "Ġtour": 5166, "icip": 5167, "Ġrisks": 5168, "Ġrich": 5169, "Ġlocated": 5170, "Date": 5171, "ĠUnderstanding": 5172, "Ġconstant": 5173, "abled": 5174, "summary": 5175, "Ġpick": 5176, "Sub": 5177, "Ġtask": 5178, "Ġtherap": 5179, "ructure": 5180, "ĠAtt": 5181, "ĠLa": 5182, "lig": 5183, "Ġfat": 5184, "Ġresulting": 5185, "aa": 5186, "Ġ2008": 5187, "icated": 5188, "Client": 5189, "Ġplays": 5190, "Ġprotection": 5191, "ĠBlack": 5192, "ĠEvery": 5193, "Ġfocusing": 5194, "anned": 5195, "Ġrow": 5196, "Ġcertainly": 5197, "rec": 5198, "ĠList": 5199, "olving": 5200, "Ġvert": 5201, "Ġhorn": 5202, "inder": 5203, "Ġinner": 5204, "ĠLaw": 5205, "iber": 5206, "lor": 5207, "height": 5208, "Ġreleased": 5209, "Ġshot": 5210, "DO": 5211, "ĠAS": 5212, "Ġfeelings": 5213, "Ġseconds": 5214, "urrent": 5215, "Ġforth": 5216, "Ġcolumn": 5217, "Ġ60": 5218, "uffer": 5219, "ĠWho": 5220, "Ġrat": 5221, "largement": 5222, "Response": 5223, "array": 5224, "Ġapproaches": 5225, "Ġhadn": 5226, "Ġoperation": 5227, "Ġwear": 5228, "ĠNet": 5229, ">(": 5230, "Ġbeauty": 5231, "Ġbasis": 5232, "Ġdriving": 5233, "ĠJe": 5234, "ictures": 5235, "Ġbasic": 5236, "Ġ32": 5237, "Ġteen": 5238, "resents": 5239, "Ġfear": 5240, "Ġband": 5241, "Ġque": 5242, "Ġcomfortable": 5243, "Ġcarefully": 5244, "Ġcapital": 5245, "Ġrot": 5246, "Ġscale": 5247, "Ġapplied": 5248, "ĠWest": 5249, "Ġfig": 5250, "Ġcelebr": 5251, "Ġotherwise": 5252, "Ġassist": 5253, "ronic": 5254, "Ġ[]": 5255, "Ġgod": 5256, "Ġgenerally": 5257, "Fr": 5258, "png": 5259, "Your": 5260, "length": 5261, "Ser": 5262, "Ġbo": 5263, "ĠPen": 5264, "CTION": 5265, "Ġindependent": 5266, "ibilities": 5267, "osen": 5268, "MENT": 5269, "ĠAlex": 5270, "Ġagreed": 5271, "Don": 5272, "ĠTod": 5273, "ford": 5274, "Ġdry": 5275, "86": 5276, "uality": 5277, "overy": 5278, "ĠCommission": 5279, "Ġcheeks": 5280, "Ġphase": 5281, "Ġalternative": 5282, "Ġcontains": 5283, "ĠGroup": 5284, "rench": 5285, "Ġvul": 5286, "Ġbes": 5287, "model": 5288, "inger": 5289, "Ġformat": 5290, "what": 5291, "ĠGovern": 5292, "ä»": 5293, "Ġmemory": 5294, "ifications": 5295, "Ġsend": 5296, "Ġ2007": 5297, "Ġconv": 5298, "Ġsuff": 5299, "Ġinterpre": 5300, "ponent": 5301, "2018": 5302, "Ġsharing": 5303, "Ġroot": 5304, "ersonal": 5305, "ĠFe": 5306, "tenance": 5307, "Ġà¤": 5308, "cing": 5309, "Ġlust": 5310, "Ġconstruction": 5311, "itchen": 5312, "ague": 5313, "Ġrig": 5314, "Class": 5315, "${": 5316, "Ġpoly": 5317, "Ġvideos": 5318, "ĠAD": 5319, "itect": 5320, "CR": 5321, "Her": 5322, "rics": 5323, "Ġpredict": 5324, "iant": 5325, "rial": 5326, "\\_\\": 5327, "oman": 5328, "Ġrock": 5329, "ĠCam": 5330, "Ġwhose": 5331, "Ġdevices": 5332, "Ġinfluence": 5333, "parent": 5334, "num": 5335, "year": 5336, "ael": 5337, "Ġsatisfaction": 5338, "select": 5339, "Ġeat": 5340, "Att": 5341, "mathrm": 5342, "ĠChristian": 5343, "job": 5344, "Ġmaximum": 5345, "Ġlies": 5346, "Ġrubbing": 5347, "Ġscreen": 5348, "Ġcat": 5349, "bian": 5350, "Ġdisease": 5351, "ĠWhy": 5352, "ĠBackpage": 5353, "ĠGeneral": 5354, "ervation": 5355, "ĠStre": 5356, "Over": 5357, "Ġplaces": 5358, "fra": 5359, "expected": 5360, "Ġbenefit": 5361, "Ġpaid": 5362, "quad": 5363, "Ġnerv": 5364, "ĠMich": 5365, "oul": 5366, "Ġnov": 5367, "IST": 5368, "CON": 5369, "Ġconsequ": 5370, "Ġsight": 5371, "CA": 5372, "Ġcharge": 5373, "ĠLab": 5374, "Ġclin": 5375, "Ġdrink": 5376, "Message": 5377, "Ġdespite": 5378, "Ġarrang": 5379, "CS": 5380, "Ġshif": 5381, "antic": 5382, "Map": 5383, "Ġep": 5384, "Ġcareful": 5385, "Ġprofessionals": 5386, "Ġplayers": 5387, "Ġobtained": 5388, "Are": 5389, "LL": 5390, "ĠEnc": 5391, "version": 5392, "ĠAustral": 5393, "Ġwid": 5394, "making": 5395, "orough": 5396, "Ġfields": 5397, "arter": 5398, "Ġmoments": 5399, "Ġgold": 5400, "**:": 5401, "ivil": 5402, "clusive": 5403, "DB": 5404, "âĪ£": 5405, "rivate": 5406, "Ġfresh": 5407, "Ġinvolve": 5408, "Ġideas": 5409, "}}\\": 5410, "ĠCommittee": 5411, "Ġcommitment": 5412, "aign": 5413, "gar": 5414, "Ġhighly": 5415, "pc": 5416, "Ġ+=": 5417, "Ġpromoting": 5418, "vision": 5419, "Ġsettings": 5420, "ĠWomen": 5421, "Ġguide": 5422, "ÃŃ": 5423, "Ġoccas": 5424, "Ġhurt": 5425, "ena": 5426, "Ġfight": 5427, "Ġantic": 5428, "Ġrepresents": 5429, "Ġ($": 5430, "Ġdeliver": 5431, "ormal": 5432, "init": 5433, "Ġsecure": 5434, "Ġseat": 5435, "Ġvariety": 5436, "itory": 5437, "poses": 5438, "gment": 5439, "EE": 5440, "Ġknows": 5441, "Item": 5442, "stream": 5443, "lear": 5444, "ĠGo": 5445, "ML": 5446, "Ġshowed": 5447, "Ġconversation": 5448, "Ġrelative": 5449, "tilde": 5450, "ĠHere": 5451, "Ġjump": 5452, "Ġpros": 5453, "Ġsrc": 5454, "ĠCompany": 5455, "Ġexception": 5456, "Ġring": 5457, "ĠEducation": 5458, "ĠKing": 5459, "Fl": 5460, "Ġsucked": 5461, "ĠCenter": 5462, "eful": 5463, "61": 5464, "base": 5465, "Ġdetect": 5466, "ĠName": 5467, "Ġskirt": 5468, "ĠMary": 5469, "Ġemotional": 5470, "Ġdesires": 5471, "Ġprepar": 5472, "Ġdaughter": 5473, "Ġrelig": 5474, "Ġincred": 5475, "Ġfamiliar": 5476, "Ġbrain": 5477, "bottom": 5478, "Ġcapacity": 5479, "Course": 5480, "ĠMaster": 5481, "ĠDem": 5482, "alle": 5483, "ĠPaul": 5484, "emporary": 5485, "63": 5486, "*(": 5487, "Ġdeveloping": 5488, "dir": 5489, "Ġselection": 5490, "Ġwrapped": 5491, "Ġdecre": 5492, "Ġrough": 5493, "ĠMat": 5494, "free": 5495, "erved": 5496, "osh": 5497, "ĠInc": 5498, "Ã¶": 5499, "ĠServices": 5500, "Ġgentle": 5501, "know": 5502, "^{-": 5503, "ĠFebruary": 5504, "Ġofficial": 5505, "ypes": 5506, "Ġhistorical": 5507, "Ġmuscles": 5508, "Ġrule": 5509, "Ġflesh": 5510, "ĠTable": 5511, "ville": 5512, "exp": 5513, "Ġworry": 5514, "ĠMem": 5515, "Ġmount": 5516, "Ġtend": 5517, "ĠÂ·": 5518, "ĠTABLE": 5519, "Ġcells": 5520, "aid": 5521, "Ġevening": 5522, "Ġdrop": 5523, "!(": 5524, "anger": 5525, "Ġreduced": 5526, "Ġdeb": 5527, "ulating": 5528, "status": 5529, "ĠCour": 5530, "Ġbecoming": 5531, "assert": 5532, "Ġdeeply": 5533, "ns": 5534, "Ġminute": 5535, "Arr": 5536, "Ġ33": 5537, "leq": 5538, "Ġ(\"": 5539, "ĠDavid": 5540, "Ġdild": 5541, "Ġguarant": 5542, "Ġshit": 5543, "ĠII": 5544, "Ġwood": 5545, "Ġhighlight": 5546, "Ġarticle": 5547, "iform": 5548, "2019": 5549, "gamma": 5550, "\"),": 5551, "Ġintr": 5552, "sqrt": 5553, "Ġhung": 5554, "[\"": 5555, "Ġlick": 5556, "Ġconflic": 5557, "Ġhealthcare": 5558, "unning": 5559, "Ġidentity": 5560, "Ġburn": 5561, "Ġensures": 5562, "nav": 5563, "ĠMus": 5564, "Ġblonde": 5565, "ilies": 5566, "ĠMiss": 5567, "Ġexcit": 5568, "Ġexcell": 5569, "Ġprepared": 5570, "ĠSec": 5571, "Ġadvent": 5572, "Ass": 5573, "ya": 5574, "uous": 5575, "Last": 5576, "Ġinterests": 5577, "icking": 5578, "itoring": 5579, "Ġultimately": 5580, "attle": 5581, "ka": 5582, "Ġshowing": 5583, "ĠMad": 5584, "fn": 5585, "contain": 5586, "vere": 5587, "Ġ([": 5588, "ĠConf": 5589, "Ġenables": 5590, "Ġhidden": 5591, "Ġefficiency": 5592, "Ġintense": 5593, "Ġhyp": 5594, "62": 5595, "bolds": 5596, "uddy": 5597, "ĠBre": 5598, "soft": 5599, "Ġplayer": 5600, "95": 5601, "Ġserious": 5602, "UP": 5603, "Ġteeth": 5604, "Ġmanaged": 5605, "rive": 5606, "Ġcert": 5607, "Ġfixed": 5608, "isl": 5609, "Ġbreathing": 5610, "ishes": 5611, "Ġgaz": 5612, "how": 5613, "Another": 5614, "arah": 5615, "ĠDel": 5616, "ĠCH": 5617, "Ġtiny": 5618, "Ġlabel": 5619, "ui": 5620, "Ġanticip": 5621, "Status": 5622, "Ġcorner": 5623, "Ġdiscussion": 5624, "85": 5625, "gress": 5626, "oving": 5627, "Ġregist": 5628, "Ġcharg": 5629, "Ġengaging": 5630, "Ġ2006": 5631, "ĠMain": 5632, "Ġtrends": 5633, "Ġ};": 5634, "uccess": 5635, "Ġnews": 5636, "Ġexcited": 5637, "Ġexciting": 5638, "ĠIntroduction": 5639, "Ġflat": 5640, "Ġmeant": 5641, "Ġvital": 5642, "ĠJames": 5643, "Ġerection": 5644, "Ġnude": 5645, "ĠPract": 5646, "ooks": 5647, "ĠReport": 5648, "Ġdepth": 5649, "ĠAccording": 5650, "äº": 5651, "Ġdegree": 5652, "Ġmicro": 5653, "spec": 5654, "ipe": 5655, "ellig": 5656, "Ġexternal": 5657, "Ġhell": 5658, "delta": 5659, "Ġmarried": 5660, "84": 5661, "Call": 5662, "ĠPost": 5663, "ĠTime": 5664, "Ġpoor": 5665, "acters": 5666, "encing": 5667, "Ġletting": 5668, "Ġwel": 5669, "DA": 5670, "pg": 5671, "Back": 5672, "Ġdoll": 5673, "check": 5674, "Ġoffering": 5675, "Ġnipple": 5676, "III": 5677, "ĠClass": 5678, "Ġenjoying": 5679, "Ġkitchen": 5680, "Ġhur": 5681, "eless": 5682, "Ġforced": 5683, "Ġliked": 5684, "Ġexhib": 5685, "Ġinvestment": 5686, "ĠMen": 5687, "Ġpublished": 5688, "Ġprem": 5689, "ĠAnt": 5690, "Ġjoin": 5691, "Ġdetermined": 5692, "Ġupper": 5693, "HT": 5694, "Ġtesting": 5695, "\\\"": 5696, "Ġcredit": 5697, "ĠGirl": 5698, "Ġobjects": 5699, "Comm": 5700, "weight": 5701, "ests": 5702, "Ġconsult": 5703, "names": 5704, "Ġcentral": 5705, "anda": 5706, "Ġvict": 5707, "Ġerect": 5708, "Ġcollaboration": 5709, "Ġscience": 5710, "ĠExpl": 5711, "Ġvary": 5712, "Ġimplementation": 5713, "ĠEuropean": 5714, "Ġcausing": 5715, "Inter": 5716, "Ġpink": 5717, "long": 5718, "bm": 5719, "non": 5720, "Ġdesired": 5721, "Ġstars": 5722, "Ġinteresting": 5723, "ERS": 5724, "host": 5725, "Ġzero": 5726, "ondon": 5727, "sed": 5728, "Ġhous": 5729, "Ġstructures": 5730, "Ġwit": 5731, "Ġsupply": 5732, "ĠSuch": 5733, "Ġdead": 5734, "stitution": 5735, "views": 5736, "uman": 5737, ",,": 5738, "Ġhab": 5739, "main": 5740, "ella": 5741, "hole": 5742, "asts": 5743, "boldsymbol": 5744, "Ġemployees": 5745, "estern": 5746, "Ġcamera": 5747, "la": 5748, "âĨ": 5749, "ocket": 5750, "ctors": 5751, "ĠSur": 5752, "valid": 5753, "oin": 5754, "Ġpossess": 5755, "Ġprivacy": 5756, "Ġdoc": 5757, "Ġchallenge": 5758, "Ġremove": 5759, "Ġdamage": 5760, "ĠDEFAULT": 5761, "alt": 5762, "ournal": 5763, "Ġswallow": 5764, "rum": 5765, "Ġecho": 5766, "Ġmanage": 5767, "ĠConsider": 5768, "ita": 5769, "ressing": 5770, "ributes": 5771, "ĠBuild": 5772, "ushing": 5773, "jac": 5774, "agon": 5775, "ameter": 5776, "emplate": 5777, "ding": 5778, "object": 5779, "php": 5780, "Ġformer": 5781, "icious": 5782, "Ġupdate": 5783, "Ġslipped": 5784, "under": 5785, "Ġincome": 5786, "Select": 5787, "pes": 5788, "Ġlicked": 5789, "filename": 5790, "Ġconsidering": 5791, "nel": 5792, "PA": 5793, "arp": 5794, "Me": 5795, ":\"": 5796, "Ġshut": 5797, "first": 5798, "ĠMom": 5799, "Ġnarr": 5800, "ifies": 5801, "Ġlandscape": 5802, "fit": 5803, "fa": 5804, "tings": 5805, "ĠForm": 5806, "Ġlink": 5807, "Ġpictures": 5808, "Ġenable": 5809, "Ġturning": 5810, "Ġpromote": 5811, "Ġavatar": 5812, "ado": 5813, "ĠPlease": 5814, "Ġperhaps": 5815, "source": 5816, "Ġwilling": 5817, "ĠLike": 5818, "Ġenth": 5819, "Ġselected": 5820, "Pr": 5821, "Ġequation": 5822, "Ġparticipants": 5823, "cs": 5824, "Ġfulf": 5825, "Ġcontinuous": 5826, "ĠIts": 5827, "Ġelectric": 5828, "header": 5829, "Ġeight": 5830, "Ġsmell": 5831, "ĠOnline": 5832, "Ġoptimal": 5833, "UM": 5834, "Ġbigger": 5835, "Conclusion": 5836, "ĠMost": 5837, "çĶ": 5838, "Ġcop": 5839, "Ġreference": 5840, "Ġconver": 5841, "Ġadvanced": 5842, "ĠSk": 5843, "!--": 5844, "ĠKey": 5845, "Ġkeeping": 5846, "Ġlifted": 5847, "Ġimproved": 5848, "Ġpositions": 5849, "Ġserves": 5850, "iday": 5851, "Ġpursu": 5852, "atically": 5853, "Ġstatement": 5854, "Ġaren": 5855, "Ġboys": 5856, "ĠDet": 5857, "Ġproduce": 5858, "can": 5859, "ifier": 5860, "Ġexcitement": 5861, "Ġlicking": 5862, "Introduction": 5863, "roy": 5864, "NO": 5865, "500": 5866, "thm": 5867, "ĠReview": 5868, "export": 5869, "Ġstarts": 5870, "Ġ(!": 5871, "Ġdescription": 5872, "Ġlady": 5873, "Ġslut": 5874, "pass": 5875, "ĠAny": 5876, "Ġwind": 5877, "Ġinsert": 5878, "Ġsweat": 5879, "Ġtransition": 5880, "Ġjer": 5881, "Ġcrit": 5882, "ĠRuss": 5883, "Build": 5884, "Ġ\\)": 5885, "Ġconcepts": 5886, "Model": 5887, "urity": 5888, "och": 5889, "Ġreality": 5890, "Ġadvantage": 5891, "71": 5892, "Ġappoint": 5893, "null": 5894, "Ġwhatever": 5895, "Ġahead": 5896, "annels": 5897, "Ġreasons": 5898, "98": 5899, "Ġbehavi": 5900, "Ġsurprise": 5901, "ashed": 5902, "||": 5903, "Ġinvolving": 5904, "Ġeducational": 5905, "pare": 5906, "Ġamazing": 5907, "isa": 5908, "Ġpreferences": 5909, "cdot": 5910, "Ġreducing": 5911, "elly": 5912, "Ġtruth": 5913, "asp": 5914, "Ġsales": 5915, "orem": 5916, "}.": 5917, "ros": 5918, "Ġbag": 5919, "Ġtonight": 5920, "Ġgrant": 5921, "ride": 5922, "Ġacadem": 5923, "ultural": 5924, "Ġstated": 5925, "Ġexists": 5926, "ico": 5927, "sim": 5928, "ilitary": 5929, "PO": 5930, "Ġ2005": 5931, "usi": 5932, "ĠJul": 5933, "Ġcomprehensive": 5934, "rees": 5935, "Ġinstr": 5936, "Ġsounds": 5937, "hemat": 5938, "Ġdifferences": 5939, "ĠCollege": 5940, "Delta": 5941, "Rec": 5942, "Ġaddressing": 5943, "ĠInstead": 5944, "Ġideal": 5945, "bin": 5946, "Ġbright": 5947, "ivery": 5948, "*-": 5949, "ien": 5950, "Ġbene": 5951, "sequently": 5952, "./": 5953, "Ġlaid": 5954, "While": 5955, "Ġfeedback": 5956, "ĠProv": 5957, "ĠFOR": 5958, "iforn": 5959, "Ġbill": 5960, "Ġparameter": 5961, "ĠDistrict": 5962, "den": 5963, "åĪ": 5964, "Ġdressed": 5965, "Ġvirtual": 5966, "Ġprocedures": 5967, "lication": 5968, "ĠJes": 5969, "ĠStrateg": 5970, "acement": 5971, "ĠSan": 5972, "Ġfasc": 5973, "Ġbirth": 5974, "ĠLeg": 5975, "adow": 5976, "Ġdropped": 5977, "ĠProject": 5978, "inition": 5979, "Ġbott": 5980, "holders": 5981, "Ġmachine": 5982, "olve": 5983, "Ġentry": 5984, "osis": 5985, "ĠMor": 5986, "Ġfocused": 5987, "PT": 5988, "Ġdetail": 5989, "ospital": 5990, "Ġ#[": 5991, "rho": 5992, "Ġtasks": 5993, "Ġintric": 5994, "Ġvariables": 5995, "Ġsides": 5996, "ĠFinally": 5997, "aly": 5998, "Ġbackpage": 5999, "Ġliqu": 6000, "ĠBusiness": 6001, "Ġdefinitely": 6002, "raints": 6003, "times": 6004, "Ġidentified": 6005, "Ġrobust": 6006, "Ġshorts": 6007, "Ġincreasingly": 6008, "ĠMany": 6009, "Ġencounter": 6010, "Aut": 6011, "lib": 6012, "mem": 6013, "Ġsong": 6014, "Ġbelong": 6015, "Ġstepped": 6016, "Where": 6017, "ĠStand": 6018, "house": 6019, "Ġdelight": 6020, "cript": 6021, "Ġcourt": 6022, "Ġcollabor": 6023, "Ġdra": 6024, "ĠExper": 6025, "ĠFig": 6026, "Ġwave": 6027, "ĠEN": 6028, "Ġfloat": 6029, "pat": 6030, "ĠIndian": 6031, "Su": 6032, "arrass": 6033, "icing": 6034, "Ġteams": 6035, "Ġlip": 6036, "Ġentered": 6037, "orous": 6038, "space": 6039, "Ġtechnologies": 6040, "ĠSat": 6041, "Ġmedic": 6042, "ĠWeb": 6043, "kit": 6044, "cm": 6045, "ĠRob": 6046, "Ġconnected": 6047, "Ġmatrix": 6048, "wood": 6049, "Ġthin": 6050, "Ġwalking": 6051, "ĠDesign": 6052, "ĠProf": 6053, "Ġsignificance": 6054, "Ġtree": 6055, "/**": 6056, "src": 6057, "Ġimagine": 6058, "Ġprop": 6059, "Ġvel": 6060, "Ġsubstant": 6061, "OO": 6062, "Ġinnovation": 6063, "inese": 6064, "Acc": 6065, "duces": 6066, "Ġelev": 6067, "Ġfiles": 6068, "ĠDiv": 6069, "otten": 6070, "het": 6071, "Ġcouch": 6072, "Ed": 6073, "ĠCare": 6074, "nes": 6075, "ilarly": 6076, "Ġpressing": 6077, "More": 6078, "rid": 6079, "Ġtick": 6080, "Ð»": 6081, "oz": 6082, "true": 6083, "Ġgal": 6084, "Act": 6085, "current": 6086, "tau": 6087, "aming": 6088, "dro": 6089, "Ġexposed": 6090, "Section": 6091, "aning": 6092, "({": 6093, "ĠBoth": 6094, "ĠWhether": 6095, "QU": 6096, "Ġconfidence": 6097, "Ġenhancing": 6098, "Ġfamilies": 6099, "tw": 6100, "Ġbrown": 6101, "Ġchallenging": 6102, "UB": 6103, "Ġempty": 6104, "Ġtailored": 6105, "addy": 6106, "Ġdiscussed": 6107, "Ġentertain": 6108, "Ġtall": 6109, "][": 6110, "å®": 6111, "Ġenlargement": 6112, "Ġlearned": 6113, "ruit": 6114, "args": 6115, "Ġsorry": 6116, "iteria": 6117, "Ġstorage": 6118, "Ġended": 6119, "aker": 6120, "Ġforg": 6121, "Ġsymbol": 6122, "Per": 6123, "never": 6124, "------------------------": 6125, "Ġroles": 6126, "Ġexamine": 6127, "ĠWork": 6128, "Ġinch": 6129, "request": 6130, "Ġsurprised": 6131, "Ġhorny": 6132, "ĠDate": 6133, "Ġthorough": 6134, "Ġpurposes": 6135, "Ġmode": 6136, "Ġdefinition": 6137, "Ġvulner": 6138, "ĠCourt": 6139, "Ġrefers": 6140, "Ġuseful": 6141, "Che": 6142, "arth": 6143, "Color": 6144, ">&": 6145, "Ġstrategic": 6146, "Ġvs": 6147, "Ġdinner": 6148, "Ġenjoyed": 6149, "oding": 6150, "ifornia": 6151, "Ġrecently": 6152, "Yeah": 6153, "lock": 6154, "Ġlinear": 6155, "Ġfill": 6156, "SP": 6157, "Ġagreement": 6158, "Ġpolit": 6159, "onom": 6160, "ses": 6161, "Then": 6162, "essions": 6163, "Ġ${\\": 6164, "Ġexchange": 6165, "Ġmirr": 6166, "nection": 6167, "Ġmulti": 6168, "cons": 6169, "Ġ()": 6170, "Ġir": 6171, "Ġstroke": 6172, "NA": 6173, "Ġongoing": 6174, "2017": 6175, "Ġbeneath": 6176, "Ġfantas": 6177, "kes": 6178, "Ġcast": 6179, "Ġcarried": 6180, "Ġprinc": 6181, "ounced": 6182, "Ġdensity": 6183, "IB": 6184, "Ġreven": 6185, "Ġshoot": 6186, "Group": 6187, "Ġembarrass": 6188, "Ġdefine": 6189, "rie": 6190, "rian": 6191, "itiz": 6192, "Ġtrou": 6193, "Ġchanging": 6194, "Ġexpectations": 6195, "Ġgirlfriend": 6196, "Ġrolled": 6197, "Ġcompliance": 6198, "ĠRich": 6199, "Ġdance": 6200, "ĠVol": 6201, "87": 6202, "eling": 6203, "Ġseed": 6204, "Ġunless": 6205, "izz": 6206, "inations": 6207, "Ġbudget": 6208, "Ġshook": 6209, "lections": 6210, "world": 6211, "Ġincorporating": 6212, "ector": 6213, "Ġassets": 6214, "Ġdiagn": 6215, "////////////////": 6216, "Ġeager": 6217, "Ġpicked": 6218, "abling": 6219, "Ġcentury": 6220, "Ġ35": 6221, "message": 6222, "âĤ": 6223, "ĠPower": 6224, "ĠAmerica": 6225, "Ġdescribe": 6226, "Ġtrade": 6227, "Ġattend": 6228, "Ġbarely": 6229, "Ġturns": 6230, "Ġhealthy": 6231, "Ġrecords": 6232, "Array": 6233, "ĠIns": 6234, "-|": 6235, "'.": 6236, "Ġcampaign": 6237, "ĠParty": 6238, "ribe": 6239, "TY": 6240, "ĠPR": 6241, "Ġopin": 6242, "uing": 6243, "undred": 6244, "Ġbreat": 6245, "ĠID": 6246, "sex": 6247, "2020": 6248, "andy": 6249, "onym": 6250, "Ã¤": 6251, "Ġdesk": 6252, "Ġdepending": 6253, "Ġapps": 6254, "front": 6255, "oyal": 6256, "Ġfavorite": 6257, "Ġboot": 6258, "Ġinterface": 6259, "Ġproduced": 6260, "Ġmessages": 6261, "ĠScience": 6262, "Ġschem": 6263, "css": 6264, "Ġdive": 6265, "ĠLondon": 6266, "opyright": 6267, "([": 6268, "ĠTim": 6269, "Ġwaste": 6270, "Ġextremely": 6271, "frast": 6272, "Ġexperiment": 6273, "connect": 6274, "Ġnoise": 6275, "Ġacknow": 6276, "ĠFree": 6277, "Element": 6278, "olar": 6279, "Ġ}}": 6280, "Ġmanaging": 6281, "Ġcapable": 6282, "Ġvolume": 6283, "pers": 6284, "itig": 6285, "Just": 6286, "Ġ2004": 6287, "SET": 6288, "Ġcorresponding": 6289, "Ġspecified": 6290, "quality": 6291, "ĠAssociation": 6292, "Ġrom": 6293, "event": 6294, "Ġvector": 6295, "ĠPhys": 6296, "Ġinstitutions": 6297, "Ġapproximately": 6298, "semb": 6299, "Ġfarm": 6300, "Ġtechnical": 6301, "Ġenthusi": 6302, "bal": 6303, "ĠDay": 6304, "hered": 6305, "Ġcompleted": 6306, "ca": 6307, "Ġpill": 6308, "Ġfix": 6309, "ading": 6310, "Gener": 6311, "gener": 6312, "Ġvan": 6313, "ented": 6314, "Ġfab": 6315, "Ġmer": 6316, "indows": 6317, "ĠEst": 6318, "ructions": 6319, "lo": 6320, "ĠDuring": 6321, "uint": 6322, "stars": 6323, "Ġminimum": 6324, "ĠToday": 6325, "Ð²": 6326, "Ġpotentially": 6327, "Ġcircumstances": 6328, "Ġschools": 6329, "ĠAngel": 6330, "Ġmassive": 6331, "Ġauthent": 6332, "ĠPort": 6333, "Ġlover": 6334, "Ġexamples": 6335, "Ġ2000": 6336, "Ġrespectively": 6337, "itable": 6338, "riage": 6339, "Ġokay": 6340, "Ġleads": 6341, "yan": 6342, "Ġplug": 6343, "Ġwonderful": 6344, "Ġdelve": 6345, "Ġcharacters": 6346, "ingu": 6347, "ĠInformation": 6348, "Ġspend": 6349, "FI": 6350, "Ġcheek": 6351, "lessly": 6352, "herent": 6353, "izer": 6354, "iers": 6355, "Ġeasier": 6356, "Ġtests": 6357, "ĠIndia": 6358, "abel": 6359, "prot": 6360, "Ġchoices": 6361, "Ġinnovative": 6362, "Ġperformed": 6363, "related": 6364, "Ġbrow": 6365, "ald": 6366, "hetic": 6367, "Ġintimate": 6368, "Ġuncertain": 6369, "Ġsave": 6370, "ĠType": 6371, "Ġshift": 6372, "Ġpreviously": 6373, "Ġmovie": 6374, "HER": 6375, "Ġadding": 6376, "CD": 6377, "Ġwine": 6378, "Ġexplicit": 6379, "Ġcontinues": 6380, "Ġdialog": 6381, "åħ": 6382, "Default": 6383, "ĠBest": 6384, "ech": 6385, "Ġseek": 6386, "Ġurl": 6387, "Ġhers": 6388, "gu": 6389, "Ġpow": 6390, "ideo": 6391, "--|": 6392, "Ġapplicable": 6393, "Ġeventually": 6394, "Ġsold": 6395, "Ġpure": 6396, "ares": 6397, "Ġsizes": 6398, "Ġwebsites": 6399, "Ġnut": 6400, "ĠDom": 6401, "Ġassessment": 6402, "cular": 6403, "Ġchannel": 6404, "Ġ2022": 6405, "Ġappreciate": 6406, "roller": 6407, "Ġunf": 6408, "ART": 6409, "Ġasking": 6410, "format": 6411, "ĠPhil": 6412, "Ġdirty": 6413, "ASS": 6414, "product": 6415, "Î»": 6416, "96": 6417, "Î¼": 6418, "onna": 6419, "ensor": 6420, "Ġexercise": 6421, "uzz": 6422, "--------------------": 6423, "olic": 6424, "ĠUN": 6425, "Ġchosen": 6426, "frastructure": 6427, "ki": 6428, "iences": 6429, "grad": 6430, "Ġholds": 6431, "Ïĥ": 6432, "Ġmaintenance": 6433, "adata": 6434, "ĠCalifornia": 6435, "vironments": 6436, "det": 6437, "ĠSocial": 6438, "Ġans": 6439, "Ġnetworks": 6440, "Ġawareness": 6441, "Sp": 6442, "}(\\": 6443, "ĠCall": 6444, "Ġrubbed": 6445, "run": 6446, "Ġtotally": 6447, "Ġsav": 6448, "ords": 6449, "uated": 6450, "Ġbelly": 6451, "Part": 6452, "idance": 6453, "erning": 6454, "ĠTV": 6455, "ITY": 6456, "pling": 6457, "Ġinteractions": 6458, "leep": 6459, "ĠOper": 6460, "Ġoperating": 6461, "MO": 6462, "then": 6463, "ï»": 6464, "ĠRead": 6465, "ultane": 6466, "Ġcoff": 6467, "Ġ\\|": 6468, "anges": 6469, "Ġice": 6470, "Ġresearc": 6471, "Ġunits": 6472, "Ġattractive": 6473, "ĠLog": 6474, "XX": 6475, "Ġforget": 6476, "Ġjeans": 6477, "Ġanc": 6478, "ĠStat": 6479, "ĠGreen": 6480, "Ġregulations": 6481, "His": 6482, "fty": 6483, "ĠHol": 6484, "Ġstick": 6485, "child": 6486, "ĠExt": 6487, "ĠHouse": 6488, "open": 6489, "bum": 6490, "ĠMrs": 6491, "ategories": 6492, "ĠBel": 6493, "ROM": 6494, "AIL": 6495, "~~": 6496, "Ġsignal": 6497, "ida": 6498, "ĠTotal": 6499, "ĠJenn": 6500, "Ġfoster": 6501, "claim": 6502, "QL": 6503, "Ġbooks": 6504, "Ġthous": 6505, "Ġstake": 6506, "----------------------------": 6507, "Ġerrors": 6508, "Ġinteraction": 6509, "Ġgar": 6510, "ĠCase": 6511, "Ġuint": 6512, "Ġimprovement": 6513, "Ġease": 6514, "Ġguidelines": 6515, "Ġsurv": 6516, "life": 6517, "while": 6518, "Ġclimax": 6519, "query": 6520, "anna": 6521, "Ġtit": 6522, "Ġfaith": 6523, "Ġswitch": 6524, "Ġunderw": 6525, "ĉĉĉĉĉĉĉĉ": 6526, "ĠFigure": 6527, "Ġcommerc": 6528, "ellow": 6529, "olved": 6530, "comfort": 6531, "Ġtraffic": 6532, "Ġsituations": 6533, "Ġassign": 6534, "Ġsimpl": 6535, "inst": 6536, "akers": 6537, "Ġinternet": 6538, "ander": 6539, "ĠMel": 6540, "ighter": 6541, "ĠFund": 6542, "Ġsole": 6543, "roid": 6544, "ĠMet": 6545, "ĠLear": 6546, "ĠHel": 6547, "Ġmotiv": 6548, "ĠIdent": 6549, "Ġadm": 6550, "Ġclasses": 6551, "Ġconven": 6552, "Ġexcellent": 6553, "ulatory": 6554, "Ġequival": 6555, "Ġstation": 6556, "anged": 6557, "Ġappeared": 6558, "she": 6559, "Ġdie": 6560, "Ġhonest": 6561, "Ġlib": 6562, "inked": 6563, "ĠOpen": 6564, "Ġsensation": 6565, "Ġtouched": 6566, "ĠOk": 6567, "Ġevolution": 6568, "Ġprompt": 6569, "Ġhug": 6570, "isted": 6571, "Ġrise": 6572, "Ġresponsibility": 6573, "Ġprocessing": 6574, "Ġ---": 6575, "Ret": 6576, "ĠErr": 6577, "Ġextended": 6578, "Ġhelped": 6579, "ĠTwo": 6580, "display": 6581, "ayout": 6582, "Ġpieces": 6583, "Input": 6584, "Source": 6585, "igen": 6586, "Ġhes": 6587, "Ġlaws": 6588, "CP": 6589, "Ġnamed": 6590, ".\\": 6591, "ĠStreet": 6592, "Ġreturns": 6593, "Ġsufficient": 6594, "ora": 6595, "Ġstreet": 6596, "Ġdynamic": 6597, "Ġteacher": 6598, "Ġpenet": 6599, "lights": 6600, "icrosoft": 6601, "{\"": 6602, "ĠPet": 6603, "However": 6604, "Ġnose": 6605, "Ġpharm": 6606, "ĠAsh": 6607, "Ġexposure": 6608, "cher": 6609, "2016": 6610, "ĠResult": 6611, "Ġdildo": 6612, "Ġvariable": 6613, "Ġpayment": 6614, "ographic": 6615, "ota": 6616, "afe": 6617, "Ġbelief": 6618, "Ġgender": 6619, "Des": 6620, "Ġmetal": 6621, "icity": 6622, "Ġhall": 6623, "Ġconstitut": 6624, "Ġclimate": 6625, "Ġseparate": 6626, "ker": 6627, "Ġcash": 6628, "urally": 6629, "Ġsch": 6630, "amental": 6631, "ĠMax": 6632, "Ġcontrast": 6633, "Ġputting": 6634, "Ġcream": 6635, "ĠEast": 6636, "Ġingred": 6637, "Ġencounters": 6638, "sup": 6639, "ĠDec": 6640, "wrap": 6641, "dim": 6642, "ching": 6643, "Ġbroader": 6644, "Ê¹": 6645, "Ġcorpor": 6646, "Ġsummer": 6647, "Ġdistributed": 6648, "Ġdynamics": 6649, "ĠUsing": 6650, "ĠAlso": 6651, "po": 6652, "Ġ2003": 6653, "ĠAuthor": 6654, "Ġlie": 6655, "Ġcancer": 6656, "ĠRober": 6657, "itors": 6658, "ĠFrench": 6659, "Ġslide": 6660, "æĸ": 6661, "Ġfrequently": 6662, "Ġvagina": 6663, "lands": 6664, "Ġlen": 6665, "Ġterr": 6666, "ĠStep": 6667, "IO": 6668, "ouble": 6669, "Ġboundaries": 6670, "Ġsequence": 6671, "ĠBritish": 6672, "Ġ/>": 6673, "Ġlabor": 6674, "ANT": 6675, "isation": 6676, "ĠLove": 6677, "search": 6678, "author": 6679, "Ġprobability": 6680, "Ġcontemporary": 6681, "estic": 6682, "ORT": 6683, "well": 6684, "ĠMal": 6685, "ĠJournal": 6686, "Ġalgorithm": 6687, "Ġresil": 6688, "Ġexplain": 6689, "Ġworkers": 6690, "ä½": 6691, "Ġaccommod": 6692, "hi": 6693, "actory": 6694, "ĠSarah": 6695, "Ġdomin": 6696, "Ġenabling": 6697, "Ġempower": 6698, "only": 6699, "hest": 6700, "Ġboyfriend": 6701, "uce": 6702, "Ġ36": 6703, "ĠSy": 6704, "iration": 6705, "Ġgasped": 6706, "Ġreaching": 6707, "83": 6708, "Ġenvironments": 6709, "ĠSign": 6710, "ĠFind": 6711, "Ġdoctor": 6712, "itter": 6713, "Ġkids": 6714, "Ġreviews": 6715, "float": 6716, "Ġfootball": 6717, "Manager": 6718, "rier": 6719, "97": 6720, "Ġhundred": 6721, "ello": 6722, "82": 6723, "Ġintegration": 6724, "write": 6725, "Ġaudience": 6726, "ĠMart": 6727, "Ġreports": 6728, "Ġremaining": 6729, "Ġtelling": 6730, "Ġreput": 6731, "versity": 6732, "ĠTH": 6733, "Ġaimed": 6734, "Ġmission": 6735, "Ġsector": 6736, "Ġsliding": 6737, "(-": 6738, "Ġarchitect": 6739, "Ġmanner": 6740, "INE": 6741, "Ġimplications": 6742, "Ġstretch": 6743, "etime": 6744, "Ġphotos": 6745, "Ab": 6746, "wered": 6747, "Ġoccup": 6748, "Ġcharacteristics": 6749, "Ġmanufacturing": 6750, "Ġintended": 6751, "DF": 6752, "Ġagree": 6753, "Ġfaced": 6754, "Ġsig": 6755, "ĠFound": 6756, "agram": 6757, "Ġfacilities": 6758, "Ġprove": 6759, "Ġintroduced": 6760, "ĠPress": 6761, "Ġchain": 6762, "Ġ90": 6763, "ĠMake": 6764, "Ġdiscovered": 6765, "Ġrestrict": 6766, "Ġappeal": 6767, "ĠPresident": 6768, "Before": 6769, "ega": 6770, "Ġuniform": 6771, "ĠNote": 6772, "being": 6773, "phone": 6774, "impl": 6775, "Ġmoist": 6776, "ÃĹ": 6777, "Ġtopics": 6778, "bi": 6779, "Ġannual": 6780, "Ġgather": 6781, "TP": 6782, "Ġtrem": 6783, "Ġlayer": 6784, "illy": 6785, "ĠKEY": 6786, ";</": 6787, "empty": 6788, "Ġwondered": 6789, "icians": 6790, "tical": 6791, "Ġbank": 6792, "oto": 6793, "osite": 6794, "Ġcultiv": 6795, "udes": 6796, "Ġserved": 6797, "Ġstead": 6798, "Ġsubt": 6799, "Ġtouching": 6800, "Ġcoffee": 6801, "Ġcrow": 6802, "Ġgenerated": 6803, "Ġconsideration": 6804, "oted": 6805, "Ġchannels": 6806, "Ġ45": 6807, "Ġanimal": 6808, "cious": 6809, "Ġstroking": 6810, "Ġstared": 6811, "ialize": 6812, "Â©": 6813, "ĠSelf": 6814, "Ġexplained": 6815, "Ġincreases": 6816, "ĠWater": 6817, "rating": 6818, "thlet": 6819, "Ġchapter": 6820, "åĲ": 6821, "Ġ-->": 6822, "Ã§": 6823, "ĠWhere": 6824, "uating": 6825, "ME": 6826, "war": 6827, "vec": 6828, "ĠBi": 6829, "ĠStudy": 6830, "Ġlock": 6831, "Ġcommercial": 6832, "ctx": 6833, "dt": 6834, "cy": 6835, "Ġprocedure": 6836, "Ġsumm": 6837, "Ġgenerate": 6838, "Ġforeign": 6839, "Ġbow": 6840, "Ġfinish": 6841, "that": 6842, "Ġ\"\"\"": 6843, "Ġlap": 6844, "sect": 6845, "ansion": 6846, "Ġsen": 6847, "Ġmonitoring": 6848, "Ġvision": 6849, "Ġserver": 6850, "Can": 6851, "Ġregions": 6852, "faces": 6853, "Ġearth": 6854, "Ġappearance": 6855, "next": 6856, "esh": 6857, "ĠReal": 6858, "Ġtechnique": 6859, "pload": 6860, "Ġunderlying": 6861, "ĠChurch": 6862, "Ġsusp": 6863, "Ġinterpret": 6864, "uit": 6865, "âĦ": 6866, "ĠOffice": 6867, "mosp": 6868, "oles": 6869, "Ġdedicated": 6870, "output": 6871, "fs": 6872, "ishment": 6873, "ERR": 6874, "Rem": 6875, "ĠDisc": 6876, "Ġguidance": 6877, "|\\": 6878, "ĠCode": 6879, "Ġinsurance": 6880, "ĠJesus": 6881, "Ñĥ": 6882, "Ġsupported": 6883, "Ġfrequency": 6884, "ARY": 6885, "Ġcomments": 6886, "ĠSecond": 6887, "ulture": 6888, "Ġspoke": 6889, "Ġexperim": 6890, "ĠUK": 6891, "Ġlightly": 6892, "Ġwanting": 6893, "Ġraw": 6894, "ads": 6895, "Ġfacing": 6896, "ensed": 6897, "uns": 6898, "Ġyounger": 6899, "ĠJim": 6900, "Ġforces": 6901, "Ġconsumers": 6902, "cf": 6903, "wr": 6904, "Ġagency": 6905, "TE": 6906, "Ġraise": 6907, "Ġsensual": 6908, "Ġdut": 6909, "Ġ80": 6910, "Ġexcess": 6911, "posal": 6912, "Ġpeace": 6913, "Ġskill": 6914, "Ġtrain": 6915, "Ġcu": 6916, "illa": 6917, "token": 6918, "Ġsympt": 6919, "Ġchemical": 6920, "ĠCap": 6921, "ĠAir": 6922, "Ġstiff": 6923, "dec": 6924, "eli": 6925, "Ġ00": 6926, "Ġteasing": 6927, "Ġtightly": 6928, "#[": 6929, "ĠControl": 6930, "Ġcrack": 6931, "){": 6932, "Ġpassword": 6933, "ĠAv": 6934, "Ġnovel": 6935, "Ġprotocol": 6936, "Ġsquare": 6937, "agged": 6938, "Ġalike": 6939, "Ġhotel": 6940, "service": 6941, "Ġaccurate": 6942, "Ġarts": 6943, "Ġfilter": 6944, "Ġexpertise": 6945, "Ġassume": 6946, "Ġcalls": 6947, "Ġfro": 6948, "Ġjoint": 6949, "igration": 6950, "2021": 6951, "container": 6952, "Ġnoted": 6953, "Ġpractical": 6954, "Ġbent": 6955, "Method": 6956, "Ġsurvey": 6957, "foot": 6958, "Create": 6959, "Ġoblig": 6960, "ĠBecause": 6961, "SA": 6962, "Ġspaces": 6963, "AND": 6964, "Ġdivid": 6965, "unately": 6966, "crete": 6967, "edge": 6968, "Ġpackage": 6969, "Ġevaluation": 6970, "Ġ('": 6971, "Ġcup": 6972, "Ġmobile": 6973, "bbing": 6974, "Ġcrotch": 6975, "ĠChild": 6976, "Ġfunds": 6977, "ieving": 6978, "Ġexploration": 6979, "81": 6980, "ĠGood": 6981, "Ġstaring": 6982, "Ġhelping": 6983, "Ġvarchar": 6984, "ĠEqu": 6985, "å¤": 6986, "otion": 6987, "olf": 6988, "Ġcreative": 6989, "dat": 6990, "Ġthank": 6991, "Ġcombination": 6992, "ĠLong": 6993, "ql": 6994, "Ġ2023": 6995, "Ġclosely": 6996, "Ġintellig": 6997, "Stream": 6998, "={": 6999, "FL": 7000, "ĠØ": 7001, "ĠOrgan": 7002, "Point": 7003, "Ġmist": 7004, "Ġpleas": 7005, "Ġcreation": 7006, "ĠDirector": 7007, "Equal": 7008, "uh": 7009, "Ġment": 7010, "ĠBet": 7011, "Ġsimultane": 7012, "ĠEngine": 7013, "ĠMag": 7014, "Ġabsolute": 7015, "94": 7016, "ĠPenis": 7017, "repon": 7018, "Ġaffected": 7019, "Ġmirror": 7020, "Ġrare": 7021, "ping": 7022, "reponame": 7023, "SC": 7024, "Ġsmart": 7025, "ona": 7026, "infty": 7027, "ĠInstitute": 7028, "context": 7029, "Ġgrand": 7030, "Ġbegins": 7031, "Ġliquid": 7032, "VI": 7033, "Ġfreed": 7034, "nu": 7035, "Ġusage": 7036, "icial": 7037, "bra": 7038, "Ġleadership": 7039, "ĠNO": 7040, "Ġ${": 7041, "Ġleaders": 7042, "Arg": 7043, "Ġrhy": 7044, "asms": 7045, "Local": 7046, "Ġmilitary": 7047, "Ġap": 7048, "sg": 7049, "Ġassistance": 7050, "Start": 7051, "Ġprimarily": 7052, "ĠFuck": 7053, "ĠElect": 7054, "Ġpound": 7055, "ewel": 7056, "night": 7057, "iate": 7058, "Ġscr": 7059, "ĠBefore": 7060, "inn": 7061, "Ġafford": 7062, "Ġcontaining": 7063, "Ġreaction": 7064, "Ðº": 7065, "Ġgrew": 7066, "Ġdelivery": 7067, "Ġauth": 7068, "Ġadvert": 7069, "Ġsuggested": 7070, "lements": 7071, "Ġappears": 7072, "Ġborn": 7073, "Ġcombined": 7074, "ounce": 7075, "rey": 7076, "Sl": 7077, "ran": 7078, "ãģ®": 7079, "Ġ{}": 7080, "ĠYear": 7081, "Ext": 7082, "Ġhappens": 7083, "rl": 7084, "Ġtrip": 7085, "Ġemotions": 7086, "igs": 7087, "Ġluck": 7088, "Ġoverl": 7089, "Ġbuff": 7090, "ĠEnd": 7091, "Ġsustainable": 7092, "number": 7093, "quot": 7094, "Ġdesper": 7095, "poss": 7096, "Ġfundamental": 7097, "Ġfantasy": 7098, "isc": 7099, "orders": 7100, "Ġmaxim": 7101, "ĠBas": 7102, "util": 7103, "urban": 7104, "ĠCommunity": 7105, "ĠSoci": 7106, "FT": 7107, "Ġteaching": 7108, "Ġ________________": 7109, "ria": 7110, "arios": 7111, "ALL": 7112, "Image": 7113, "Ġgonna": 7114, "IGN": 7115, "Ġcriteria": 7116, "Ġadvice": 7117, "Ġresist": 7118, "Pre": 7119, "Ġnic": 7120, "ï»¿": 7121, "Ġride": 7122, "Ġexamining": 7123, "push": 7124, "Ġ37": 7125, "Ġprostitutes": 7126, "itz": 7127, "Ġentr": 7128, "ĠSuper": 7129, "Ġrelation": 7130, "Ġcompat": 7131, "![": 7132, "ĠChina": 7133, ")^": 7134, "Ġgenu": 7135, "ĠMike": 7136, "Ġanswered": 7137, "Ġresolution": 7138, "imation": 7139, "Ġmathemat": 7140, "illage": 7141, "Ġrepresentation": 7142, "ĠThom": 7143, "ĠNon": 7144, "strong": 7145, "Ġdu": 7146, "Sim": 7147, "End": 7148, "Ġlimits": 7149, "Ġcompetition": 7150, "Ġmort": 7151, "Ġresearchers": 7152, "uries": 7153, "Ġviews": 7154, "ocity": 7155, "Ġmur": 7156, "ĠExp": 7157, "coh": 7158, "Ġoral": 7159, "earing": 7160, "SD": 7161, "Ġdemonstrate": 7162, "Ġsessions": 7163, "Ġda": 7164, "scale": 7165, "has": 7166, "Ġmanufacture": 7167, "Ġmatters": 7168, "fast": 7169, "Ġinitiatives": 7170, "Ġdocuments": 7171, "Head": 7172, "idates": 7173, "\").": 7174, "Ġax": 7175, "Ġdrawing": 7176, "Ġsupporting": 7177, "Ġstret": 7178, "ĠJess": 7179, "Ġmechanisms": 7180, "water": 7181, "unte": 7182, "Ġpurchase": 7183, "Ġladies": 7184, "ĠRiver": 7185, "rd": 7186, "background": 7187, "IZ": 7188, "93": 7189, "jpg": 7190, "Ġproof": 7191, "Ġdiscipl": 7192, "rical": 7193, "ĠÙ": 7194, "Ġnor": 7195, "Ġcapabilities": 7196, "server": 7197, "target": 7198, "ĠArch": 7199, "Ġyouth": 7200, "Ġmovements": 7201, "border": 7202, "BC": 7203, "rative": 7204, "ĠPeople": 7205, "ĠSen": 7206, "false": 7207, "else": 7208, "ĠBob": 7209, "rient": 7210, "Ġjoy": 7211, "Ġregional": 7212, "Ġneighbor": 7213, "Ġfailed": 7214, "Ġdad": 7215, "gest": 7216, "package": 7217, "local": 7218, "Ġ34": 7219, "Ġsports": 7220, "Ġderived": 7221, "Ġreact": 7222, "stood": 7223, "Ġfindings": 7224, "Ġsell": 7225, "Ġauthority": 7226, "Ġappreciation": 7227, "Ġearn": 7228, "Ġvehicle": 7229, "ĠLim": 7230, "ĠHistory": 7231, "ura": 7232, "91": 7233, "Ġmuscle": 7234, "btn": 7235, "card": 7236, "cp": 7237, "Ġtor": 7238, "Big": 7239, "ĠTown": 7240, "ĠChinese": 7241, ".;": 7242, "Ġapplying": 7243, "Some": 7244, "Ġobjectives": 7245, "ĠMichael": 7246, "ceived": 7247, "ĠUs": 7248, "ĠNat": 7249, "apers": 7250, "Ġ------------": 7251, "Ġspl": 7252, "ĠBal": 7253, "Ġcategory": 7254, "Ġresistance": 7255, "Ġcitiz": 7256, "sql": 7257, "Line": 7258, "Ġbuddy": 7259, "sor": 7260, "Ġformed": 7261, "rypt": 7262, "ĠDev": 7263, "ĠJo": 7264, "ĠBill": 7265, "Ġdetailed": 7266, "thon": 7267, "âĨĴ": 7268, "Once": 7269, "Spec": 7270, "Ġamid": 7271, "important": 7272, "Next": 7273, "Ġimpress": 7274, "iggled": 7275, "Ġok": 7276, "Ġimproving": 7277, "Page": 7278, "Ġmeaningful": 7279, "older": 7280, "Ġdatabase": 7281, "Ġdecide": 7282, "nn": 7283, "Ġbitch": 7284, "Ġshaping": 7285, "Ġthanks": 7286, "ĠGovernment": 7287, "anny": 7288, "ĠEvent": 7289, "Ġinfl": 7290, "Ġlose": 7291, "ĠGeorge": 7292, "env": 7293, "course": 7294, "AY": 7295, "See": 7296, "Ġratio": 7297, "Ġperfectly": 7298, "Ġinfrastructure": 7299, "Ġscientific": 7300, "Ġremind": 7301, "2015": 7302, "mas": 7303, "ĠHot": 7304, "VID": 7305, "System": 7306, "ĠPlay": 7307, "Ġsmiling": 7308, "Ġindeed": 7309, "Ġdang": 7310, "Ġgalax": 7311, "FOR": 7312, "email": 7313, "Ġfuel": 7314, "apes": 7315, "Query": 7316, "Ġatmosp": 7317, "Ġstrict": 7318, "Ġpregn": 7319, "Ġpromise": 7320, "ĠJer": 7321, "ĠRoad": 7322, "orial": 7323, "Ġ\\,": 7324, "),(": 7325, "ĠWhite": 7326, "Ġ2002": 7327, "Ġ38": 7328, "Ġperspective": 7329, "ln": 7330, "ĠSing": 7331, "Ġprices": 7332, "ooked": 7333, "girl": 7334, "ventional": 7335, "ionally": 7336, "Ġcivil": 7337, "Ġ(`": 7338, "Property": 7339, "Ġlimitations": 7340, "ĠDid": 7341, "92": 7342, "Ġlub": 7343, "Ġarrived": 7344, "reek": 7345, "teen": 7346, "Good": 7347, "ĠFil": 7348, "Ġproviders": 7349, "Ġweather": 7350, "pact": 7351, "=\"#": 7352, "Ġliterature": 7353, "Token": 7354, "Ġbeside": 7355, "edia": 7356, "Ġanimals": 7357, "Ġintent": 7358, "ĠBig": 7359, "ĠInvest": 7360, "appy": 7361, "Ġjuices": 7362, "Ġusual": 7363, "Ġalt": 7364, "Ġsand": 7365, "ĠJapanese": 7366, "Ġ--------": 7367, "CI": 7368, "Ġremote": 7369, "Ġresponses": 7370, "aughty": 7371, "ĠVis": 7372, "Ġlocked": 7373, "ĠBra": 7374, "kin": 7375, "tx": 7376, "Ġhaven": 7377, "Ġlisted": 7378, "greg": 7379, "Ġphen": 7380, "Ġframework": 7381, "after": 7382, "Ġcauses": 7383, "ao": 7384, "Ġsuggests": 7385, "Ġteachers": 7386, "bling": 7387, "Ġbeat": 7388, "wid": 7389, "ĠKeep": 7390, "Ġstatements": 7391, "uses": 7392, "Ġbelt": 7393, "Ġ'<": 7394, "Ġtherapy": 7395, "method": 7396, "Ġhearing": 7397, "ĠSmall": 7398, "aped": 7399, "Ġfabric": 7400, "Ġformal": 7401, "Ġmoans": 7402, "fraid": 7403, "Ġseam": 7404, "Our": 7405, "Ġunders": 7406, "Ġelim": 7407, "Here": 7408, ".*": 7409, "ĠAnalysis": 7410, "Ġasshole": 7411, "cos": 7412, "zen": 7413, "ston": 7414, "ĠMaybe": 7415, "}_": 7416, "ĠAP": 7417, ".[": 7418, "Ġcurve": 7419, "Ġclothing": 7420, "Ġadvoc": 7421, "VER": 7422, "Ġabsor": 7423, "stract": 7424, "UD": 7425, "Ġlegisl": 7426, "Ġconcerning": 7427, "Ġaccounts": 7428, "normal": 7429, "Ġleather": 7430, "ivered": 7431, "Ġextends": 7432, "Ġagencies": 7433, "istent": 7434, "emb": 7435, "mail": 7436, "Ġtips": 7437, "Ġourselves": 7438, "riev": 7439, "Ġlots": 7440, "Ġseven": 7441, "áĥ": 7442, "ĠCarol": 7443, "uy": 7444, "aded": 7445, "Ġafraid": 7446, "ports": 7447, "Ġshock": 7448, "inity": 7449, "à¸": 7450, "Ġnervous": 7451, "EC": 7452, "ĠGen": 7453, "Ġjack": 7454, "ĠCanada": 7455, "Ġreson": 7456, "LECT": 7457, "Ġfunding": 7458, "bled": 7459, "Ġclitor": 7460, "âĢ²": 7461, "Ġsigns": 7462, "draw": 7463, "cluding": 7464, "lines": 7465, "GB": 7466, "oria": 7467, "Ġfederal": 7468, "Ġmarkets": 7469, "utical": 7470, "SH": 7471, "ĠObject": 7472, "des": 7473, "rows": 7474, "pled": 7475, "Ġ((": 7476, "Ġadvantages": 7477, "even": 7478, "Ġbroke": 7479, "umer": 7480, "Ġmedium": 7481, "ani": 7482, "ĠHam": 7483, "ĠPerform": 7484, "psi": 7485, "Ġconducted": 7486, "ĠMac": 7487, "ĠFore": 7488, "orph": 7489, "Ġtopic": 7490, "Ġwhenever": 7491, "Ġ'',": 7492, "Ġreligious": 7493, "Am": 7494, "etary": 7495, "ader": 7496, "Ġgaze": 7497, "ĠLat": 7498, "Ġunable": 7499, "nergy": 7500, "ĠAL": 7501, "Number": 7502, "Ġgeneration": 7503, "Ġ70": 7504, "Ġheavily": 7505, "Ġletter": 7506, "Ġsatisfied": 7507, "Options": 7508, "Ġresilience": 7509, "Ġclar": 7510, "aws": 7511, "\"`": 7512, "Ġmajority": 7513, "Ġacademic": 7514, "aceutical": 7515, "Ġimplementing": 7516, "Ġrelatively": 7517, "Ġprotected": 7518, "DR": 7519, "Finally": 7520, "Ġpolice": 7521, "sembly": 7522, "update": 7523, "ashion": 7524, "Ġangle": 7525, "Ġrose": 7526, "Ġconstraints": 7527, "Hey": 7528, "Ġtub": 7529, "Ġchurch": 7530, "Ġsociet": 7531, "Ġfetish": 7532, "Ġmistress": 7533, "Ġconsumption": 7534, "ĠLuc": 7535, "onymous": 7536, "ACT": 7537, "Hel": 7538, "Ġremained": 7539, "ĠIT": 7540, "ago": 7541, "pet": 7542, "Ġmoves": 7543, "Ġdomain": 7544, "Ġformation": 7545, "which": 7546, "Ġce": 7547, "ĠTop": 7548, "Ġbegg": 7549, "Ġordered": 7550, "Ġreduction": 7551, "Ġperforming": 7552, "Ġrepeated": 7553, "Ġinteract": 7554, "Ġleaves": 7555, "Ġhoriz": 7556, "Ġpossibly": 7557, "Ġhumili": 7558, "Ġbottle": 7559, "erving": 7560, "Ġthereby": 7561, "è¿": 7562, "Content": 7563, "Ġrace": 7564, "Ġconsequences": 7565, "Ġpp": 7566, "ications": 7567, "ĠPolicy": 7568, "\\)": 7569, "ĠSO": 7570, "Ġmissing": 7571, "rab": 7572, "cr": 7573, "Ġlying": 7574, "Ġstronger": 7575, "Ġtransportation": 7576, "Ġsamples": 7577, "Ġrequiring": 7578, "hema": 7579, "ashington": 7580, "Ġshoes": 7581, "Ġscore": 7582, "frame": 7583, "epsilon": 7584, "Te": 7585, "ĠLife": 7586, "Ġvent": 7587, "Ġstakeholders": 7588, "vy": 7589, "Ġminor": 7590, "ĠRemember": 7591, "ĠTre": 7592, "comments": 7593, "Oper": 7594, "Ġstability": 7595, "Ġlisten": 7596, "Ġrecognize": 7597, "Ġsubs": 7598, "riers": 7599, "Have": 7600, "Ġcute": 7601, "ĠAustralia": 7602, "Ġsighed": 7603, "tab": 7604, "Ġconsumer": 7605, "Mar": 7606, "Ġattached": 7607, "rations": 7608, "Ġrhythm": 7609, "ĠTechnology": 7610, "sey": 7611, "sole": 7612, "Ġspin": 7613, "âī¤": 7614, "Ġ2001": 7615, "iat": 7616, "Ġworldwide": 7617, "iger": 7618, "ĠSupport": 7619, "born": 7620, "Ġentirely": 7621, "ĠPersonal": 7622, "ffective": 7623, "rich": 7624, "ĠAccess": 7625, "ĠCustom": 7626, "uction": 7627, "response": 7628, "opping": 7629, "pol": 7630, "Ġswim": 7631, "Change": 7632, "Ġdiscussions": 7633, "vity": 7634, "Ġban": 7635, "dep": 7636, "Ġheels": 7637, "Ġapparent": 7638, "Fans": 7639, "Ġcovering": 7640, "Ġsevere": 7641, "omb": 7642, "Ġwalls": 7643, "aturing": 7644, "Ġbatter": 7645, "ffff": 7646, "ĠSupp": 7647, "Ġartists": 7648, "**,": 7649, "ĠLand": 7650, "Ġlesbian": 7651, "Top": 7652, "Ġmerely": 7653, "Ġtied": 7654, "ensional": 7655, "forcement": 7656, "Ġrelief": 7657, "Ġcompetitive": 7658, "ployment": 7659, "Ġwww": 7660, "Ġstands": 7661, "Ġtom": 7662, "ĠProfess": 7663, "ĠSal": 7664, "Ġrealize": 7665, "CM": 7666, "Ġeating": 7667, "idential": 7668, "ĠClub": 7669, "eries": 7670, "ĠHuman": 7671, "Ġfailure": 7672, "perm": 7673, "These": 7674, "Ġclinical": 7675, "ĠÂł": 7676, "Box": 7677, "\\*": 7678, "Ġhun": 7679, "}$,": 7680, "ĠVer": 7681, "Ġencourage": 7682, "process": 7683, "Ġcorrel": 7684, "Ġfantasies": 7685, "Ġhighlights": 7686, "Ġapproved": 7687, "Off": 7688, "Ġindicate": 7689, "conf": 7690, "bug": 7691, "ORD": 7692, "Ġgrip": 7693, "Ġrapidly": 7694, "Ġspeaking": 7695, "webkit": 7696, "Ġsymptoms": 7697, "Ġcos": 7698, "Ġdistrict": 7699, "Ġgrab": 7700, "ĠPal": 7701, "Ġmanip": 7702, "uke": 7703, "Ġcycle": 7704, "ĠâĪĴ": 7705, "ĠKim": 7706, "Ġestimated": 7707, "ĠAdv": 7708, "ools": 7709, "Ġmostly": 7710, "Ġobviously": 7711, "Ñı": 7712, "Ġawait": 7713, "missions": 7714, "Ġalongside": 7715, "Ġpages": 7716, "Ġinstructions": 7717, "Ġaccepted": 7718, "Ġsuitable": 7719, "ĠSil": 7720, "berg": 7721, "Ġnavigate": 7722, "bur": 7723, "GL": 7724, "desc": 7725, "namespace": 7726, "hab": 7727, "Ġmole": 7728, "ĠBuilding": 7729, "ĠCre": 7730, "Fil": 7731, "Address": 7732, "rip": 7733, "Ġtone": 7734, "ĠBank": 7735, "mega": 7736, "ĠLi": 7737, "lang": 7738, "Ġbringing": 7739, "Ġaccuracy": 7740, "han": 7741, "Ġapartment": 7742, "irmed": 7743, "ĠEarth": 7744, "Ġemergency": 7745, "Ġunw": 7746, "ampions": 7747, "Ġcutting": 7748, "ĠEnvironment": 7749, "Ġrg": 7750, "Ġrect": 7751, "ĠLou": 7752, "erent": 7753, "Ġtransformation": 7754, "Ġcooper": 7755, "Ġfif": 7756, "Ġsac": 7757, "Ġunderwear": 7758, "Net": 7759, "Ġtab": 7760, "SO": 7761, "Ġstimulation": 7762, "May": 7763, "agine": 7764, "Ġgroaned": 7765, "ÏĢ": 7766, "Î²": 7767, "END": 7768, "CREATE": 7769, "Ġadults": 7770, "Ġfrust": 7771, "Ġmarriage": 7772, "Ġproperly": 7773, "ĠTeam": 7774, "acle": 7775, "Ġhighest": 7776, "Figure": 7777, "column": 7778, "Ġcater": 7779, "ãĢģ": 7780, "hhhh": 7781, "ĠBay": 7782, "Ġnotes": 7783, "Ġenhanced": 7784, "AGE": 7785, "ĠGerman": 7786, "Ġforest": 7787, "Ġtender": 7788, "ocated": 7789, "Ġanymore": 7790, "ĠInteg": 7791, "oma": 7792, "################": 7793, "Ġstunning": 7794, "Ġwhim": 7795, "apped": 7796, "Ġcircle": 7797, "Ġrecommended": 7798, "rency": 7799, "Ġtiss": 7800, "ĠCreate": 7801, "Ġconfident": 7802, "PRO": 7803, "Ġlocations": 7804, "ĠVict": 7805, "Ġvirgin": 7806, "Ġdemands": 7807, "amin": 7808, "Ġsupposed": 7809, "Ġyours": 7810, "Fe": 7811, "ĠGreat": 7812, "Ġtwice": 7813, "ĠWatch": 7814, "conomic": 7815, "Ġwitness": 7816, "hover": 7817, "umps": 7818, "Ġdied": 7819, "aud": 7820, "ĠNumber": 7821, "menu": 7822, "Ġsouth": 7823, "Ġ})": 7824, "Base": 7825, "acks": 7826, "Ġscript": 7827, "Ġtang": 7828, "Ġthread": 7829, "Ġank": 7830, "Ġwebcam": 7831, "ĠSpecial": 7832, "Ġnarrow": 7833, "ĠDi": 7834, "Ġmature": 7835, "Ġhandling": 7836, "overline": 7837, "ĠAsian": 7838, "nom": 7839, "Ġwhom": 7840, "ogen": 7841, "insert": 7842, "Ġcontributing": 7843, "ĠAR": 7844, "Ġowner": 7845, "Ġasp": 7846, "Ġexamination": 7847, "AV": 7848, "ometry": 7849, "ady": 7850, "ĠMont": 7851, "ÏĦ": 7852, "ÂłÂłÂłÂł": 7853, "acc": 7854, "ĠMale": 7855, "orgeous": 7856, "Ġfunctional": 7857, "Ġoccurs": 7858, "Ġemployee": 7859, "cohol": 7860, "oting": 7861, "Ġaccord": 7862, "ĠDO": 7863, "Ġargument": 7864, "Ġsubstantial": 7865, "omega": 7866, "Ġplants": 7867, "Ġteach": 7868, "Ġcalm": 7869, "Ġmeasured": 7870, "bel": 7871, "rote": 7872, "(:": 7873, "Ġcloud": 7874, "Ġkisses": 7875, "uan": 7876, "Ġsynt": 7877, "ĠUnion": 7878, "Ġperiods": 7879, "Ġsimultaneously": 7880, "Ġarousal": 7881, "Ġsea": 7882, "Ps": 7883, "bec": 7884, "ĠHistor": 7885, "IA": 7886, "Mat": 7887, "ĠCL": 7888, "find": 7889, "Ġkid": 7890, "ucking": 7891, "issions": 7892, "ĠJud": 7893, "irms": 7894, "ĠEngland": 7895, "BA": 7896, "Ġjoined": 7897, "ĠProm": 7898, "ums": 7899, "range": 7900, "Ġfol": 7901, "ĠMil": 7902, "Ġfur": 7903, "Ïģ": 7904, "æĪ": 7905, "endif": 7906, "Ġwore": 7907, "Ġcab": 7908, "orter": 7909, "Î³": 7910, "Ġquery": 7911, "Ġmutual": 7912, "Ġrecip": 7913, "ĠPRO": 7914, "Ġadequ": 7915, "Ġunderstood": 7916, "Prov": 7917, "Search": 7918, "images": 7919, "101": 7920, "IES": 7921, "Ġstock": 7922, "ĠPeter": 7923, "Ġchuck": 7924, "Note": 7925, "Ġwaves": 7926, "Ġodd": 7927, "arn": 7928, "Ġdiss": 7929, "transform": 7930, "Ġdialogue": 7931, "ĠAdminist": 7932, "inates": 7933, "Ġemerging": 7934, "ĠPay": 7935, "jection": 7936, "{}": 7937, "Ġcomplexity": 7938, "description": 7939, "Ġscenarios": 7940, "values": 7941, "ola": 7942, "Ġmodule": 7943, "ĠSociety": 7944, "Ġmad": 7945, "Ġimpacts": 7946, "onic": 7947, "Ġretain": 7948, "margin": 7949, "Ġnation": 7950, "Ġparticipate": 7951, "Ġobservations": 7952, "ÙĦ": 7953, "ĠProcess": 7954, "admin": 7955, "Ġplus": 7956, "ĠCheck": 7957, "Ġmovies": 7958, "oses": 7959, "Ġpresents": 7960, "Ġdrawn": 7961, "Ġble": 7962, "Ġlatest": 7963, "cell": 7964, "ĠTurn": 7965, "Ġhappening": 7966, "FR": 7967, "real": 7968, "Ġmixed": 7969, "Ġquarter": 7970, "Action": 7971, "ĠHand": 7972, "TD": 7973, "Ġdownload": 7974, "ett": 7975, "project": 7976, "Ġvictim": 7977, "Ġsexually": 7978, "agers": 7979, "ĠOffic": 7980, "Ġmas": 7981, "uled": 7982, "ĠMA": 7983, "Ġtwenty": 7984, "oned": 7985, "ĠCD": 7986, "Ġsatisfy": 7987, "Mem": 7988, "Ġtact": 7989, "Ġabsolutely": 7990, "Rel": 7991, "Ġcir": 7992, "Handler": 7993, "Ġreliable": 7994, "ICE": 7995, "Ġtowel": 7996, "ĠEnh": 7997, "ĠPM": 7998, "ĠScott": 7999, "sf": 8000, "break": 8001, "ewelry": 8002, "reshold": 8003, "Ġfoundation": 8004, "ĠLook": 8005, "ĠReturn": 8006, "ĠCA": 8007, "rangle": 8008, "Ġcontributions": 8009, "ĉĉĉĉĉĉ": 8010, "%)": 8011, "ĠMassage": 8012, "ture": 8013, "Ġkill": 8014, "Ġaccompl": 8015, "ste": 8016, "ĠAp": 8017, "win": 8018, "Ġtears": 8019, "whel": 8020, "Ġapproval": 8021, "Open": 8022, "ĠOnlyFans": 8023, "Ġmeat": 8024, "Ġfaces": 8025, "Ġnorth": 8026, "ĠHave": 8027, "Ġunivers": 8028, "outhern": 8029, "Ġblank": 8030, "fol": 8031, "kens": 8032, "Ġblog": 8033, "Ġglob": 8034, "tra": 8035, "Max": 8036, "Ġrecognized": 8037, "ĠInit": 8038, "Builder": 8039, "uced": 8040, "va": 8041, "Ġdates": 8042, "Ġclaims": 8043, "Ġcolors": 8044, "Ġlargest": 8045, "ĠValue": 8046, "ĠGold": 8047, "Us": 8048, "tim": 8049, "Ġisol": 8050, "isting": 8051, "ailability": 8052, "Ġinitially": 8053, "2013": 8054, "Ġvisible": 8055, "Update": 8056, "car": 8057, "Ġrein": 8058, "Ġconcerned": 8059, "Ġcried": 8060, "Ġingredients": 8061, "dr": 8062, "control": 8063, "ĠCamp": 8064, "Ġneighb": 8065, "Ġfascinating": 8066, "bool": 8067, "]);": 8068, "}$.": 8069, "family": 8070, "Ġtypical": 8071, "ĠFrank": 8072, "ua": 8073, "Ġalle": 8074, "ĠComput": 8075, "Ġcrim": 8076, "Ġreceiving": 8077, "Ġrevenue": 8078, "noon": 8079, "ĠColor": 8080, "Ġprepare": 8081, "Ġstrange": 8082, "Ġproport": 8083, "Ġacknowled": 8084, "cluded": 8085, "Ġembracing": 8086, "Ġfellow": 8087, "Ġloves": 8088, "åĬ": 8089, "ĠConsequently": 8090, "Ġtempl": 8091, "Ġsqueezed": 8092, "ĠAM": 8093, "Ġfacilitate": 8094, "Ġtension": 8095, "Ġvast": 8096, "eted": 8097, "Ġboost": 8098, "van": 8099, "Ġbrings": 8100, "Ġdepends": 8101, "Ġtreated": 8102, "dated": 8103, "Ġdoubt": 8104, "haust": 8105, "Ġvibrator": 8106, "Ġmoaning": 8107, "HH": 8108, "á»": 8109, "ĠQue": 8110, "Ġoperator": 8111, "Ġ48": 8112, "ĠHy": 8113, "Ġ%}": 8114, "ĠSimilarly": 8115, "Ã³n": 8116, "ĠMult": 8117, "ĠWashington": 8118, "oral": 8119, "Ġ$(": 8120, "Ġfish": 8121, "Ġurban": 8122, "Ġrecognition": 8123, "++)": 8124, "Ġanti": 8125, "ĠHome": 8126, "Ġwaited": 8127, "%,": 8128, "ĠSpe": 8129, "lie": 8130, "Ġconfiguration": 8131, "Met": 8132, "yr": 8133, "ĠSaf": 8134, "}^{\\": 8135, "sequent": 8136, "Ġinherent": 8137, "Ġfirmly": 8138, "Ġsending": 8139, "ĠLO": 8140, "EO": 8141, "åľ": 8142, "BU": 8143, "Ġcarbon": 8144, "Ġtells": 8145, "Ġchoosing": 8146, "Ġ(\\": 8147, "Ġprofiles": 8148, "ĠAfrica": 8149, "Ġsomewhat": 8150, "Ġrelaxed": 8151, "Ġtalked": 8152, "Block": 8153, "aven": 8154, "Ġorgasms": 8155, "Ġbusy": 8156, "Ġgorgeous": 8157, "Ġparticipation": 8158, "Ġlikes": 8159, "æĺ": 8160, "Ġpointed": 8161, "Ġcategories": 8162, "Gu": 8163, "Ġmitig": 8164, "boy": 8165, "arian": 8166, "idents": 8167, "RES": 8168, "drop": 8169, "eness": 8170, "Ġopposite": 8171, "Dev": 8172, "Ġoverwhel": 8173, "Ġlinks": 8174, "Ġremark": 8175, "ipal": 8176, "Ġregulatory": 8177, "Ġreporting": 8178, "Ġsearching": 8179, "Ġpiss": 8180, "ĠNever": 8181, "close": 8182, "ameters": 8183, "Ġequations": 8184, "params": 8185, "Ġemployed": 8186, "Ġcreativity": 8187, "ĠOption": 8188, "Ġpeak": 8189, "Ġrestaur": 8190, "ĠSus": 8191, "urable": 8192, "PD": 8193, "ÂŃ": 8194, "Ġplastic": 8195, "Ġfrag": 8196, "Ġacts": 8197, "Ġstaying": 8198, "pa": 8199, "Under": 8200, "ias": 8201, "Ġestimate": 8202, "center": 8203, "}}\\_": 8204, "OK": 8205, "perties": 8206, "Ġcrazy": 8207, "Ġanyway": 8208, "ĠMistress": 8209, "msg": 8210, "Ġstretched": 8211, "star": 8212, "Ġ64": 8213, "Ġformula": 8214, "gal": 8215, "Ġcharm": 8216, "emp": 8217, "Ġbreaking": 8218, "ĠGirls": 8219, "Ġcontrols": 8220, "radius": 8221, "Ġpriorit": 8222, "ĠAppro": 8223, "Ġpark": 8224, "Cons": 8225, "Output": 8226, "ecute": 8227, "ĠVir": 8228, "module": 8229, "Ġultimate": 8230, "Ġequivalent": 8231, "Ġsan": 8232, "Ġrealm": 8233, "kg": 8234, "ĠAfrican": 8235, "psilon": 8236, "Ġinstruct": 8237, "Ġhousehold": 8238, "Ġjava": 8239, "Ġlistening": 8240, "Ġfreedom": 8241, "compass": 8242, "Ġhide": 8243, "Ġupdated": 8244, "isters": 8245, "Ġgrinned": 8246, "ĠAz": 8247, "Ġrent": 8248, "Ġphil": 8249, "Ġcoe": 8250, "arden": 8251, "aren": 8252, "Ġdesigns": 8253, "ĠPoint": 8254, "Ġupdates": 8255, "Ġintricate": 8256, "Ġcalling": 8257, "Ġaward": 8258, "Ġescape": 8259, "ĠCopyright": 8260, "çĶ¨": 8261, "rot": 8262, "ĠCentral": 8263, "ĠDespite": 8264, "Command": 8265, "ban": 8266, "Ġindicates": 8267, "aser": 8268, "ĠSoft": 8269, "apache": 8270, "Ġheaded": 8271, "Ġintim": 8272, "ĠGoogle": 8273, "NULL": 8274, "ĠLeague": 8275, "Ġlovely": 8276, "Ġgap": 8277, "Ġreferred": 8278, "Ġsin": 8279, "Ġlibrary": 8280, "Ġclick": 8281, "Web": 8282, "Ġexceed": 8283, "Ġhousing": 8284, "unc": 8285, "Ġnumer": 8286, "Ġstroked": 8287, "''": 8288, "Ġtherm": 8289, "ĠWilliam": 8290, "RL": 8291, "Ġ500": 8292, "2014": 8293, "ĠSteve": 8294, "Component": 8295, "umin": 8296, "Server": 8297, "Ġrigorous": 8298, "Ġamidst": 8299, "xiety": 8300, ",-": 8301, "ĠIP": 8302, "]).": 8303, "Ġabilities": 8304, "ĠSir": 8305, "append": 8306, "etes": 8307, "Load": 8308, "}+": 8309, "Ġconflict": 8310, "ĠImplement": 8311, "Ġsymmet": 8312, "Det": 8313, "Ġmagic": 8314, "Ġintensity": 8315, "Ġpermission": 8316, "Ġrenew": 8317, "ĠJane": 8318, "Ġthemes": 8319, "oded": 8320, "ni": 8321, "Ġphoto": 8322, "Ġimposs": 8323, "ĠStart": 8324, "Ġ~": 8325, "Ġspiritual": 8326, "Ġnegot": 8327, "KEY": 8328, "Ġphenomen": 8329, "rit": 8330, "ãĥ¼": 8331, "âĬ": 8332, "Ġlit": 8333, "Ġemployment": 8334, "ventions": 8335, "Ġobser": 8336, "Ġnuc": 8337, "Ġradio": 8338, "ðŁ": 8339, "Ġscope": 8340, "ections": 8341, "Ġtun": 8342, "Ġscenario": 8343, "Ġpace": 8344, "pectives": 8345, "Exp": 8346, "ĠCong": 8347, "Ġunexpected": 8348, "DD": 8349, "dy": 8350, "ĠSecret": 8351, "roud": 8352, "}/": 8353, "bo": 8354, "plete": 8355, "Ġaid": 8356, "Ġfans": 8357, "Share": 8358, "Ġevaluate": 8359, "Ġguard": 8360, "Ġselecting": 8361, "Ġcoverage": 8362, "Ġauthors": 8363, "Eng": 8364, "eding": 8365, "eler": 8366, "Fuck": 8367, "Ġsyn": 8368, "itivity": 8369, "iana": 8370, "ĠFoundation": 8371, "Ġserving": 8372, "Ġfle": 8373, "Ġcitizens": 8374, "Ġboobs": 8375, "Ġlived": 8376, "ĠHT": 8377, "istical": 8378, "unwrap": 8379, "Ġsuccessfully": 8380, "ĠEq": 8381, "Ġkink": 8382, "Ġconfirm": 8383, "private": 8384, "ifer": 8385, "Ġthumb": 8386, "Ġgotten": 8387, "ĠTrust": 8388, "types": 8389, "ĠJake": 8390, "Ġdepartment": 8391, "Ġblind": 8392, "Ġdisappoint": 8393, "ACK": 8394, "Ġcandidates": 8395, "ucked": 8396, "Ġreveal": 8397, "inet": 8398, "ĠMo": 8399, "Str": 8400, "Ġcleaning": 8401, "Ġconstantly": 8402, "Ag": 8403, "umes": 8404, "byte": 8405, "Ġtrees": 8406, "Ġcomparison": 8407, "ĠSpecific": 8408, "Ġcul": 8409, "ji": 8410, "oking": 8411, "ĠRate": 8412, "Ġaccident": 8413, "Ġfav": 8414, "Ġdiversity": 8415, "ĠIll": 8416, "chain": 8417, "âĢī": 8418, "ĠUlt": 8419, "lets": 8420, "ĠTR": 8421, "Ġsharp": 8422, "outs": 8423, "emic": 8424, "Ġrecommendations": 8425, "Ġaroused": 8426, "Ġsubsc": 8427, "Ġnaturally": 8428, "ĠRobert": 8429, "Ġhospital": 8430, "igger": 8431, "ĠContract": 8432, "NS": 8433, "URE": 8434, "Ġregardless": 8435, "Ġcollected": 8436, "Ġopinion": 8437, "ĠLake": 8438, "Ġextend": 8439, "Ġentertainment": 8440, "ĠAnother": 8441, "ĠAssess": 8442, "EMAIL": 8443, "Ġbeach": 8444, "Ġgained": 8445, "Ġcurves": 8446, "ocratic": 8447, "Ġplanned": 8448, "Ġlessons": 8449, "Ġfluid": 8450, "Ġdepart": 8451, "Ġexistence": 8452, "Ġfees": 8453, "pless": 8454, "Ġdrove": 8455, "æķ": 8456, "Ġ(-": 8457, "ĠSun": 8458, "Î¸": 8459, "orable": 8460, "vector": 8461, "Ġconsiderations": 8462, "Ġruns": 8463, "Char": 8464, "Ġcris": 8465, "Ġafternoon": 8466, "template": 8467, "Ġ\"$": 8468, "Mode": 8469, "Ġamounts": 8470, "Ġ42": 8471, "ĠHen": 8472, "Ġimmediate": 8473, "home": 8474, "åŃ": 8475, "ĠCommon": 8476, "Ġhat": 8477, "Ġnu": 8478, "Ġreaders": 8479, "ĠImport": 8480, "Ġaside": 8481, "Ġpersons": 8482, "Ġmal": 8483, "Ġmotor": 8484, "Ġorigin": 8485, "sem": 8486, "Ġlux": 8487, "ĠProstitutes": 8488, "UE": 8489, "Write": 8490, "Ġbroken": 8491, "atalog": 8492, "ĠDivision": 8493, "Ġsurg": 8494, "Ġsteel": 8495, "Ġped": 8496, "255": 8497, "graph": 8498, "Ġbust": 8499, "NE": 8500, "igital": 8501, "ato": 8502, "001": 8503, "Ġscreamed": 8504, "***": 8505, "Ġexpressed": 8506, "Ġlights": 8507, "HERE": 8508, "ested": 8509, "Ġregister": 8510, "Ġnaughty": 8511, "ĠAccount": 8512, "Min": 8513, "Ġflexibility": 8514, "Ġreward": 8515, "Ġnearby": 8516, "Ġanalyze": 8517, "è¯": 8518, "Ġindul": 8519, "Ð¼": 8520, "Ġrender": 8521, "ĠLast": 8522, "anguages": 8523, "ĠRepublic": 8524, "Ġaest": 8525, "Ġmood": 8526, "Ġindepend": 8527, "Version": 8528, "Ġmiles": 8529, "Ġrain": 8530, "Ġmeetings": 8531, "Ġfalling": 8532, "Ġquietly": 8533, "vari": 8534, "pection": 8535, "Ġhyper": 8536, "Ġhesit": 8537, "ĠAud": 8538, "Ġwhereas": 8539, "\\[": 8540, "Ġ===": 8541, "ĠEncour": 8542, "heart": 8543, "common": 8544, "Ġaudiences": 8545, "Ġancient": 8546, "Ġsummary": 8547, "ĠSET": 8548, "ateur": 8549, "ĠRegular": 8550, "vare": 8551, "Ġinstrument": 8552, "ĠLin": 8553, "Ġembrace": 8554, "Ġalgorithms": 8555, "lastname": 8556, "Resource": 8557, "Ġresponded": 8558, "ÅŁ": 8559, "Ġstyles": 8560, "Ġfan": 8561, "Ġintroduce": 8562, "ĠMethod": 8563, "Ġsolely": 8564, "âĢ¦âĢĿ": 8565, "cean": 8566, "PECT": 8567, "pay": 8568, "ĠIF": 8569, "Ġtrouble": 8570, "Ġsam": 8571, "nam": 8572, "Ġinfo": 8573, "Ġregularly": 8574, "bert": 8575, "stairs": 8576, "Ġaccompan": 8577, "cor": 8578, "favor": 8579, "Ġtired": 8580, "}\\_{\\": 8581, "Ġburst": 8582, "ĠAcadem": 8583, "Ġintrig": 8584, "aron": 8585, "uls": 8586, "ummy": 8587, "Null": 8588, "Ġdealing": 8589, "Ġincredible": 8590, "before": 8591, "ĠNS": 8592, "Ġorders": 8593, "PC": 8594, "grade": 8595, "Ġscal": 8596, "True": 8597, "dot": 8598, "\\,": 8599, "Ġtug": 8600, "Ġcollective": 8601, "Ġathlet": 8602, "Ġsigned": 8603, "REF": 8604, "Ġstrip": 8605, "allel": 8606, "Ġoutl": 8607, "ancer": 8608, "ĠSecurity": 8609, "Ġextreme": 8610, "estyle": 8611, "Ġcovers": 8612, "rome": 8613, "itage": 8614, "Ġvolunte": 8615, "Ġrequests": 8616, "Ġroute": 8617, "GR": 8618, "sign": 8619, "Ġfunctionality": 8620, "Ġren": 8621, "Ġexplan": 8622, "Ġrid": 8623, "Ġseemingly": 8624, "ira": 8625, "acies": 8626, "ĠTer": 8627, "Ġalbum": 8628, "ĠHall": 8629, "Ġmel": 8630, "Ġï¬ģ": 8631, "Ġhabit": 8632, "ĠInternet": 8633, "Ġcreates": 8634, "Ġglad": 8635, "Ġdelay": 8636, "Ġking": 8637, "Ġdoors": 8638, "Link": 8639, "Ġtoken": 8640, "SON": 8641, "0202": 8642, "Ġviolence": 8643, "Ġcalculated": 8644, "Ġroc": 8645, "Ġspending": 8646, "require": 8647, "AAAA": 8648, "tics": 8649, "Ġpee": 8650, "ected": 8651, "Length": 8652, "Ġextent": 8653, "Ġtag": 8654, "anth": 8655, "oves": 8656, "Ġdevelopers": 8657, "ĠMount": 8658, "Ġpopulations": 8659, "meta": 8660, "ĠTor": 8661, "ĠTex": 8662, "Ġcompare": 8663, "Ġhanging": 8664, "Ġlubric": 8665, "Ġstuck": 8666, "ĠOld": 8667, "Ġpossibilities": 8668, "ila": 8669, "vm": 8670, "umbled": 8671, "Ġschedule": 8672, "Ġflood": 8673, "Ġoh": 8674, "Ġrecovery": 8675, "ribution": 8676, "Ġlowered": 8677, "door": 8678, "Ġsudden": 8679, "ĠMex": 8680, "ĠKat": 8681, "Ġlicense": 8682, "Ġdriver": 8683, "ĠFinancial": 8684, "Ġestate": 8685, "ĠStudents": 8686, "ĠLead": 8687, "Ġentrance": 8688, "Ġrooms": 8689, "Ġelection": 8690, "fin": 8691, "ĠDoes": 8692, "Check": 8693, "orthern": 8694, "Ġobjective": 8695, "Ġbat": 8696, "dist": 8697, "root": 8698, "holder": 8699, "Ġaccordance": 8700, "Ġsad": 8701, "Ñĭ": 8702, "ĠTake": 8703, "Ġwealth": 8704, "ĠEll": 8705, "Ġidentifying": 8706, "ĠCorpor": 8707, "Ġexpansion": 8708, "Instance": 8709, "ĠModel": 8710, "Return": 8711, "oured": 8712, "Ġengaged": 8713, "Ġplenty": 8714, "ĠMic": 8715, "ĠâĪ": 8716, "ĠWestern": 8717, "parency": 8718, "Ġaims": 8719, "Ġprogramming": 8720, "Ġrecorded": 8721, "Ġsubsequent": 8722, "aver": 8723, "Ġrevealing": 8724, "`)": 8725, "km": 8726, "Ġsuppl": 8727, "awn": 8728, "}}$": 8729, "Ġtrial": 8730, "ĠDen": 8731, "Ġconsists": 8732, "ĠFort": 8733, "clos": 8734, "Ġworse": 8735, "Sex": 8736, "Ġboundary": 8737, "Ġlon": 8738, "chi": 8739, "loc": 8740, "Ġfashion": 8741, "Ġpreparation": 8742, "Ġroutine": 8743, "Ġbear": 8744, "ĠKnow": 8745, "Ġdram": 8746, "options": 8747, "Ġethical": 8748, "Ġspat": 8749, "EXT": 8750, "Ġmilk": 8751, "ĠDam": 8752, "Ġwrote": 8753, "Ġadventure": 8754, "rence": 8755, "Ġfilling": 8756, "Ġfee": 8757, "Ġvelocity": 8758, "Ġbuck": 8759, "actor": 8760, "Process": 8761, "Ġtill": 8762, "Ġanalyzing": 8763, "ĠJeff": 8764, "Ġdelicious": 8765, "Ġveget": 8766, "Ġthrobbing": 8767, "buf": 8768, "Ġpanel": 8769, "Ġalcohol": 8770, "obj": 8771, "points": 8772, "Ġ::": 8773, "Ġbon": 8774, "ĠGame": 8775, "??": 8776, "ĠJew": 8777, "ĠKen": 8778, "Omega": 8779, "omic": 8780, "Ġejac": 8781, "Ġspectrum": 8782, "ĠBer": 8783, "road": 8784, "roph": 8785, "ether": 8786, "Entry": 8787, "Îµ": 8788, "Ġpaus": 8789, "Ke": 8790, "Buffer": 8791, "media": 8792, "vi": 8793, "Ġamb": 8794, "âĪ¼": 8795, "300": 8796, "Tw": 8797, "Ġnodes": 8798, "Co": 8799, "*),": 8800, "estamp": 8801, "ĠWil": 8802, "Ġminimal": 8803, "Ġportion": 8804, "Ġencompass": 8805, "Ġjustice": 8806, "Ġutilizing": 8807, "Ġcommitted": 8808, "icul": 8809, "ĠUtil": 8810, "olid": 8811, "âĶ": 8812, "ĠCost": 8813, "ĠText": 8814, "Ġcompens": 8815, "STR": 8816, "instance": 8817, "Ġinstant": 8818, "Ġexhaust": 8819, "Ġinjury": 8820, "Ġiter": 8821, "ĠLL": 8822, "Ġdrugs": 8823, "java": 8824, "Ġminimize": 8825, "Ġjobs": 8826, "ĠLord": 8827, "ollowing": 8828, "](#": 8829, "Ġreader": 8830, "ĠMO": 8831, "Ġderiv": 8832, "Ġsigh": 8833, "___": 8834, "Ġhydro": 8835, "Ġcook": 8836, "ellect": 8837, "ĠDown": 8838, "Ġeffectiveness": 8839, "ounter": 8840, "ĠImpact": 8841, "Ġagent": 8842, "isk": 8843, "Ġexpenses": 8844, "Ġslip": 8845, "ĠCasual": 8846, "Ġneut": 8847, "Bar": 8848, "ano": 8849, "ĠâĢ¦": 8850, "Ġsmir": 8851, "Ġmanager": 8852, "Ġmeasurements": 8853, "Util": 8854, "ova": 8855, "^{(": 8856, "Ġcontrolled": 8857, "ĠMer": 8858, "Ġwarmth": 8859, "Ġgoverning": 8860, "Ġconversations": 8861, "padding": 8862, "aine": 8863, "iosity": 8864, "bound": 8865, "Ġanxiety": 8866, "working": 8867, "Ġinstances": 8868, "Ġrecall": 8869, "Ġpy": 8870, "Ġgenuine": 8871, "Come": 8872, "Ġblocks": 8873, "Ġdemonstrated": 8874, "Moreover": 8875, "eds": 8876, "ĠResp": 8877, "Ġbol": 8878, "ĠExecut": 8879, "Ġhoping": 8880, "Ġsperm": 8881, "Ġexperts": 8882, "gov": 8883, "ĠFROM": 8884, "Ġshaking": 8885, "matrix": 8886, "Ġcomprom": 8887, "Ġyeah": 8888, "amount": 8889, "ĠJen": 8890, "chat": 8891, "ami": 8892, "Ġ75": 8893, "UTO": 8894, "Ġhookup": 8895, "abla": 8896, "Ġattributes": 8897, "ĠProduct": 8898, "Ġdelicate": 8899, "Ġbench": 8900, "Ġinvestigation": 8901, "Ġresidents": 8902, "Ġsilver": 8903, "Ġmanual": 8904, "Thank": 8905, "Ġneither": 8906, "Ġengineering": 8907, "Ġdreams": 8908, "Ġ39": 8909, "æĹ": 8910, "FC": 8911, "isely": 8912, "ĠApplic": 8913, "').": 8914, "ĠRyan": 8915, "Ġtomorrow": 8916, "varepsilon": 8917, "Ġtheore": 8918, "arts": 8919, "Ã£": 8920, "Ġachieved": 8921, "pathy": 8922, "ye": 8923, "è¡": 8924, "Ġextensive": 8925, "TC": 8926, "acial": 8927, "ĠEnergy": 8928, "Ġcolle": 8929, "Since": 8930, "Ġcouples": 8931, "Ġproud": 8932, "ĠLind": 8933, "Ġgrown": 8934, "Ġsoul": 8935, "Ġconsent": 8936, "ĠThomas": 8937, "ja": 8938, "Ġinterview": 8939, "Ġshy": 8940, "Ġatmosphere": 8941, "Ġtant": 8942, "neath": 8943, "Ġinstruction": 8944, "Post": 8945, "Ġjewelry": 8946, "Ġsupports": 8947, "ĠAgain": 8948, "Ġdimensions": 8949, "Ġë": 8950, "ĠEnt": 8951, "Ġimplemented": 8952, "Ġweekend": 8953, "BS": 8954, "Option": 8955, "ĠFranc": 8956, "Ġseduct": 8957, "mi": 8958, "upid": 8959, "Ġinnoc": 8960, "Ġ1999": 8961, "Ġreplaced": 8962, "`.": 8963, "Ġbik": 8964, "Ġsections": 8965, "Ġflo": 8966, "auth": 8967, "Ġcrypt": 8968, "Ġmand": 8969, "ponents": 8970, "power": 8971, "sv": 8972, "Ġru": 8973, "(_": 8974, "Ġconventional": 8975, "Ġnom": 8976, "ipt": 8977, "Pol": 8978, "Ġintercourse": 8979, "Ġglance": 8980, "Ġcaptiv": 8981, "Ġ&=": 8982, "Ġdil": 8983, "rape": 8984, "ĠConclusion": 8985, "Ġstudying": 8986, "theless": 8987, "Ġthrew": 8988, "Ġburied": 8989, "Sign": 8990, "Ġhoney": 8991, "step": 8992, "Ġwed": 8993, "Ġunknown": 8994, "Ġshares": 8995, "vas": 8996, "URL": 8997, "eal": 8998, "Ġflu": 8999, "unicip": 9000, "ĠNear": 9001, "Ġpassing": 9002, "Ġconscious": 9003, "Ġencouraging": 9004, "ĠFire": 9005, "ĠWithout": 9006, "ulum": 9007, "ometric": 9008, "Ġtap": 9009, "worth": 9010, "ollen": 9011, "Fig": 9012, "BO": 9013, "ĠCra": 9014, "Ġslit": 9015, "arks": 9016, "BR": 9017, "Ġ44": 9018, "Ġreasonable": 9019, "Ġampl": 9020, "Ġwire": 9021, "Ġsheet": 9022, "Ġprovider": 9023, "Ġstages": 9024, "Ġgrid": 9025, "address": 9026, "Ġends": 9027, "Ġmanif": 9028, "reement": 9029, "Ġacid": 9030, "Ġfulfill": 9031, "Ġchin": 9032, "Î½": 9033, "Ġasleep": 9034, "Ġacting": 9035, "Ġtent": 9036, "iva": 9037, "ĠOrder": 9038, "Ġpolitics": 9039, "urday": 9040, "iest": 9041, "Ġrevealed": 9042, "WS": 9043, "missive": 9044, "ĠCath": 9045, "ycl": 9046, "itative": 9047, "Ġfigures": 9048, "Ġrespective": 9049, "ala": 9050, "MC": 9051, "Ġoccurred": 9052, "ĠFile": 9053, "Child": 9054, "Ġ>=": 9055, "ĠLee": 9056, "Ġzone": 9057, "ĠNext": 9058, "Exper": 9059, "Ġimpossible": 9060, "quis": 9061, "Ġvit": 9062, "Ġadds": 9063, "ĠSpan": 9064, "filter": 9065, "umming": 9066, "Ġscheme": 9067, "Controller": 9068, "Ġhookers": 9069, "elihood": 9070, "ĠNE": 9071, "Ġegg": 9072, "second": 9073, "Ġtort": 9074, "Ġpri": 9075, "secut": 9076, "ĠOb": 9077, "unday": 9078, "Ġ-----": 9079, "âĭ": 9080, "should": 9081, "ĠFrance": 9082, "Ġfantastic": 9083, "ĠRole": 9084, "Ġextension": 9085, "TYPE": 9086, "Ġweren": 9087, "Ġdatas": 9088, "ometimes": 9089, "Ġguarantee": 9090, "spot": 9091, "Ġimplies": 9092, "Ġcluster": 9093, "Ġpharmaceutical": 9094, "Ġagric": 9095, "ificate": 9096, "gence": 9097, "Ð´": 9098, "ĠMill": 9099, "Ġabuse": 9100, "ĠEric": 9101, "Ġsteady": 9102, "Ġcm": 9103, "Ġperman": 9104, "Ġjournal": 9105, "ĠMean": 9106, "400": 9107, "ĠIsland": 9108, "Ġwrit": 9109, "ĠNick": 9110, "Ġsplit": 9111, "parse": 9112, "YY": 9113, "ĠOverview": 9114, "Ġbelieved": 9115, "Ġrepresented": 9116, "ĠPages": 9117, "Ġassumed": 9118, "Ġlearners": 9119, "Ġpersonnel": 9120, "Î´": 9121, "Ġdispl": 9122, "Ġspeech": 9123, "Ġloose": 9124, "DP": 9125, "Ġ\"\\": 9126, "Ġmarked": 9127, "Ġ1998": 9128, "Ġannounced": 9129, "Ġvarying": 9130, "Ġwondering": 9131, "Ġlayers": 9132, "een": 9133, "ĠBug": 9134, "Ġsilence": 9135, "ĠMembers": 9136, "iler": 9137, "ĠSystems": 9138, "Ġissued": 9139, "Ġship": 9140, "Desc": 9141, "Ã¢": 9142, "Control": 9143, "Ġstudied": 9144, "ĠSmith": 9145, "Ġ300": 9146, "oning": 9147, "ĠWIT": 9148, "ognitive": 9149, "Ġinvesting": 9150, "property": 9151, "Ġ55": 9152, "âĦ¢": 9153, "Ġcommonly": 9154, "Ġgoods": 9155, "ulf": 9156, "Ġ01": 9157, "req": 9158, "Ġpaying": 9159, "Ġvehicles": 9160, "ĠFace": 9161, "arrant": 9162, "ensus": 9163, "Men": 9164, "system": 9165, "ouch": 9166, "Ġcontained": 9167, "ĠEval": 9168, "Ġarticles": 9169, "}}{": 9170, "Ġbehaviors": 9171, "Ġcards": 9172, "Ġshop": 9173, "ician": 9174, "fortunately": 9175, "Ġfort": 9176, "ĠEr": 9177, "256": 9178, "ĠGermany": 9179, "âĪ£*": 9180, "Ġsoph": 9181, "Ġspring": 9182, "ĠMS": 9183, "ĠLisa": 9184, "Any": 9185, "Init": 9186, "ĠMeeting": 9187, "Ġwash": 9188, "ammed": 9189, "Ġuncomfort": 9190, "Ġexplo": 9191, "Ġhaz": 9192, "Button": 9193, "Ġsubmitted": 9194, "ester": 9195, "ĠÂ§": 9196, "ĠLearning": 9197, "Ġloving": 9198, "Ġevolving": 9199, "di": 9200, "Ġpromin": 9201, "Ġeconomy": 9202, "langle": 9203, "ractions": 9204, "Ġast": 9205, "RI": 9206, "google": 9207, "ĠWal": 9208, "entry": 9209, "John": 9210, "ernel": 9211, "Ġcommunicate": 9212, "eek": 9213, "Ġtechnological": 9214, "Ġabund": 9215, "Ġachieving": 9216, "Ġencourages": 9217, "Ġasks": 9218, "2012": 9219, "Ġaccessible": 9220, "Ġalternatives": 9221, "ilet": 9222, "Ġcurious": 9223, "echo": 9224, "circ": 9225, "Ġos": 9226, "ĠMa": 9227, "Ġindustries": 9228, "[\\": 9229, "Ġimprovements": 9230, "PORT": 9231, "Ġtube": 9232, "ãģĻ": 9233, "stat": 9234, "plicated": 9235, "Ġexceptional": 9236, "Firstly": 9237, "ĠPO": 9238, "into": 9239, "omy": 9240, "Ġestimates": 9241, "Ġsoil": 9242, "Ġcoast": 9243, "Ġexecution": 9244, "Ġtum": 9245, "Ġcourses": 9246, "Ġcapture": 9247, "ials": 9248, "ĠTexas": 9249, "Ġelectronic": 9250, "Ġlinked": 9251, "creen": 9252, "Ġadministration": 9253, "Hello": 9254, "ĠKar": 9255, "Ġpassionate": 9256, "Ġdepos": 9257, "Ġdrinking": 9258, "ibration": 9259, "Ġpsychological": 9260, "uru": 9261, "Ġargs": 9262, "Ġintegrity": 9263, "Ġintelligence": 9264, ";\\": 9265, "ĠPan": 9266, "Ġroughly": 9267, "anta": 9268, "Ġdiscre": 9269, "rightarrow": 9270, "Ġdirected": 9271, "}=": 9272, "Ġmm": 9273, "Ġmatches": 9274, "ugin": 9275, "Ġintegral": 9276, "Ġsky": 9277, "ione": 9278, "lem": 9279, "words": 9280, ")-": 9281, "Ġelig": 9282, "ĠRichard": 9283, "ĠMedical": 9284, "inline": 9285, "orig": 9286, "ĠCur": 9287, "Ġdocumentation": 9288, "endix": 9289, "Ġdirector": 9290, "alian": 9291, "Ġversat": 9292, "Ġincident": 9293, "Ġthousands": 9294, "ulty": 9295, "Types": 9296, "oval": 9297, ")=": 9298, "athered": 9299, "ĠLo": 9300, "Ġintegrating": 9301, "consc": 9302, "Ġloop": 9303, "una": 9304, "ĠExam": 9305, "Ġperspectives": 9306, "ĠHard": 9307, "resource": 9308, "Ġshowc": 9309, "ĠHook": 9310, "oder": 9311, "iverse": 9312, "ĠDaniel": 9313, "[:": 9314, "Ġcocks": 9315, "Ġsugar": 9316, "Ġnotable": 9317, "ĠEth": 9318, "shot": 9319, "Ġspecialized": 9320, "Ġnormally": 9321, "Ġstruggle": 9322, "Ġ43": 9323, "Dec": 9324, "Ġinequ": 9325, "Ġunderneath": 9326, "Ġadopted": 9327, "egu": 9328, "Ġblouse": 9329, "Ġears": 9330, "Ġsensations": 9331, "Ġdripping": 9332, "PH": 9333, "Ġtexture": 9334, "Ġsleeping": 9335, "Ġsustainability": 9336, "Ne": 9337, "ATA": 9338, "cover": 9339, "aper": 9340, "Ġexclusive": 9341, "Ġcontributes": 9342, "itched": 9343, "Ġdomestic": 9344, "Ġthrusting": 9345, "uddenly": 9346, "Ġmedicine": 9347, "quire": 9348, "Ġobserve": 9349, "ÑĮ": 9350, "Ġbuffer": 9351, "Ġstable": 9352, "del": 9353, "irections": 9354, "forward": 9355, "Ġclitoris": 9356, "None": 9357, "Ġswollen": 9358, "Ġfacility": 9359, "Ġfinite": 9360, "Ġtack": 9361, "Ġworksh": 9362, "avors": 9363, "contin": 9364, "ttp": 9365, "ANG": 9366, "ĠView": 9367, "Ġsexuality": 9368, "Ġanticipation": 9369, "Ġclassroom": 9370, "RC": 9371, "ubl": 9372, "kins": 9373, "ĠAnaly": 9374, "ĠYoung": 9375, "ĠSelect": 9376, "ĠAmy": 9377, "Go": 9378, "ĠHill": 9379, "GET": 9380, "assion": 9381, ";}": 9382, "Ġdow": 9383, "Ġtoss": 9384, "Ġting": 9385, "Ġexit": 9386, "za": 9387, "ĠAPI": 9388, "ĠIndust": 9389, "hav": 9390, "txt": 9391, "Ġmac": 9392, "Car": 9393, "ĠMusic": 9394, "Inst": 9395, "rotic": 9396, "Ġintervention": 9397, "Ġvote": 9398, "00000000": 9399, "Frame": 9400, "make": 9401, "iot": 9402, "acles": 9403, "Ġforever": 9404, "Pack": 9405, "Ġinstantly": 9406, "Ġcuriosity": 9407, "bits": 9408, "Ġwelcome": 9409, "ĠStrategies": 9410, "Ġpossibility": 9411, "Ġscre": 9412, "âī¥": 9413, "Ġalter": 9414, "ĠManager": 9415, "Function": 9416, "Ġembed": 9417, "Gl": 9418, "ĠEnter": 9419, "Ġautomatically": 9420, "/>": 9421, "items": 9422, "Ġwider": 9423, "issa": 9424, "Ã£o": 9425, "Ġboolean": 9426, "Ġshel": 9427, "ocker": 9428, "Ġfond": 9429, "split": 9430, "embered": 9431, "ĠLight": 9432, "ĠRight": 9433, "Ġ{{": 9434, "Ġmemories": 9435, "Ġcaut": 9436, "ĠField": 9437, "show": 9438, "Ġneighborhood": 9439, "Ġgift": 9440, "Okay": 9441, "Ġstatistics": 9442, "Ġmeasurement": 9443, "Ġphilos": 9444, "ĠUSA": 9445, "Ġmonitor": 9446, "Ġ2024": 9447, "sin": 9448, "ainer": 9449, "plex": 9450, "Ġindustrial": 9451, "Ġfairly": 9452, "Ġwidely": 9453, "Ġdebt": 9454, "Override": 9455, "unit": 9456, "ĠPot": 9457, "Ġoffset": 9458, "Ġgrasp": 9459, "ĠExamples": 9460, "Ġvisitors": 9461, "\"))": 9462, "cap": 9463, "Ġgradually": 9464, "Ġcities": 9465, "ĠJam": 9466, "Ġentities": 9467, "Ġvulnerable": 9468, "Ġadequate": 9469, "files": 9470, "Ġoperational": 9471, "ĠCurrent": 9472, "ĠAdam": 9473, "Ġlaughing": 9474, "uris": 9475, "ensure": 9476, "Ġ1990": 9477, "TS": 9478, "Ġranging": 9479, "owned": 9480, "Ġcandidate": 9481, "Ġhang": 9482, "Ġintegrated": 9483, "ĠRelations": 9484, "buffer": 9485, "ACE": 9486, "ĠMarketing": 9487, "Attribute": 9488, "Ġcontribution": 9489, "Ġvo": 9490, "Ġdegrees": 9491, "ĠAshley": 9492, "users": 9493, "ontal": 9494, "ĠRad": 9495, "Ġchances": 9496, "shadow": 9497, "Ġaffecting": 9498, "render": 9499, "Ġfemin": 9500, "ĠGlobal": 9501, "Ġsatisfying": 9502, "Ġplot": 9503, "Ġleader": 9504, "Ġaccordingly": 9505, "ĠPorn": 9506, "Ġcompr": 9507, "Ġiron": 9508, "itty": 9509, "ĠRen": 9510, "Ġstrokes": 9511, "Ġmeal": 9512, "nonumber": 9513, "yes": 9514, "favorites": 9515, "({\\": 9516, "wing": 9517, "Red": 9518, "ceptions": 9519, "Ġdistingu": 9520, "Ġhal": 9521, "ĠChair": 9522, "Ġbold": 9523, ">',": 9524, "Ġtrend": 9525, "Ġsteam": 9526, "Ġregistered": 9527, "ĠBur": 9528, "TIM": 9529, "()->": 9530, "Ġremembered": 9531, "Vis": 9532, "Ġsettled": 9533, "burg": 9534, "Format": 9535, "found": 9536, "Ġjson": 9537, "ĠPop": 9538, "Ġswing": 9539, "Ġoperate": 9540, "oute": 9541, "Ġlunch": 9542, "Ġloyal": 9543, "Ø±": 9544, "Ġindicated": 9545, "inem": 9546, "ĠConference": 9547, "_{\\": 9548, "upp": 9549, "mes": 9550, "Ġreflection": 9551, "Ġther": 9552, "Ġglanced": 9553, "Ge": 9554, "Ġicon": 9555, "ellar": 9556, "imary": 9557, "Ġrequested": 9558, "ìĿ": 9559, "rieved": 9560, "ĠChris": 9561, "Ġkinds": 9562, "stone": 9563, "Ġsegment": 9564, "gebra": 9565, "Ġpip": 9566, "store": 9567, "Ġrating": 9568, "Ġbarriers": 9569, "ĠFriday": 9570, "Ġtranslate": 9571, "achel": 9572, "cer": 9573, "Ġdevelopments": 9574, "Ġmechanism": 9575, "CHAR": 9576, "LS": 9577, "Ġposit": 9578, "ĠJoe": 9579, "Ġsheets": 9580, "ĠNor": 9581, "Ġpresentation": 9582, "Ġdestroy": 9583, "double": 9584, "Ġinteger": 9585, "Ġknee": 9586, "ĠFederal": 9587, "Ġprev": 9588, "Ġsne": 9589, "Ġdetection": 9590, "Ġtalent": 9591, "unting": 9592, "ĠANY": 9593, "ĠBrown": 9594, "Ġfinds": 9595, "Ġstorm": 9596, "avel": 9597, "Ġobst": 9598, "otted": 9599, "Ġimpressive": 9600, "&\\": 9601, "Tim": 9602, "Mark": 9603, "renc": 9604, "ĠPo": 9605, "Ġgrade": 9606, "reme": 9607, "Ġmagaz": 9608, "Ġpoll": 9609, "appa": 9610, "bles": 9611, "=>": 9612, "Ġedges": 9613, "Ġrelaxation": 9614, "ican": 9615, "Ġ['": 9616, "Order": 9617, "Ġcru": 9618, "Ġplane": 9619, "gi": 9620, "plan": 9621, "ĠSafety": 9622, "ĠStudies": 9623, "abs": 9624, "quired": 9625, "Ġvacc": 9626, "Ġboss": 9627, "ĠWas": 9628, "linear": 9629, "Ġdestination": 9630, "indy": 9631, "Ġ65": 9632, "Ġduration": 9633, "ĠWood": 9634, "ogether": 9635, "hr": 9636, "Ġcooking": 9637, "Ġnarrative": 9638, "Ġasync": 9639, "ĠMs": 9640, "ika": 9641, "Ġpunishment": 9642, "Wor": 9643, "Ġfirms": 9644, "Ġstone": 9645, "agraph": 9646, "Ġentity": 9647, "Ġsick": 9648, "auge": 9649, "hash": 9650, "eping": 9651, "Ġtransparency": 9652, "Ġconsistently": 9653, "ĠDefinition": 9654, "Dr": 9655, "Ġsomebody": 9656, "Ġreduces": 9657, "ĠBeth": 9658, "Ġsubmit": 9659, "Ġutilize": 9660, "ĠMember": 9661, "Ġpulls": 9662, "sd": 9663, "ĠCast": 9664, "Ġscent": 9665, "iley": 9666, "Ġavailability": 9667, "Ġ41": 9668, "ĠHarry": 9669, "eled": 9670, "aret": 9671, "Ġmissed": 9672, "UI": 9673, "Ġsport": 9674, "nesses": 9675, "endar": 9676, "dict": 9677, "Ġrely": 9678, "riving": 9679, "Ġjumped": 9680, "Ġhint": 9681, "ĠJon": 9682, "Ġwhisper": 9683, "Ġlatter": 9684, "Ġvig": 9685, ";/": 9686, "Ġlou": 9687, "Ġsemi": 9688, "elle": 9689, "Ġpersonality": 9690, "Ġfriendly": 9691, "Ġbillion": 9692, "acking": 9693, "Direct": 9694, "Ġenforcement": 9695, "Ġprostitution": 9696, "Ġ49": 9697, "ĠImpro": 9698, "uma": 9699, "ĠCand": 9700, "Ġscenes": 9701, "ĠJason": 9702, "Ġuncertainty": 9703, "Ġcomposition": 9704, "Ġcraw": 9705, "backs": 9706, "ĠRoman": 9707, "API": 9708, "Ġworried": 9709, "Ġexplored": 9710, "icone": 9711, "Ġtrick": 9712, "Ġrising": 9713, "Ġauthorities": 9714, "cel": 9715, "site": 9716, "Ġdraft": 9717, "Ġhumans": 9718, "Ġtreatments": 9719, "irds": 9720, "ĠBox": 9721, "charge": 9722, "Deb": 9723, "ĠJac": 9724, "Ġincredibly": 9725, "Ġbattle": 9726, "andra": 9727, "Ġpert": 9728, "}}}}": 9729, "Ġdiscussing": 9730, "Ġplate": 9731, "ushes": 9732, "ĠCond": 9733, "avy": 9734, "Ġreserved": 9735, "Ġnavigating": 9736, "ĠGrand": 9737, "Ġpassage": 9738, "BD": 9739, "clone": 9740, "à¤¾": 9741, "Ġarguments": 9742, "high": 9743, "Ġproducing": 9744, "Unit": 9745, "aylor": 9746, "Ġbeer": 9747, "ĠPers": 9748, "west": 9749, "Ġrepresenting": 9750, "ĠCross": 9751, "Ġartistic": 9752, "Ġattach": 9753, "Ġfraction": 9754, "Ġdiscrim": 9755, "Ġdrinks": 9756, "Ġdimension": 9757, "ĠFamily": 9758, "Ġcarrying": 9759, "attr": 9760, "Ġfilms": 9761, "Ġdemonstrates": 9762, "emale": 9763, "Ġanswers": 9764, "Ġending": 9765, "Ġgiggled": 9766, "Ġsqueezing": 9767, "uri": 9768, "Ġchecking": 9769, "Ġtease": 9770, "Provider": 9771, "Ġshocked": 9772, "ĠGiven": 9773, "Ptr": 9774, "\\|": 9775, "Ġcher": 9776, "Ġproductivity": 9777, "hard": 9778, "azz": 9779, "Ġreply": 9780, "Ġreplace": 9781, "Ġconcentration": 9782, "Ġstayed": 9783, "Ġepis": 9784, "ĠAI": 9785, "bridge": 9786, "Ġrolling": 9787, "fulness": 9788, "ĠFlor": 9789, "Find": 9790, "Ġhip": 9791, "adian": 9792, "Ġsolar": 9793, "ĠEXPECT": 9794, "Wr": 9795, "ĠMatt": 9796, "Ġgenerations": 9797, "nabla": 9798, "printf": 9799, "law": 9800, "ĠJose": 9801, "Ġvertical": 9802, "Ġartist": 9803, "ĠDiff": 9804, "supers": 9805, "Ġinvent": 9806, "efined": 9807, "Bec": 9808, "Ġfruit": 9809, "Ġmatching": 9810, "aire": 9811, "Ġtemplate": 9812, "Ġconsistency": 9813, "Free": 9814, "ĠBoy": 9815, "Ġshouldn": 9816, "è®": 9817, "Ġcounsel": 9818, "Sm": 9819, "å¼": 9820, "iture": 9821, "appro": 9822, "});": 9823, "erman": 9824, "128": 9825, "ĠLine": 9826, "Ġdamn": 9827, "Gamma": 9828, "ĠIII": 9829, "isher": 9830, "Ġnecessarily": 9831, "Ġbuildings": 9832, "ĠHIV": 9833, "<?": 9834, "Ġthreshold": 9835, "Ġagents": 9836, "âĤ¬": 9837, "Ġcart": 9838, "DSM": 9839, "hal": 9840, "enda": 9841, "ĠProte": 9842, "ĠCOVID": 9843, "ERROR": 9844, "Ġkeys": 9845, "Ġintellect": 9846, "Ġvillage": 9847, "adium": 9848, "Ġpercentage": 9849, "Ġefficiently": 9850, "hs": 9851, "}\"": 9852, "Ġreject": 9853, "asket": 9854, "Ġfeaturing": 9855, "enter": 9856, "ĠRon": 9857, "lam": 9858, "Ġcompos": 9859, "stal": 9860, "ĠEs": 9861, "SELECT": 9862, "Column": 9863, "ĠAmong": 9864, "Ġhence": 9865, "Ġassigned": 9866, "âĢ¦âĢ¦âĢ¦âĢ¦": 9867, "Ġprospect": 9868, "ĠVirgin": 9869, "Ġfold": 9870, "Ġstairs": 9871, "Ġmob": 9872, "untime": 9873, "ÐµÐ½": 9874, "ĠÂ£": 9875, "Ġtransactions": 9876, "inator": 9877, "Ġdrew": 9878, "etch": 9879, "Ġnud": 9880, "ticle": 9881, "Ġshout": 9882, "ĠGal": 9883, "Ġexpensive": 9884, "fold": 9885, "Ġequally": 9886, "ãģ«": 9887, "Ġnecessit": 9888, "Rev": 9889, "Right": 9890, "ummer": 9891, "Ġtransaction": 9892, "Ġpreferred": 9893, "Ġcomplement": 9894, "Ġelectron": 9895, "2011": 9896, "Ġdetermining": 9897, "Ġpremium": 9898, "ĠBrand": 9899, "ĠRos": 9900, "Ġprotein": 9901, "ĠYO": 9902, "Ġsale": 9903, "Ġprovision": 9904, "=$": 9905, "ĠSites": 9906, "ras": 9907, "Ġtoes": 9908, "SL": 9909, "geq": 9910, "Ġcrate": 9911, "Ġresponsibilities": 9912, "ĠArts": 9913, "Ġbrun": 9914, "Ġexpressions": 9915, "tn": 9916, "ricted": 9917, "Ġchick": 9918, "zon": 9919, "ç»": 9920, "Ġquantum": 9921, "Ġuniversity": 9922, "âŁ": 9923, "Ġorient": 9924, "ĠSearch": 9925, "Ġdys": 9926, "=\"../../": 9927, "ĠAction": 9928, "ĠContin": 9929, "Ġconnecting": 9930, "ä¸Ģ": 9931, "kt": 9932, "erves": 9933, "Ġminimizing": 9934, "olly": 9935, "iders": 9936, "ĠSD": 9937, "2010": 9938, "ĠTitle": 9939, "Ġ47": 9940, "ĠAG": 9941, "bc": 9942, "Ident": 9943, "Ġangry": 9944, "Ġexercises": 9945, "ĠTony": 9946, "igr": 9947, "ĠBook": 9948, "Access": 9949, "chron": 9950, "ĠDescription": 9951, "Ġcrowd": 9952, "Current": 9953, "ĠGuidelines": 9954, "Ġcommittee": 9955, "Total": 9956, "Ġprinciple": 9957, "IRE": 9958, "Ġfocuses": 9959, "Ġawk": 9960, "astern": 9961, "ĠFac": 9962, "Ġtransparent": 9963, "Ġmainly": 9964, "ĠEmer": 9965, "superscript": 9966, ">.": 9967, "Ġemission": 9968, "Ġdecades": 9969, "Ġvirt": 9970, "ĠBE": 9971, "Lastly": 9972, "ĠTheorem": 9973, "Ġclosing": 9974, "Did": 9975, "Ġrequirement": 9976, "]),": 9977, "Ġadmit": 9978, "NOT": 9979, "ĠEmploy": 9980, "Ġstored": 9981, "Ġ46": 9982, "LOG": 9983, "deg": 9984, "mode": 9985, "ĠPy": 9986, "Ġcorporate": 9987, "Ġsubjects": 9988, "Ġoutcome": 9989, "textsuperscript": 9990, "Ġsomehow": 9991, "åį": 9992, "âĢĿ.": 9993, "Ġeleg": 9994, "igslist": 9995, "asty": 9996, "ĠChapter": 9997, "ĠOK": 9998, "Ġbeliefs": 9999, "Ġjuice": 10000, "&#": 10001, "ĠYet": 10002, "ÙĬ": 10003, "ĠHead": 10004, "Ġbought": 10005, "Ġbelie": 10006, "Ġpresc": 10007, "Ġpand": 10008, "Ġ150": 10009, "Ġdisk": 10010, "session": 10011, "ĠTips": 10012, "Ġheads": 10013, "ĠRights": 10014, "ĠLib": 10015, "Ġlifestyle": 10016, "ĠCard": 10017, "ĠMedia": 10018, "ilation": 10019, "Ġanywhere": 10020, "Ġreputation": 10021, "Ġprison": 10022, "Ġprofound": 10023, "Ġflic": 10024, "Ġlift": 10025, "Ġlosing": 10026, "ĠVan": 10027, "Mon": 10028, "Ġgall": 10029, "Ġpaths": 10030, "offset": 10031, "Ġweird": 10032, "Ġfemales": 10033, "enders": 10034, "Ġpalm": 10035, "Ġdelete": 10036, "ĠShow": 10037, "prene": 10038, "gie": 10039, "ARD": 10040, "Other": 10041, "Ġcorn": 10042, "Ġpleased": 10043, "bytes": 10044, "Ġlens": 10045, "Ġtransmission": 10046, "Ġflag": 10047, "Ġqualities": 10048, "Ġcritic": 10049, "Ġhanded": 10050, "Ġuncomfortable": 10051, "Ġdrag": 10052, "emma": 10053, "role": 10054, "Ġsignals": 10055, "Ġgalaxies": 10056, "ĠAff": 10057, "åº": 10058, "cut": 10059, "such": 10060, "Ġnine": 10061, "lat": 10062, "Ġequipped": 10063, "Ġirr": 10064, "Ġdescript": 10065, ")),": 10066, "docs": 10067, "ĠBrad": 10068, "ĠConst": 10069, "Ġappealing": 10070, "prise": 10071, ")</": 10072, "PP": 10073, "evin": 10074, "Ġmetrics": 10075, "Ġfly": 10076, "Ġphotograph": 10077, "Ġgag": 10078, "Ġsilent": 10079, "Ġmagnetic": 10080, "Ġradius": 10081, "âĪŀ": 10082, "Dep": 10083, "ĠAbout": 10084, "reprene": 10085, "shirt": 10086, "Comp": 10087, "Who": 10088, "Ġnative": 10089, "Custom": 10090, "Ġprovisions": 10091, "iner": 10092, "Ġloans": 10093, "ĠSher": 10094, "ifts": 10095, "fff": 10096, "upt": 10097, "Ġroof": 10098, "Stat": 10099, "Ġrepro": 10100, "Ġtissue": 10101, "Ġcontainer": 10102, "Ġnarratives": 10103, "Ġwellbeing": 10104, "Ġtut": 10105, "Filter": 10106, "Ġdelivering": 10107, "gments": 10108, "refix": 10109, "Ġparking": 10110, "ĠÐ¿": 10111, "ussion": 10112, "ĠEarly": 10113, "Ġsought": 10114, "ĠEns": 10115, "ori": 10116, "anted": 10117, "Ġmeas": 10118, "Ġkeeps": 10119, "ĠSci": 10120, "Ġsnow": 10121, "ĠPsych": 10122, "Ġprick": 10123, "ĠError": 10124, "Ġsenior": 10125, "ido": 10126, "Header": 10127, "icating": 10128, "Ġlasting": 10129, "Ġloudly": 10130, "Ġspo": 10131, "123": 10132, "ARE": 10133, "Ġplacing": 10134, "prov": 10135, "!\\": 10136, "Ġwarning": 10137, "ĠPlanning": 10138, "ĠWr": 10139, "Ġfosters": 10140, "ĠMedic": 10141, "hot": 10142, "Ġflux": 10143, "Ġdiscovery": 10144, "ĠStar": 10145, "ĠChange": 10146, "ĠMartin": 10147, "LIC": 10148, "bell": 10149, "Ġownership": 10150, "ĠScot": 10151, "ali": 10152, "jo": 10153, "nap": 10154, "Gr": 10155, "Ġdominant": 10156, "_.": 10157, "ĠEU": 10158, "none": 10159, "clear": 10160, "Ġweap": 10161, "Ġtables": 10162, "ĠIsra": 10163, "Ġlean": 10164, "Ġwand": 10165, "ĠFre": 10166, "footer": 10167, "Ġgym": 10168, "uffy": 10169, "vol": 10170, "Ġhealing": 10171, "Ġdear": 10172, "102": 10173, "bro": 10174, "Ġthreats": 10175, "Ġmales": 10176, "---|---|---|---|": 10177, "xml": 10178, "enue": 10179, "ĠPenn": 10180, "Ġfamous": 10181, "device": 10182, "IZE": 10183, "Ġparticles": 10184, "ĠColumb": 10185, "Ġwindows": 10186, "ervative": 10187, "ĠEscort": 10188, "fmt": 10189, "pin": 10190, "æķ°": 10191, ")?": 10192, "ĠArea": 10193, "Ġmarg": 10194, "ĠChall": 10195, "Ġpersonally": 10196, "IGHT": 10197, "ĠPerformance": 10198, "å°": 10199, "ĠTur": 10200, "Ġspanking": 10201, "ĠMarket": 10202, "Ġshopping": 10203, "Ġcompelling": 10204, "ITION": 10205, "Valid": 10206, "Label": 10207, "urse": 10208, "Ġbriefly": 10209, "Work": 10210, "*).": 10211, "cat": 10212, "Ġbone": 10213, "Ġho": 10214, "âĢ³": 10215, "iki": 10216, "ĠRussian": 10217, "Ġgrat": 10218, "éĢ": 10219, "Ġdust": 10220, "git": 10221, "zer": 10222, "Ġcalculate": 10223, "BN": 10224, "Example": 10225, "Ġromantic": 10226, "Ġburning": 10227, "Ġchecked": 10228, "Ġtheoretical": 10229, "Ġlets": 10230, "full": 10231, "omething": 10232, "osystem": 10233, "ĠSpecifically": 10234, "Ġstocking": 10235, "ulator": 10236, "Ġorganic": 10237, "Mr": 10238, "ko": 10239, "river": 10240, "Ġglow": 10241, "Ġcontinuing": 10242, "custom": 10243, "imp": 10244, "ĠGra": 10245, "Ġharness": 10246, "Ġemissions": 10247, "ĠPage": 10248, "ĠOwn": 10249, "Ġbranch": 10250, "Ġlube": 10251, "ĠMicrosoft": 10252, "Ġfirstname": 10253, "Ġclassic": 10254, "ĠBlue": 10255, "Ġhomes": 10256, "SU": 10257, "ruption": 10258, "Ġapproached": 10259, "Ġsupplement": 10260, "Ġexperiencing": 10261, "Ġadvancements": 10262, "Ġpreserving": 10263, "Ġloan": 10264, "Ġsocietal": 10265, "Ġ400": 10266, "total": 10267, "Ġmeets": 10268, "Ġestablishing": 10269, "Ġversus": 10270, "eared": 10271, "apse": 10272, "ĠKelly": 10273, "Ġvibrant": 10274, "ificial": 10275, "____________": 10276, "Dir": 10277, "ethe": 10278, "ĠâĨ": 10279, "Ġconfused": 10280, "ĠGeorg": 10281, "Ġ------": 10282, "ĠRest": 10283, "Ġcontents": 10284, "delete": 10285, "Description": 10286, "Ġmes": 10287, "Ġarrangements": 10288, "<!--": 10289, "access": 10290, "!(\"": 10291, "Ġlever": 10292, "Ġ02": 10293, "itudes": 10294, "Ġsubmissive": 10295, "Ġsucceed": 10296, "ela": 10297, "ĠSH": 10298, "ĠBab": 10299, "ĠJenny": 10300, "Ġgrace": 10301, "ĠStandard": 10302, "ĠGuide": 10303, "uling": 10304, ")/": 10305, "endor": 10306, "Ġacquis": 10307, "stack": 10308, "Ġ................": 10309, "Ġwhore": 10310, "Case": 10311, "Ġvotes": 10312, "ĠFood": 10313, "ĠShould": 10314, "Ġcas": 10315, "pie": 10316, "Ġtrace": 10317, "Ins": 10318, "VE": 10319, ")*": 10320, "Ġ1997": 10321, "Ġaudio": 10322, "Ġtelevision": 10323, "GO": 10324, "present": 10325, "Ġnewly": 10326, "ĠSubmission": 10327, "weet": 10328, "Ġmail": 10329, "Ġstrongly": 10330, "Ġwake": 10331, "keys": 10332, "ĠCollab": 10333, "Ġsurve": 10334, "Ġgun": 10335, "Ġattribute": 10336, "âĢĺ": 10337, "Ġ1996": 10338, "Ġleaning": 10339, "}}}": 10340, "ĠExecutive": 10341, "ĠSC": 10342, "ĠChampions": 10343, "Ġofficer": 10344, "Ġselling": 10345, "Ġflash": 10346, "Ġpartnerships": 10347, "ĠSuccess": 10348, "Ġtrained": 10349, "ĠRay": 10350, "Only": 10351, "Ġpowers": 10352, "Ġrail": 10353, "Ġhoped": 10354, "Ġclock": 10355, "Ġblowjob": 10356, "dl": 10357, "ĠProt": 10358, "Ġordinary": 10359, "ĠSem": 10360, "Ġtaught": 10361, "stasy": 10362, "ĠSunday": 10363, "Ġdangerous": 10364, "rog": 10365, "ĠIndex": 10366, "Ġmillions": 10367, "ĠMajor": 10368, "Ġpor": 10369, "tree": 10370, "handle": 10371, "PM": 10372, "organ": 10373, "Ġbinary": 10374, "Ġsolve": 10375, "ĠAgreement": 10376, "Ġembarrassed": 10377, "Settings": 10378, "Ġouter": 10379, "Ġregistration": 10380, "Ġboots": 10381, "LI": 10382, "Ġswallowed": 10383, "pdf": 10384, "Ġna": 10385, "ĠFoot": 10386, "ĠNic": 10387, "Script": 10388, "sys": 10389, "Ġparticipating": 10390, "Ġcriminal": 10391, "ĠEmily": 10392, "Ġundert": 10393, "join": 10394, "}}\\_{": 10395, "Ġexch": 10396, "Ġcredits": 10397, "Ġsoc": 10398, "essages": 10399, "ĠConnect": 10400, "Ġlos": 10401, "ATH": 10402, "Ġargue": 10403, "ĠAUTO": 10404, "ĠLouis": 10405, "Sty": 10406, "Ġreform": 10407, "rapy": 10408, "Ġrear": 10409, "erge": 10410, "estion": 10411, "ãĤĴ": 10412, "Ġmomentum": 10413, "Cal": 10414, "Ġentering": 10415, "Ġwarrant": 10416, "ĠStill": 10417, "Ġarbit": 10418, "blem": 10419, "friendly": 10420, "'],": 10421, "ĠBC": 10422, "Ġpayments": 10423, "arding": 10424, "Ġsecondary": 10425, "Ġtracking": 10426, "Ġversions": 10427, "Ġdriven": 10428, "`,`": 10429, "FO": 10430, "Ġempowerment": 10431, "Down": 10432, "Ġunt": 10433, "cache": 10434, "ÙĨ": 10435, "Ġenjoyment": 10436, "Ġdedication": 10437, "itals": 10438, "ĠMot": 10439, "():": 10440, "onday": 10441, "WN": 10442, "Ġmathematical": 10443, "Ġ1000": 10444, "aration": 10445, "ĠÂ±": 10446, "Ġcompanions": 10447, "*âĪĴ": 10448, "Ġasset": 10449, "Run": 10450, "acher": 10451, "Ġtemperatures": 10452, "Ġdiseases": 10453, "Const": 10454, "ictionary": 10455, "ĠVersion": 10456, "Ġbreakfast": 10457, "Ġwis": 10458, "ĠApps": 10459, "Ġmembership": 10460, "ĠJosh": 10461, "atabase": 10462, "Ġplanet": 10463, "Ġflexible": 10464, "ĠOpt": 10465, "ĠCharles": 10466, "rames": 10467, "Ġintroduction": 10468, "Ġremarkable": 10469, "âĶĢ": 10470, "Entity": 10471, "connected": 10472, "ĠFlorida": 10473, "Ġawkward": 10474, "rapeut": 10475, "Ġguests": 10476, "Non": 10477, "ONE": 10478, "pop": 10479, "Ġtargets": 10480, "ĠSoftware": 10481, "prop": 10482, "small": 10483, "ais": 10484, "ĠDar": 10485, "Ġ52": 10486, "Ġrgba": 10487, "Ġborrow": 10488, "Ġbonds": 10489, "icago": 10490, "ĠSaturday": 10491, "},\\": 10492, "Ġcampaigns": 10493, "ĠAT": 10494, "Ġcultures": 10495, "master": 10496, "Names": 10497, "MT": 10498, "ĠSpanish": 10499, "ĠJessica": 10500, "Ġaccessibility": 10501, ".$$": 10502, "izational": 10503, "Ġunus": 10504, "Ġutf": 10505, "Ġmasturbation": 10506, "?:": 10507, "ĠAge": 10508, "Ġinline": 10509, "Ġforcing": 10510, "Ġclubs": 10511, "Ġreturning": 10512, "åĽ": 10513, "Ġfurn": 10514, "ĠFuture": 10515, "CREMENT": 10516, "Ġevaluating": 10517, "Ġcumming": 10518, "ĠRO": 10519, "ĠTrue": 10520, "ĠCHAR": 10521, "Ġgrass": 10522, "Ġille": 10523, "}}{\\": 10524, "Ġinvited": 10525, "area": 10526, "Author": 10527, "=\\\"": 10528, "ĠBY": 10529, "Ġ1995": 10530, "Ġshifted": 10531, "Cache": 10532, "Ġxxx": 10533, "IVE": 10534, "Ġadhere": 10535, "grid": 10536, "Ġlanguages": 10537, "Ġreactions": 10538, "Ġyields": 10539, "Ġremoving": 10540, "Ġwest": 10541, "ĠAltern": 10542, "etilde": 10543, "Ġanger": 10544, "atching": 10545, "Ġsuppose": 10546, "ĠNetwork": 10547, "widetilde": 10548, "send": 10549, "Ġflight": 10550, "ĠCongress": 10551, "Async": 10552, "nie": 10553, "Ġfalls": 10554, "Ġthoroughly": 10555, "owers": 10556, "ĠGre": 10557, "Ġobservation": 10558, "Ġ120": 10559, "Ġsomewhere": 10560, "Ġtempt": 10561, "âĢĿ,": 10562, "Ġbytes": 10563, "ocate": 10564, "GC": 10565, "edy": 10566, "Account": 10567, "Ġnob": 10568, "ĠRock": 10569, "Ġpairs": 10570, "rium": 10571, "tage": 10572, "Ġorganized": 10573, "Level": 10574, "Ġteased": 10575, "Ġgiant": 10576, "Ġecosystem": 10577, "Ġinvestments": 10578, "ÑģÑĤ": 10579, "Ġpractition": 10580, "Ġpec": 10581, "Ġtoilet": 10582, "Ġbutter": 10583, "Ġpregnant": 10584, "wan": 10585, "Ġ56": 10586, "ĠDave": 10587, "Ġdancing": 10588, "Ġscientists": 10589, "ilst": 10590, "Pass": 10591, "Ġkilled": 10592, "Ġfigured": 10593, "ĠFred": 10594, "ĠCOMM": 10595, "Ġoptimization": 10596, "dest": 10597, "Ġchose": 10598, "Ġobj": 10599, "Ġbite": 10600, "ĠArg": 10601, "ðĿ": 10602, "Ġtokens": 10603, "Ġphysically": 10604, "ĠChristmas": 10605, "Ġprecise": 10606, "ĠME": 10607, "ĠFrancis": 10608, "Ġconference": 10609, "Port": 10610, "Ġsetup": 10611, "Ġpara": 10612, "dimensional": 10613, "Ġscared": 10614, "iability": 10615, "Äģ": 10616, "Ġpenal": 10617, "Ġputs": 10618, "Ġcondom": 10619, "Ġyellow": 10620, "Ġphr": 10621, "Ġgranted": 10622, "esome": 10623, "ophy": 10624, "|--------": 10625, "igan": 10626, "Ġcountless": 10627, "Phi": 10628, "sa": 10629, "apsed": 10630, "Ġscores": 10631, "Ġretail": 10632, "Ġprofit": 10633, "ALTER": 10634, "Ġcrisis": 10635, "Ġbub": 10636, "DC": 10637, "Pe": 10638, "person": 10639, "ARR": 10640, "Ġcompletion": 10641, "LY": 10642, "ĠInf": 10643, "ĠAdult": 10644, "ECT": 10645, "ĠWay": 10646, "ĠAma": 10647, "aste": 10648, "Module": 10649, "oster": 10650, "clusions": 10651, "Ġowners": 10652, "nic": 10653, "utter": 10654, "Ġscrew": 10655, "Pat": 10656, "was": 10657, "Ã¨": 10658, "Ġmask": 10659, "ĠMedium": 10660, "Ġassumptions": 10661, "Factory": 10662, "ĠTax": 10663, "Ġofficials": 10664, "Target": 10665, "craft": 10666, "SQL": 10667, "ĠÐ²": 10668, "800": 10669, "ĉĠĠĠ": 10670, "Ġopens": 10671, "Ġmenu": 10672, "Ġtheme": 10673, "Project": 10674, "Ġcharges": 10675, "Every": 10676, "God": 10677, "Hz": 10678, "Ġcorrectly": 10679, "ĠEngineering": 10680, "ĠImportance": 10681, "Ġholes": 10682, "Ġimagined": 10683, "idget": 10684, "Ġample": 10685, "Ġinvestors": 10686, "Ġforming": 10687, "ymmet": 10688, "rolled": 10689, "ilton": 10690, "Ġpreparing": 10691, "Ac": 10692, "Ġconservation": 10693, "ugg": 10694, "ĠWindows": 10695, "ĠThose": 10696, "vance": 10697, "Ġgate": 10698, "agger": 10699, "Ġarise": 10700, "ĠAlice": 10701, "ĠLooking": 10702, "Ġlighting": 10703, "Br": 10704, "rapper": 10705, "ĠGrow": 10706, "ENC": 10707, "Ġecstasy": 10708, "ĠBenef": 10709, "assets": 10710, "Ġriver": 10711, "Ġrubber": 10712, "auto": 10713, "ĠSaint": 10714, "awa": 10715, "ĠLes": 10716, "Ġaband": 10717, "Ġsafegu": 10718, "Ġtransc": 10719, "ensuremath": 10720, "Ġcolon": 10721, "Ġdirectory": 10722, "Ġdecrease": 10723, "Url": 10724, "Ġsubmission": 10725, "Ġdetermination": 10726, "Ġsuperior": 10727, "Ġinspiration": 10728, "Ġrestaurant": 10729, ")[": 10730, "ĠDigital": 10731, "ĠThanks": 10732, "Ġexperiments": 10733, "}},": 10734, "Ġguided": 10735, "Enc": 10736, "Ġmerg": 10737, "document": 10738, "Ġcere": 10739, "kappa": 10740, "ĠNY": 10741, "oolean": 10742, "ĠIr": 10743, "ĠCR": 10744, "Ġaccum": 10745, "Vert": 10746, "ĠHence": 10747, "reference": 10748, "onomy": 10749, "ĠPlus": 10750, "Hash": 10751, "2009": 10752, "telling": 10753, "Ġpm": 10754, "Ġdisp": 10755, "IND": 10756, "closure": 10757, "Ġcott": 10758, "Â²": 10759, "Ġmarks": 10760, "Ġabsence": 10761, "hist": 10762, "ĠRick": 10763, "models": 10764, "Ġhighlighting": 10765, "Tree": 10766, "Ġdollars": 10767, "Ġwinter": 10768, "Ġanus": 10769, "iev": 10770, "ĠQC": 10771, "ĠAgency": 10772, "Ġ53": 10773, "ĠDean": 10774, "Ġcollar": 10775, "ĠAssert": 10776, "Ġofficers": 10777, "Ġperformances": 10778, "fi": 10779, "Second": 10780, "copy": 10781, "Ġpaused": 10782, "Ġcharacterized": 10783, ".**": 10784, "Ġadvis": 10785, "ĠBeing": 10786, "Ġstrap": 10787, "Ġanalys": 10788, "elcome": 10789, "ĠItalian": 10790, "ĠUpdate": 10791, "acked": 10792, "Ġshapes": 10793, "Ġsqueeze": 10794, "Ġelectricity": 10795, "ige": 10796, "rained": 10797, "zil": 10798, "utils": 10799, "ĠIncre": 10800, "shape": 10801, "Ġspreading": 10802, "Ġgest": 10803, "Ġspr": 10804, "Ġwriter": 10805, "Ġincorporate": 10806, "\\\":": 10807, "erate": 10808, "Ġraising": 10809, "Ġdiagram": 10810, "ĠChildren": 10811, "Ġinterpretation": 10812, "Ġprecisely": 10813, "Ġmaps": 10814, "Ġgasp": 10815, "2000": 10816, "dess": 10817, "Ġindicating": 10818, "abil": 10819, "ĠPL": 10820, "Ġdelivered": 10821, "Ġriding": 10822, "Ġrecognizing": 10823, "Ġpartial": 10824, "Ġcombining": 10825, "ĠThank": 10826, "Ïķ": 10827, "pool": 10828, "Ġbin": 10829, "Ġstupid": 10830, "Ġjuris": 10831, "ENSE": 10832, "Ġvariations": 10833, "ĠEstabl": 10834, "Ġpolynom": 10835, "ĠJulie": 10836, "Ġfourth": 10837, "Ġpumping": 10838, "Ġlucky": 10839, "plus": 10840, "aya": 10841, "?'": 10842, "agues": 10843, "Ġfmt": 10844, "Cre": 10845, "Ġprotocols": 10846, "ĠFour": 10847, "ĠWorks": 10848, "401": 10849, "\\(": 10850, "Ġidentification": 10851, "Ġinstallation": 10852, "Ġchecks": 10853, "Ġrestrictions": 10854, "amps": 10855, "Ġrush": 10856, "PER": 10857, "Ġhate": 10858, "ogy": 10859, "Ġunion": 10860, "Ġeveryday": 10861, "ih": 10862, "ĠHappy": 10863, "ĠLy": 10864, "ĠNeed": 10865, "rices": 10866, "Ġfunc": 10867, "Ġexpon": 10868, "Ġrepair": 10869, "Ġsurprising": 10870, "Sec": 10871, "Ġpale": 10872, "Ġ<!--": 10873, "Ġ255": 10874, "Ġillustrate": 10875, "000000": 10876, "mo": 10877, "Ġshame": 10878, "Ġprecision": 10879, "ĠMaterial": 10880, "ĠValley": 10881, "Ġbehaviour": 10882, "=\"/": 10883, "Ġcorrelation": 10884, "Pos": 10885, "Ġregulation": 10886, "Ġdisplayed": 10887, "ĠUltimately": 10888, "Ġreaches": 10889, "ĠCup": 10890, "Ġwip": 10891, "Ġgauge": 10892, "idx": 10893, "cb": 10894, "Ġempathy": 10895, "Ġbridge": 10896, "Ġcaress": 10897, "rupted": 10898, "claimed": 10899, "Ġenem": 10900, "Ġtested": 10901, "Ġlikelihood": 10902, "Ġpil": 10903, "Ġrecover": 10904, "oven": 10905, "Ġhelpful": 10906, "ĠJohnson": 10907, "Ġcow": 10908, "cup": 10909, "Tag": 10910, "Ġpel": 10911, "ilib": 10912, "Ġdrunk": 10913, "Ġinfection": 10914, "ĠHon": 10915, "eyond": 10916, "Ġattracted": 10917, "Ġexplicitly": 10918, "Ġ),": 10919, "SR": 10920, "redit": 10921, "Ġroots": 10922, "Ġstrang": 10923, "Ġhungry": 10924, "Ġsenses": 10925, "Ġcharged": 10926, "remove": 10927, "element": 10928, "Ġfunny": 10929, "Ġhorse": 10930, "ĠHD": 10931, "Ġkm": 10932, "enger": 10933, "ĠChief": 10934, "ĠHenry": 10935, "xid": 10936, "Ġinfin": 10937, "profile": 10938, "Ġunsigned": 10939, "<'": 10940, "Ġmodes": 10941, "/*!": 10942, "ĠKore": 10943, "Ġ51": 10944, "ĠSeries": 10945, "Ġdesignated": 10946, "rition": 10947, ":</": 10948, "El": 10949, "Ġinsight": 10950, "ĠRequest": 10951, "Ġenjoyable": 10952, "Through": 10953, "ĠConfig": 10954, "ĠTraining": 10955, ">\\": 10956, "à®": 10957, "Ġactively": 10958, "Layout": 10959, "styles": 10960, "Ġlesson": 10961, "Ġpose": 10962, "Ġbrunette": 10963, "varphi": 10964, "opp": 10965, "Ev": 10966, "category": 10967, "INCREMENT": 10968, "Ġstretching": 10969, "Ġfault": 10970, "ĠBDSM": 10971, "Ġprohib": 10972, "Ġconvenience": 10973, "Ġsubtle": 10974, "ĠExperience": 10975, "iÃ³n": 10976, "Ġbuttons": 10977, "Ġcompact": 10978, "Ġenhances": 10979, "ucks": 10980, "Ïī": 10981, "Ġimper": 10982, "Ġrepeat": 10983, "ĠPath": 10984, "Ġmusical": 10985, "Ġbiggest": 10986, "ĠJun": 10987, "Ġsensitivity": 10988, "Ġhardly": 10989, "Although": 10990, "Ġprominent": 10991, "FORM": 10992, "aying": 10993, "Ġprime": 10994, "Position": 10995, "vals": 10996, "Ġexplos": 10997, "ĠLaur": 10998, "Ġskilled": 10999, "Ġbabe": 11000, "ĠIss": 11001, "ibl": 11002, "Ġinterval": 11003, "Ġresting": 11004, "Ġpricing": 11005, "ĠMadison": 11006, "Ġ\"\"": 11007, "Stud": 11008, "ograp": 11009, "plet": 11010, "Ġarchitecture": 11011, "Ġtemporary": 11012, "ĠLittle": 11013, "Ġ<=": 11014, "othe": 11015, "Ġmonthly": 11016, ")).": 11017, "Ġcognitive": 11018, "Debug": 11019, "Ġcompatibility": 11020, "HS": 11021, "Ġhero": 11022, "Ġankles": 11023, "Ġparams": 11024, "ĠTreat": 11025, "PRE": 11026, "VAL": 11027, "oooo": 11028, "folio": 11029, "Ġjaw": 11030, "erer": 11031, "Ġtradition": 11032, "Ġexpanding": 11033, "ipher": 11034, "Ġworship": 11035, "ĠAustralian": 11036, "ĠEnvironmental": 11037, "Rule": 11038, "agg": 11039, "ĠPass": 11040, "ĠMarg": 11041, "Ġvoc": 11042, "ĠDaddy": 11043, "Ġ\"<": 11044, "pense": 11045, "command": 11046, "Ġhardware": 11047, "BE": 11048, "Ñĩ": 11049, "Ġpreventing": 11050, "Look": 11051, "Ġconfirmed": 11052, "Ġfighting": 11053, "ĠAri": 11054, "Ġul": 11055, "omorph": 11056, "acer": 11057, "Body": 11058, "ben": 11059, "pu": 11060, "Ġmuscular": 11061, "Chapter": 11062, "Ġwrap": 11063, "Ġmerc": 11064, "ostic": 11065, "ships": 11066, "ĠMap": 11067, "Ġstrengthen": 11068, "Ġpositively": 11069, "Ġproposal": 11070, "Ġfacts": 11071, "ĠAtl": 11072, "wa": 11073, "aka": 11074, "Ġcircles": 11075, "neys": 11076, "Ġscan": 11077, "Ġfluct": 11078, "Ġnp": 11079, "ĠRose": 11080, "wd": 11081, "ĠBrian": 11082, "æĺ¯": 11083, "Hi": 11084, "Ġhem": 11085, "everal": 11086, "Ġelectrical": 11087, "Ġparallel": 11088, "Ġcars": 11089, "rapeutic": 11090, "ĠParis": 11091, "Ġsemen": 11092, "¤í": 11093, "otype": 11094, "Ġcontracts": 11095, "Device": 11096, "orted": 11097, "istan": 11098, "ĠApplications": 11099, "Ġtrail": 11100, "Ġcompute": 11101, "Ġ06": 11102, "interface": 11103, "Ð¿": 11104, "áº": 11105, "ĠAnna": 11106, "ĠOfficer": 11107, "task": 11108, "}-": 11109, "ĠLibrary": 11110, "Like": 11111, "aki": 11112, "ĠOrig": 11113, "Ġgenetic": 11114, "ĠThree": 11115, "Ġowned": 11116, "Ġalert": 11117, "mmm": 11118, "ĠLevel": 11119, "Task": 11120, "through": 11121, "Mult": 11122, "ashes": 11123, "cludes": 11124, "ĠIndeed": 11125, "Most": 11126, "created": 11127, "inf": 11128, "Ġwoke": 11129, "ĠOl": 11130, "password": 11131, "mathsf": 11132, "itan": 11133, "Ġdecor": 11134, "amiliar": 11135, "å¹": 11136, "Connection": 11137, "ĠProtection": 11138, "hire": 11139, "thread": 11140, "Ġconversion": 11141, "ĠFinal": 11142, "forget": 11143, "ĠSpirit": 11144, "eh": 11145, "ÙĪ": 11146, "Ġpriority": 11147, "Ġurg": 11148, "cloud": 11149, "iac": 11150, "ĠFacebook": 11151, "Ġbacter": 11152, "Ġinval": 11153, "Ġintellectual": 11154, "ensing": 11155, "rovers": 11156, "--|----------------": 11157, "Ġovercome": 11158, "okes": 11159, "Ġemerged": 11160, "Ben": 11161, "Print": 11162, "sur": 11163, "Ġclassical": 11164, "Ġlaying": 11165, "Ġstrengths": 11166, "Ġwaters": 11167, "Ġeast": 11168, "Ġrural": 11169, "Ġflavor": 11170, "LA": 11171, "ez": 11172, "Ġinstalled": 11173, "|----": 11174, "Handle": 11175, "Ġgovernance": 11176, ")|": 11177, "irts": 11178, "Params": 11179, "Ġinvolvement": 11180, "ĠArmy": 11181, "]:": 11182, "utf": 11183, "Ġplain": 11184, "Ġ54": 11185, "Ġcheap": 11186, "mult": 11187, "Ġfart": 11188, "unched": 11189, "Ġcrossed": 11190, "Ġ03": 11191, "Ġbattery": 11192, "ribed": 11193, "Ġoperators": 11194, "hend": 11195, "uto": 11196, "Ġsoap": 11197, "Ġcoc": 11198, "Ġisland": 11199, "ĠRh": 11200, "debug": 11201, "ĠMD": 11202, "ocolate": 11203, "ĠAward": 11204, "Ġdiscount": 11205, "ĠNews": 11206, "EA": 11207, "Each": 11208, "Ġpour": 11209, "Ġbeneficial": 11210, "Ġdirections": 11211, "Ġofferings": 11212, "Ġpapers": 11213, "Ġmild": 11214, "Ġcooperation": 11215, "Ġtie": 11216, "avorite": 11217, "Ġpier": 11218, "crets": 11219, "ĠCentre": 11220, "Container": 11221, "Ġages": 11222, "entials": 11223, "Ġseriously": 11224, "Op": 11225, "ĠTour": 11226, "ĠEffect": 11227, "Ġsurfaces": 11228, "ĠInterest": 11229, "bas": 11230, "mid": 11231, "Ġheader": 11232, "chant": 11233, "ĠRam": 11234, "Ġretire": 11235, "nat": 11236, "2008": 11237, "Ġseamless": 11238, "Ġbikini": 11239, "Ġdisput": 11240, "ordinary": 11241, "Ġgenerating": 11242, "Ġignore": 11243, "ldots": 11244, "Ġfinance": 11245, "Ġrevolution": 11246, "cmd": 11247, "spe": 11248, "Ġchuckled": 11249, "Ġattempts": 11250, "comment": 11251, "agra": 11252, "Ġpromising": 11253, "SM": 11254, "Ġentreprene": 11255, "ÑĢÐ°": 11256, "Ġshell": 11257, "Ġgolden": 11258, "Ġdivision": 11259, "Ġadministrative": 11260, "ĠLabor": 11261, "ĠJean": 11262, "Ġspark": 11263, "Ġcommission": 11264, "aware": 11265, "ierarch": 11266, "ĠØ§": 11267, "Ġduty": 11268, "irting": 11269, "Ġslick": 11270, "Ġvisiting": 11271, "erk": 11272, "esides": 11273, "Ġpix": 11274, "Ġperm": 11275, "Ġ1994": 11276, "Ġletters": 11277, "Ġcompanion": 11278, "Two": 11279, "rons": 11280, "Ġalive": 11281, "Ġaxis": 11282, "ĠObs": 11283, "cipl": 11284, "Num": 11285, "ĠChicago": 11286, "Ġbits": 11287, "Ġcomplicated": 11288, "ĠZh": 11289, "oop": 11290, "Ġpiv": 11291, "rying": 11292, "Ġdefe": 11293, "Ġbegging": 11294, "MAX": 11295, "ĠTask": 11296, "Ġintention": 11297, "Width": 11298, "Vari": 11299, "ĠPA": 11300, "white": 11301, "Ġcopyright": 11302, "urations": 11303, "Ġagreements": 11304, "Location": 11305, "alous": 11306, "Ġinhib": 11307, "icted": 11308, "blog": 11309, "ãĤĭ": 11310, "ERV": 11311, "âĢ¦,": 11312, "Ġtargeted": 11313, "Ġaccurately": 11314, "Ġsilk": 11315, "1000": 11316, "Ġthrusts": 11317, "Ġconfront": 11318, "ĠLive": 11319, "ĠCarl": 11320, "acts": 11321, "Ġpocket": 11322, "Ġ59": 11323, "Ġstatistical": 11324, "Ġlaunch": 11325, "åľ¨": 11326, "Ġdescribes": 11327, "Ġjudgment": 11328, "2007": 11329, "Ġmath": 11330, "Ġcrying": 11331, "Ġaccounting": 11332, "Vector": 11333, "Ġpra": 11334, "ĠBase": 11335, "Ġ],": 11336, "ima": 11337, "Ġbulge": 11338, "Ġash": 11339, "Ġinjuries": 11340, "Ġlinger": 11341, "ĠCanadian": 11342, "Ġinterventions": 11343, "Ġaffili": 11344, "ĠWould": 11345, "Delete": 11346, "Ġnamespace": 11347, "ĠNov": 11348, "Ġthong": 11349, "2006": 11350, "ĠSol": 11351, "Ġgreatest": 11352, "Ġmaximize": 11353, "athan": 11354, "Ġinviting": 11355, "brid": 11356, "Ġpainful": 11357, "Ġexperimental": 11358, "Ġcenters": 11359, "aul": 11360, "Ġclust": 11361, "Ġcounterpart": 11362, "TA": 11363, "amber": 11364, "Ġsofa": 11365, "eger": 11366, "\")]": 11367, "ircraft": 11368, "ĠKingdom": 11369, "Ġdiscret": 11370, "'>": 11371, "ĠMuse": 11372, "Ġdispar": 11373, "ãģĹ": 11374, "equal": 11375, "ĠCert": 11376, "ĠLiter": 11377, "Ġtrim": 11378, "uple": 11379, "ĠAlan": 11380, "ĠMinister": 11381, "%.": 11382, "Product": 11383, "Ġprincipal": 11384, "IX": 11385, "Ġvess": 11386, "Ġdisturb": 11387, "Ġadvertising": 11388, "ĠSqu": 11389, "Ġ95": 11390, "Ġspray": 11391, "lik": 11392, "During": 11393, "Ġperceived": 11394, "Ġstopping": 11395, "Ġradiation": 11396, "Ġstrings": 11397, "OLD": 11398, "Ġattacks": 11399, "ĠNatural": 11400, "ĠTaylor": 11401, "Ġbrush": 11402, "hell": 11403, "orney": 11404, "Ġ>>": 11405, "Ġcrime": 11406, "Ġattempting": 11407, "Range": 11408, "including": 11409, "iggle": 11410, "ĠTam": 11411, "Ġcaressing": 11412, "Ġtoler": 11413, "Ġlegislation": 11414, "acific": 11415, "Height": 11416, "Ġsimulation": 11417, "Ġmaintained": 11418, "Ġlung": 11419, "Ġpermit": 11420, "150": 11421, "Ġequity": 11422, "Ġnam": 11423, "fall": 11424, "nov": 11425, "Ġproduc": 11426, "gressive": 11427, "Ġsummar": 11428, "blue": 11429, "Ġexplanation": 11430, "Ġvisibility": 11431, "ĠEnhance": 11432, "ĠOnt": 11433, "\\_{{\\": 11434, "Ġnurt": 11435, "Ġconcrete": 11436, ":#": 11437, "ĠChem": 11438, "vo": 11439, "ĠAB": 11440, "Ġinterf": 11441, "merce": 11442, "Ġintimacy": 11443, "ws": 11444, "Ġlosses": 11445, "Ġtape": 11446, "Ġgovernments": 11447, "Ġtempor": 11448, "Ġdenote": 11449, "Ob": 11450, "thels": 11451, "Ġsavings": 11452, "Ġstructural": 11453, "Ġclimbed": 11454, "ĠAzure": 11455, "Ġ1980": 11456, "Ġoriginally": 11457, "Ġsurgery": 11458, "osex": 11459, "Param": 11460, "Ġspatial": 11461, "Ġdivided": 11462, "erred": 11463, "ĠStatus": 11464, "Ġsnap": 11465, "Ġcentre": 11466, "ski": 11467, "Ġdivor": 11468, "ĠSecretary": 11469, "FE": 11470, "incess": 11471, "issy": 11472, "Ġpartnership": 11473, "Ġintens": 11474, "Ġparted": 11475, "Ok": 11476, "Ùħ": 11477, "Ġbanks": 11478, "ĠResources": 11479, "Ms": 11480, "ounters": 11481, "abetes": 11482, "arse": 11483, "utch": 11484, "ĠPerson": 11485, "orship": 11486, "Ġcurric": 11487, "Ġaddressed": 11488, "Ġconvenient": 11489, "Ġseductive": 11490, "mediate": 11491, "Ġshr": 11492, "Ġencouraged": 11493, "rible": 11494, "ĠJoseph": 11495, "æī": 11496, "Ġinclusive": 11497, "Ġinstruments": 11498, "Ġ*)": 11499, "Ġquantity": 11500, "Ġtank": 11501, "peat": 11502, "Channel": 11503, "_,": 11504, "ĠCorporation": 11505, "kind": 11506, "ulates": 11507, "ĠSpring": 11508, "Ġpropos": 11509, "Ġrape": 11510, "Ġnorms": 11511, "Ġcomputing": 11512, "ĠAcademy": 11513, "Public": 11514, "UST": 11515, "Ġreveals": 11516, "ĠTem": 11517, "ĠMur": 11518, "Ġfingert": 11519, "Http": 11520, "onia": 11521, "Ġmodeling": 11522, "Ġoccasionally": 11523, "Ġshaped": 11524, "Ø³": 11525, "abeth": 11526, "ĠLu": 11527, "Ġnotion": 11528, "support": 11529, "HA": 11530, "ati": 11531, "Ġsmoke": 11532, "Ð¾Ð²": 11533, "Ġinequality": 11534, "Ġfra": 11535, "forgettable": 11536, "$\\": 11537, "ductions": 11538, "bour": 11539, "irable": 11540, "Ġexcessive": 11541, "EQ": 11542, "ĠTiny": 11543, "Ġ69": 11544, "Ġrigid": 11545, "Ġincent": 11546, "Ġstriking": 11547, "Parameter": 11548, "Ġera": 11549, "DU": 11550, "Ġpod": 11551, "Ġguest": 11552, "Ġlargely": 11553, "Ġfake": 11554, "iggling": 11555, "ä¹": 11556, "ĠBased": 11557, "Row": 11558, "Ġflows": 11559, "press": 11560, "ĠKaren": 11561, "ãģ¦": 11562, "bind": 11563, "Ġ--------------------": 11564, "location": 11565, "ĠSource": 11566, "Ġlegit": 11567, "account": 11568, "Ġassociation": 11569, "Ġmurm": 11570, "Ġsway": 11571, "Ġslaves": 11572, "Ġshooting": 11573, "Ġrend": 11574, "ãģĦ": 11575, "{%": 11576, "neg": 11577, "iology": 11578, "Ġnights": 11579, "ĠMeanwhile": 11580, "Ġrib": 11581, "Ġhabits": 11582, "Ġ57": 11583, "pred": 11584, "ando": 11585, "Ġevident": 11586, "Ġrepresentative": 11587, "Experience": 11588, "Ġ101": 11589, "Ġmoderation": 11590, "Ġidentical": 11591, "Ġpenetration": 11592, "Ġdiving": 11593, "Ġlists": 11594, "Ġdiet": 11595, "Ġdesperate": 11596, "-|----------------": 11597, "ĠSometimes": 11598, "PAR": 11599, "asha": 11600, "(|": 11601, "Ġbot": 11602, "Ġappointment": 11603, "ĠFriend": 11604, "chedule": 11605, "Ġliterally": 11606, "ographical": 11607, "Ġaggreg": 11608, "ĠAddress": 11609, "Ġamateur": 11610, "Ġpeer": 11611, "Ġbrushed": 11612, "rick": 11613, "doi": 11614, "egan": 11615, "Ġpolar": 11616, "Ġhash": 11617, "emed": 11618, "Ġallocation": 11619, "ĠKevin": 11620, "Ġdeliber": 11621, "returns": 11622, "Que": 11623, "focus": 11624, "Ġdamp": 11625, "liament": 11626, "ĠContent": 11627, "Ġbuttocks": 11628, "Ġexposing": 11629, "FS": 11630, "Ġpounding": 11631, "ĠMexico": 11632, "Ġalignment": 11633, "~~~~": 11634, "Ġ07": 11635, "Ġdishes": 11636, "Ġlifting": 11637, "unicipal": 11638, "Ġheritage": 11639, "Ġsimulations": 11640, "Ġorientation": 11641, "IMARY": 11642, "ĠStudent": 11643, "member": 11644, "Ġsilicone": 11645, "Ġsup": 11646, "Understanding": 11647, "Ġdental": 11648, "Ġ58": 11649, "closed": 11650, "overty": 11651, "Ġhypothes": 11652, "fill": 11653, "ĠLow": 11654, "Ġinstinct": 11655, "Ġposts": 11656, "Ġpubic": 11657, "ideline": 11658, "iscal": 11659, "ĠGab": 11660, "ĠSize": 11661, "ĠHREF": 11662, "Ġspons": 11663, ";<": 11664, "ĉĉĉĉĉĉĉ": 11665, "istant": 11666, "ĠEmma": 11667, "ĠCirc": 11668, "black": 11669, "Ġshifts": 11670, "Ġconflicts": 11671, "unity": 11672, "obe": 11673, "Ġreferences": 11674, "!!!": 11675, "ĠDad": 11676, "ĠHistorical": 11677, "idi": 11678, "eller": 11679, "ells": 11680, "ĠJay": 11681, "HECK": 11682, "Ġpermanent": 11683, "Del": 11684, "about": 11685, "zero": 11686, "Sw": 11687, "ateral": 11688, "Ġmodified": 11689, "Ġgripped": 11690, "Ġpit": 11691, "Draw": 11692, "Use": 11693, "Ġmechanical": 11694, "Ġslim": 11695, "ĠDeep": 11696, "Ġprotecting": 11697, "Ġcopies": 11698, "ĠRom": 11699, "ĠParticip": 11700, "tml": 11701, "Ġcompassion": 11702, "ĠResource": 11703, "\">&": 11704, "Ġsink": 11705, "Ġmemorable": 11706, "Ġprevention": 11707, "ĠPrior": 11708, "ĠWed": 11709, "Ġclassification": 11710, "ĠAsia": 11711, "Ġinspired": 11712, "mate": 11713, "uum": 11714, "Ġske": 11715, "Ġgathered": 11716, "Med": 11717, "RS": 11718, "Ver": 11719, "iï¬ģ": 11720, "ĠDC": 11721, "Ġintersection": 11722, "ITE": 11723, "Ġcentered": 11724, "Ġsolving": 11725, "cfg": 11726, "ĠNa": 11727, "Imagine": 11728, "Ġverify": 11729, "Ġlandscapes": 11730, "ito": 11731, "Ġstir": 11732, "Ġdemonstrating": 11733, "Ð·": 11734, "Ġcodes": 11735, "Ġling": 11736, "ĠImage": 11737, "Ġaddresses": 11738, "Ġmachines": 11739, "CODE": 11740, "Ġpopularity": 11741, "Ġsna": 11742, "ĠLA": 11743, "ouncing": 11744, "ĠVec": 11745, "Ġmanufacturers": 11746, "ĠClin": 11747, "Ġarbitr": 11748, "ĠGrad": 11749, ")))": 11750, "jud": 11751, "Äĩ": 11752, "Ġstrike": 11753, "EP": 11754, "Ġdefense": 11755, "fire": 11756, "ĠÑģ": 11757, "Ġpandemic": 11758, "unted": 11759, "Will": 11760, "cessary": 11761, "Ġemphasis": 11762, "Ġignored": 11763, "tmp": 11764, "arry": 11765, "Ġenv": 11766, "COMM": 11767, "*}": 11768, "Ġblend": 11769, "ropri": 11770, "Ġacquisition": 11771, "Ġpup": 11772, "ĠMath": 11773, "Ġstranger": 11774, "Ġcaptivating": 11775, "\\]": 11776, "onal": 11777, "Ġnurs": 11778, "lers": 11779, "Ġ\"/": 11780, "Ġtactics": 11781, "iated": 11782, "Ġconvert": 11783, "Ġrealistic": 11784, "Ġconstructed": 11785, "Kind": 11786, "Cam": 11787, "ĠHaw": 11788, "ĠRub": 11789, "ĠWord": 11790, "ĠKn": 11791, "Ġelected": 11792, "testing": 11793, "ĠVirginia": 11794, "bul": 11795, "Ġattraction": 11796, "Ġdysfunction": 11797, "icode": 11798, "AMP": 11799, "iations": 11800, "ĠCy": 11801, "ĠStadium": 11802, "Ġviewing": 11803, "specific": 11804, "vin": 11805, "Empty": 11806, "ĠURL": 11807, "Ġspine": 11808, "Ġwrist": 11809, "Ġpromises": 11810, "Ġtur": 11811, "CN": 11812, "ĠDocument": 11813, "Ġsounded": 11814, "Ġcaptured": 11815, "ĠRussia": 11816, "owed": 11817, "ĠVideo": 11818, "Active": 11819, "Ġtraditions": 11820, "atre": 11821, "Ġstradd": 11822, "Ġdish": 11823, "Ġapplies": 11824, "Ġtro": 11825, "ulus": 11826, "Host": 11827, "Ġbrands": 11828, "Ġgrabbing": 11829, "Ġvariation": 11830, "Ġalgebra": 11831, "Ġhorr": 11832, "ĠSite": 11833, "Click": 11834, "Ġcompensation": 11835, "estival": 11836, "rend": 11837, "ĠTransport": 11838, "Ġutilized": 11839, "Ġintriguing": 11840, "Ġ62": 11841, "mann": 11842, "Ġpreced": 11843, "Ġlovers": 11844, "Reader": 11845, "Ġprioritize": 11846, "axis": 11847, "Ġcampus": 11848, "conscious": 11849, "direct": 11850, "Ġarched": 11851, "Store": 11852, "ĠModern": 11853, "ocur": 11854, "*\\": 11855, "ĠAdministration": 11856, "yy": 11857, "Core": 11858, "Ġdisorders": 11859, "channel": 11860, "ĠWithin": 11861, "Ġforehead": 11862, "ilibrium": 11863, "Ġsees": 11864, "ĠStation": 11865, "110": 11866, "ĠMother": 11867, "ĠSusan": 11868, "heet": 11869, "ĠCOLL": 11870, "ĠContext": 11871, "aping": 11872, "Ġorganizational": 11873, "Ġthousand": 11874, "ĠStaff": 11875, "Ġstare": 11876, "attering": 11877, "iro": 11878, "Ġpointing": 11879, "íķ": 11880, "Sure": 11881, "eur": 11882, "itis": 11883, "ĠPack": 11884, "Ġeverywhere": 11885, "600": 11886, "Ġpollut": 11887, "ĠUr": 11888, "Ġschol": 11889, "ĠIsrael": 11890, "Ġinclusion": 11891, "addr": 11892, "Ġdesigning": 11893, "ĠApplication": 11894, "Ġcalculations": 11895, "ãģ¾": 11896, "Ġexhibit": 11897, "Ġkick": 11898, "Ġhandsome": 11899, "ĠRachel": 11900, "Ġoverride": 11901, "Ġblur": 11902, "Ġ++": 11903, "Graph": 11904, "Ġcounty": 11905, "Ġnumerical": 11906, "Ġbother": 11907, "olding": 11908, "WORD": 11909, "Ġfier": 11910, "ĠArab": 11911, "ĠNavig": 11912, "Ġeyeb": 11913, "Ġaccountability": 11914, "Ġworn": 11915, "Ġeditor": 11916, "osc": 11917, "Ġshake": 11918, "ynamic": 11919, "ĠFunction": 11920, "mond": 11921, "Ġgreatly": 11922, "Ġgroan": 11923, "Ġunforgettable": 11924, "&=": 11925, "Ġbias": 11926, "False": 11927, "Ġparagraph": 11928, "Ġwrists": 11929, "ĠDou": 11930, "Phys": 11931, "ĠIV": 11932, "Ġarrive": 11933, "Ġminds": 11934, "Ġimagination": 11935, "ĠQuality": 11936, "ãĥ³": 11937, "Ġbreathe": 11938, "Ġrobe": 11939, "ĠExample": 11940, "ĠOrd": 11941, "Ġpublication": 11942, "fficients": 11943, "Ġtrading": 11944, "oga": 11945, "Ġviewers": 11946, "Ġbars": 11947, "Ġoutdoor": 11948, "Ġmigration": 11949, "uli": 11950, "ĠRES": 11951, "Email": 11952, "Ġactors": 11953, "OM": 11954, "lowly": 11955, "IE": 11956, "ĠOhio": 11957, "Ġtexts": 11958, "Ġconsole": 11959, "ologist": 11960, "Ġdual": 11961, "ivities": 11962, "ĠCompar": 11963, "Ġpillow": 11964, "Ġpresident": 11965, "isticated": 11966, "Ġnuclear": 11967, "ĠCle": 11968, "jav": 11969, "obby": 11970, "xygen": 11971, "Ġappointed": 11972, "ĠWin": 11973, "BER": 11974, "120": 11975, "Ġillegal": 11976, "ĠPlace": 11977, "Ġhouses": 11978, "ASE": 11979, "fd": 11980, "party": 11981, "Ġreflects": 11982, "security": 11983, "Ġjoining": 11984, ">();": 11985, "ĠPN": 11986, "::{": 11987, "COL": 11988, "Ġfoods": 11989, "éĩ": 11990, "Gen": 11991, "Ġadoption": 11992, "Ġentries": 11993, "Ġpractically": 11994, "Ġoverwhelming": 11995, "ĠCP": 11996, "ĠChat": 11997, "Ġdict": 11998, "auss": 11999, "*;": 12000, "Ķ¼": 12001, "Thread": 12002, "Ġsentence": 12003, "Despite": 12004, "oir": 12005, "ĠRo": 12006, "Ġsolo": 12007, "Ġ1993": 12008, "ĠColumbia": 12009, "Ġ''": 12010, "ĺ¤í": 12011, "ceive": 12012, "osity": 12013, "Ġwetness": 12014, "Ġassumption": 12015, "Ġwalks": 12016, "Ġgene": 12017, "å¾": 12018, "irical": 12019, "component": 12020, "æĿ": 12021, "Ġchronic": 12022, "iating": 12023, "åĩ": 12024, "ea": 12025, "Ġtherapeutic": 12026, "Ġmelt": 12027, "Ġduties": 12028, "ĠCome": 12029, "Ġcoach": 12030, "Because": 12031, "Americ": 12032, "ĠIre": 12033, "ĠDNA": 12034, "uals": 12035, "Ġ63": 12036, "ropy": 12037, "Ġoppon": 12038, "Ġremoval": 12039, "Ġpurchasing": 12040, "Ġinstitution": 12041, "depth": 12042, "ĠJones": 12043, ".:": 12044, "Ġexport": 12045, "Take": 12046, "Ġuniverse": 12047, "obs": 12048, "tail": 12049, "vet": 12050, "ĠWARR": 12051, "Ġextraordinary": 12052, "Ġgarden": 12053, "ympt": 12054, "ĠThough": 12055, "}}(": 12056, "ĠMichel": 12057, "annah": 12058, "ĺ¤íĶ¼": 12059, ")$.": 12060, "Impl": 12061, "Ġrotation": 12062, "Api": 12063, "Ġattending": 12064, "Forg": 12065, "ĠCivil": 12066, "ĠHoly": 12067, "Ġdisorder": 12068, "250": 12069, "Document": 12070, "ĠEmbr": 12071, "Style": 12072, "fuck": 12073, "Ġbug": 12074, "Ġmetric": 12075, "ĠFair": 12076, "Ġamend": 12077, "Ġ85": 12078, "ĠGreg": 12079, "Ġunusual": 12080, "Ġ04": 12081, "Esc": 12082, "Ġma": 12083, "Ġseparated": 12084, "Ġauthentic": 12085, "Ġtruck": 12086, "Ġheading": 12087, "Ġmoral": 12088, "ĠProfessional": 12089, "Ġthirty": 12090, "Ġ{{\\": 12091, "rivacy": 12092, "rator": 12093, "Ġdifficulty": 12094, "Policy": 12095, "vit": 12096, "Ġresolve": 12097, "ĠItaly": 12098, "Ġbirthday": 12099, "ĠFun": 12100, "Hist": 12101, "Ġtea": 12102, "Ġende": 12103, "eu": 12104, "Ġattitude": 12105, "riction": 12106, "ĠRepresent": 12107, "omit": 12108, "Ġadmitted": 12109, "ĠHas": 12110, "Ġoutfit": 12111, "Ġpointer": 12112, "Ġcombat": 12113, "actors": 12114, "bet": 12115, "click": 12116, "Ġparse": 12117, "jacent": 12118, "Ġenthusiasts": 12119, "MR": 12120, "ĠResponse": 12121, "DIR": 12122, "Ġelectro": 12123, "iy": 12124, "Ġstruggling": 12125, "Ġinteractive": 12126, "Ġcig": 12127, "ĠBul": 12128, "ĠRun": 12129, "Ġcha": 12130, "Ġcache": 12131, "uler": 12132, "Ġconfusion": 12133, "Ġlifetime": 12134, "Ġacceptance": 12135, "Ġdetected": 12136, "Ġthermal": 12137, "Pay": 12138, "Ġworst": 12139, "Ġoutlined": 12140, "MI": 12141, "izable": 12142, "when": 12143, "ĠCat": 12144, "}]": 12145, "Ġhelpless": 12146, "Ġcub": 12147, "à§": 12148, "Ġcoat": 12149, "ĠPractice": 12150, "Ġdecent": 12151, "ĠPos": 12152, "ĠAmericans": 12153, "ĠNevertheless": 12154, "Ġstem": 12155, "Ġbuzz": 12156, "Ġexpanded": 12157, "stop": 12158, "ĠAC": 12159, "Ġmagnitude": 12160, "å¯": 12161, "Ġarrest": 12162, "ĠÃĹ": 12163, "Ġbund": 12164, "cha": 12165, "Ġcomplain": 12166, "acon": 12167, "aneous": 12168, "ORE": 12169, "enth": 12170, "endant": 12171, "Ġsignature": 12172, "Session": 12173, "Ġoutline": 12174, "Ġcommunications": 12175, "Ġstraightforward": 12176, "Ġcoordinates": 12177, "ĠFull": 12178, "achine": 12179, "Ġapi": 12180, "erior": 12181, "ĠRoyal": 12182, "Found": 12183, "Ġessence": 12184, "IAL": 12185, "Ġ08": 12186, "Ġbreaks": 12187, "mic": 12188, "Ġkg": 12189, "Ġmoon": 12190, "iii": 12191, "avage": 12192, "TEST": 12193, "anal": 12194, "Ang": 12195, "Ġ61": 12196, "ANCE": 12197, "Ġreplacement": 12198, "ĠPur": 12199, "Ġhorm": 12200, "ĠCa": 12201, "Ġinnocent": 12202, "andom": 12203, "oda": 12204, "Ġindicators": 12205, "stud": 12206, "Mistress": 12207, "izabeth": 12208, "ĠVi": 12209, "ĠAnnual": 12210, "Ġmoisture": 12211, "flex": 12212, "Ġbullet": 12213, "Ġmountain": 12214, "Has": 12215, "Ġfrequent": 12216, "Ġpropag": 12217, "ĠAmazon": 12218, "Ġdanger": 12219, "Ġlect": 12220, "Ġutility": 12221, "ĠTravel": 12222, "Ġstellar": 12223, "Ġtough": 12224, "Ġchamp": 12225, "diff": 12226, "ĠEV": 12227, "Ġwithdraw": 12228, "ĠGreek": 12229, "Ġtraveling": 12230, "Ġintricacies": 12231, "iams": 12232, "Ġclassified": 12233, "proto": 12234, "ĠProperty": 12235, "Main": 12236, "Ġreass": 12237, "don": 12238, "Ġsheer": 12239, "Ġdepression": 12240, "Ġ1991": 12241, "Ġsir": 12242, "Ġfert": 12243, "Ġpractitioners": 12244, "Ġsupplies": 12245, "Ã±": 12246, "ĠLess": 12247, "Ġmotivation": 12248, "Ġconve": 12249, "Ġthrows": 12250, "Window": 12251, "Ġexpend": 12252, "Ġboasts": 12253, "bow": 12254, "ĠJava": 12255, "save": 12256, "Ġpatience": 12257, "Ġwedding": 12258, "âĶĢâĶĢ": 12259, "dx": 12260, "Ġsou": 12261, "ĠPC": 12262, "Ġmixture": 12263, "Ġinspection": 12264, "Ġsizeof": 12265, "ĠBrazil": 12266, "Tra": 12267, "Ġsophisticated": 12268, "Ġrod": 12269, "Ġsque": 12270, "develop": 12271, "Ġswift": 12272, "dem": 12273, "Ġturb": 12274, "foo": 12275, "ĠMuseum": 12276, "esis": 12277, "Ġnest": 12278, "Ġexempl": 12279, "Ġbasket": 12280, "Ġ09": 12281, "ĠDu": 12282, "dc": 12283, "ĠNik": 12284, "success": 12285, "osa": 12286, "Ġemphasizing": 12287, "ä¸Ń": 12288, "2005": 12289, "isp": 12290, "ĠSpace": 12291, "Ġwisdom": 12292, "uu": 12293, "Î·": 12294, "anes": 12295, "ĠBon": 12296, "Ġglasses": 12297, "Ġdiscipline": 12298, "ĠRule": 12299, "Ġsubstance": 12300, "match": 12301, "Ġhi": 12302, "icons": 12303, "elfare": 12304, "Ġmortg": 12305, "Ġmanagers": 12306, "ĠOntario": 12307, "uity": 12308, "Ġrings": 12309, "Ġsmiles": 12310, "Ġtimely": 12311, "ĠServer": 12312, "Ġdivine": 12313, "gypt": 12314, "ĠHor": 12315, "iments": 12316, "Ġjustify": 12317, "ryption": 12318, "Ġacquired": 12319, "Interface": 12320, "Ġchart": 12321, "Ġbuying": 12322, "Â®": 12323, "<<": 12324, "Ġknelt": 12325, "Ġstockings": 12326, "Ġ\\\"": 12327, "ĠCatholic": 12328, "ĠBo": 12329, "ĠEconomic": 12330, "&&": 12331, "Øª": 12332, "aph": 12333, "Ġmultip": 12334, "Ġdeploy": 12335, "Ġdistributions": 12336, "ĠLyn": 12337, "ĠTechniques": 12338, "Ġhundreds": 12339, "taining": 12340, "Values": 12341, "Ġinterior": 12342, "ĠLegal": 12343, "Ġnations": 12344, "Ġnails": 12345, "widehat": 12346, "ĠMonday": 12347, "fans": 12348, "Ġhosp": 12349, ")$,": 12350, "Ġdownt": 12351, "Av": 12352, "sen": 12353, "Ġads": 12354, "Ġtwisted": 12355, "Cor": 12356, "operat": 12357, "Ġapparently": 12358, "Ġeligible": 12359, "Ġriv": 12360, "orname": 12361, "Ġavoiding": 12362, "ĠADD": 12363, "Ġvaginal": 12364, "Ġwhilst": 12365, "fields": 12366, "Ġreliability": 12367, "Ġol": 12368, "Ġenorm": 12369, "Ġstores": 12370, "Ġum": 12371, "Ġannounce": 12372, "Even": 12373, "boot": 12374, "Ġpuzz": 12375, "Left": 12376, "Ġcleaned": 12377, "ipper": 12378, "Ġrelating": 12379, "ributed": 12380, "Ġfitting": 12381, "ĠHa": 12382, "Ġparamount": 12383, "Ġpulse": 12384, "Ġgear": 12385, "Ġdaddy": 12386, "ĠSQL": 12387, "ĠArticle": 12388, "Ġsear": 12389, "ĠNum": 12390, "Ġglist": 12391, "cked": 12392, "yer": 12393, "obuf": 12394, "Ġadjusted": 12395, "ĠAssessment": 12396, "Ġpounds": 12397, "riptor": 12398, "Ġty": 12399, "ĠLimited": 12400, "ĠReturns": 12401, "Menu": 12402, "Ġfed": 12403, "Ġspots": 12404, "ĠPerhaps": 12405, "ĠWat": 12406, "Ġcompatible": 12407, "Many": 12408, "Ġthoughtful": 12409, "ĠFrame": 12410, "Ġcolumns": 12411, "operatorname": 12412, "Ġtrigger": 12413, "ĠConsult": 12414, "Ġvibrations": 12415, "alloc": 12416, "leted": 12417, "Ġvertex": 12418, "Long": 12419, "Ġ1992": 12420, "Ġcontrovers": 12421, "Ġstruggled": 12422, "Ġquad": 12423, "UND": 12424, "Configuration": 12425, "good": 12426, "Ġproportion": 12427, "ĠVari": 12428, "ĠResults": 12429, "Ġthinks": 12430, "Ġcloth": 12431, "Ġrecre": 12432, "ĠHim": 12433, "Ġbehalf": 12434, "Ġmasturbate": 12435, "Ġ'/": 12436, "Ġstorytelling": 12437, "orate": 12438, "ĠEp": 12439, "Ġjet": 12440, "covery": 12441, "Ġemploying": 12442, "eras": 12443, "Ġunne": 12444, "Ġessentially": 12445, "anship": 12446, "Ġbull": 12447, "ĠSoon": 12448, "ĠPrivate": 12449, "Ġcomposed": 12450, "Ġdiffer": 12451, "install": 12452, "Ġconj": 12453, "Ġconvey": 12454, "Ġproved": 12455, "enges": 12456, "Ġmessaging": 12457, "ÐĤ": 12458, "Ġrecording": 12459, "ĠMarc": 12460, "ĠCommunication": 12461, "Json": 12462, "Lic": 12463, "ĠMiddle": 12464, "ĠFollowing": 12465, "ĠBlock": 12466, "mind": 12467, "Ġdare": 12468, "istence": 12469, "Ġpanting": 12470, ".).": 12471, "Ġcomply": 12472, "Ġmodify": 12473, "Ġmsg": 12474, "Ġsuggestions": 12475, "Ġboxers": 12476, "Ġfeatured": 12477, "Ġoptimize": 12478, "itled": 12479, "ĠEncounters": 12480, "Ġmock": 12481, "Ġovers": 12482, "Ġrested": 12483, "Ġposted": 12484, "Ġillness": 12485, "gust": 12486, "enues": 12487, "iral": 12488, "Ġ102": 12489, "Ġsectors": 12490, "Ġlouder": 12491, "Ġsacr": 12492, "mbox": 12493, "Ġabstract": 12494, "ĠJamie": 12495, "OP": 12496, "Ġframeworks": 12497, "internal": 12498, "conc": 12499, "Ġgang": 12500, "Ġ92": 12501, "Ġscheduled": 12502, "proof": 12503, "Ġfist": 12504, "ennis": 12505, "Ġfitness": 12506, "Ġfeas": 12507, "420": 12508, "ucky": 12509, "Forgot": 12510, "_\\": 12511, "health": 12512, "asters": 12513, "ĠSwed": 12514, "Ġbiological": 12515, "Ġtrials": 12516, "Ġexecutive": 12517, "Sigma": 12518, "itu": 12519, "ĠLady": 12520, "Ġstreaming": 12521, "Ġinserted": 12522, "hetics": 12523, "leting": 12524, "aml": 12525, "Ġvot": 12526, "ĠDie": 12527, "Ġacceler": 12528, "ĠCOLLATE": 12529, "Ġoverflow": 12530, "Vol": 12531, "ĠLanguage": 12532, "Pan": 12533, "ĠPresent": 12534, "Ġcycles": 12535, "ĠAuthority": 12536, "ĠLemma": 12537, "ĠBenefits": 12538, "ĠRetrieved": 12539, "æĸĩ": 12540, "Ġdefinitions": 12541, "ĠPRIMARY": 12542, "mac": 12543, "Ġtil": 12544, "essed": 12545, "ogene": 12546, "Ġloyalty": 12547, "Ġscreaming": 12548, "Ġrows": 12549, "inch": 12550, "Ġpositioned": 12551, "Ġdenotes": 12552, "Windows": 12553, "Ġpermitted": 12554, "ĠSon": 12555, "hesis": 12556, "Ġstack": 12557, "ĠNight": 12558, "Ġimmers": 12559, "asped": 12560, "ĠEss": 12561, "Definition": 12562, "tags": 12563, "perform": 12564, "ĠMaria": 12565, "Ġimplied": 12566, "Dom": 12567, "ĠAutom": 12568, "Ġjudge": 12569, "Ġanalytics": 12570, "strap": 12571, "Ġshorter": 12572, "Ġbliss": 12573, "Ġ72": 12574, "ĠVictoria": 12575, "dit": 12576, "Ġstere": 12577, "ĠRegist": 12578, "Ġopinions": 12579, "bu": 12580, "Ġproven": 12581, "Ġbalanced": 12582, "ĠBit": 12583, "Ġrank": 12584, "ymph": 12585, "Ġinvestigate": 12586, "Ġought": 12587, "Ġlabels": 12588, "Ġ600": 12589, "pository": 12590, "Ġholistic": 12591, "Ġobligations": 12592, "Ġtheories": 12593, "Ġheter": 12594, "Ġknock": 12595, "}\\)": 12596, "ä¿": 12597, "ĠSand": 12598, "Ġstreets": 12599, "ĠBad": 12600, "Ġdependent": 12601, "Ġwished": 12602, "Ġinfluences": 12603, "Display": 12604, "WA": 12605, "annot": 12606, "à¥į": 12607, "GE": 12608, "ĠMinistry": 12609, "Ġresulted": 12610, "ĠForce": 12611, "Ġchildhood": 12612, "Ġadaptability": 12613, "2022": 12614, "Ġdrops": 12615, "havior": 12616, "|------------": 12617, "Ġtox": 12618, "Ġinh": 12619, "Ġcorresponds": 12620, "Ġeagerly": 12621, "anches": 12622, "Ġbeam": 12623, "Ġmyst": 12624, "aval": 12625, "Ġcounc": 12626, "lay": 12627, "Ġredd": 12628, "Ġfewer": 12629, "Ġinfluencing": 12630, "etheless": 12631, "move": 12632, "Ġshoved": 12633, "ĠCS": 12634, "Ġobstacles": 12635, "/\\": 12636, "Thanks": 12637, "Ġamongst": 12638, "Ġmolec": 12639, "approx": 12640, "Ġpromised": 12641, "Ġstreams": 12642, "Ġdebate": 12643, "ãģ§": 12644, "ĠProfessor": 12645, "Ġfer": 12646, "Ġmapping": 12647, "Ġwashed": 12648, "ĠMedicine": 12649, "BI": 12650, "aze": 12651, "Ġmorph": 12652, "âŁ©": 12653, "ĠSummer": 12654, "ĠEnhancement": 12655, "Ġtraits": 12656, "ĠQueen": 12657, "Ġdismiss": 12658, "Ġreluct": 12659, "Ġrelevance": 12660, "Ġparticle": 12661, "Ġassessments": 12662, "Ġtracks": 12663, "Ġmate": 12664, "Equals": 12665, "ĠHospital": 12666, "shift": 12667, "Ġleverage": 12668, "ubs": 12669, "Ġinher": 12670, "Ġgrinding": 12671, "Ġreflecting": 12672, "arer": 12673, "Ġinitiative": 12674, "Ġcyber": 12675, "ĠMid": 12676, "ĠHaving": 12677, "ften": 12678, "Ġcolleagues": 12679, "Ġmathematics": 12680, "ĠLos": 12681, "Ġmeticul": 12682, "Ġauthorized": 12683, "final": 12684, "edu": 12685, "asi": 12686, "ĠPut": 12687, "Ġconsiderable": 12688, "\"));": 12689, "Ġharsh": 12690, "Ġmagazine": 12691, "Ġ*/;": 12692, "Engine": 12693, "iao": 12694, "Ġscar": 12695, "plicit": 12696, "icular": 12697, "Ġapproximation": 12698, "\\{": 12699, "Ġobtaining": 12700, "article": 12701, "Ġfool": 12702, "Ġexh": 12703, "Ġhappiness": 12704, "Ġpreval": 12705, "Ġdiscreet": 12706, "Send": 12707, "Ġocean": 12708, "Ġparad": 12709, "Ġbroadcast": 12710, "Ġhott": 12711, "Real": 12712, "Ġ_,": 12713, "Ġhookups": 12714, "ĠApache": 12715, "Ġfaculty": 12716, "ĠTele": 12717, "ĠContact": 12718, "Ġpadd": 12719, "Ġclaimed": 12720,
[...]
