{"version":"1.0","truncation":null,"padding":null,"added_tokens":[{"id":0,"content":"<|bos|>","single_word":false,"lstrip":false,"rstrip":false,"normalized":false,"special":true},{"id":1,"content":"<|eos|>","single_word":false,"lstrip":false,"rstrip":false,"normalized":false,"special":true},{"id":2,"content":"<|pad|>","single_word":false,"lstrip":false,"rstrip":false,"normalized":false,"special":true},{"id":3,"content":"<|unk|>","single_word":false,"lstrip":false,"rstrip":false,"normalized":false,"special":true},{"id":4,"content":"<|eod|>","single_word":false,"lstrip":false,"rstrip":false,"normalized":false,"special":true},{"id":5,"content":"<|startoftext|>","single_word":false,"lstrip":false,"rstrip":false,"normalized":false,"special":true},{"id":6,"content":"<|endoftext|>","single_word":false,"lstrip":false,"rstrip":false,"normalized":false,"special":true},{"id":7,"content":"<|endofprompt|>","single_word":false,"lstrip":false,"rstrip":false,"normalized":false,"special":true},{"id":8,"content":"<|im_start|>","single_word":false,"lstrip":false,"rstrip":false,"normalized":false,"special":true},{"id":9,"content":"<|im_end|>","single_word":false,"lstrip":false,"rstrip":false,"normalized":false,"special":true},{"id":10,"content":"<|system|>","single_word":false,"lstrip":false,"rstrip":false,"normalized":false,"special":true},{"id":11,"content":"<|developer|>","single_word":false,"lstrip":false,"rstrip":false,"normalized":false,"special":true},{"id":12,"content":"<|user|>","single_word":false,"lstrip":false,"rstrip":false,"normalized":false,"special":true},{"id":13,"content":"<|assistant|>","single_word":false,"lstrip":false,"rstrip":false,"normalized":false,"special":true},{"id":14,"content":"<|tool|>","single_word":false,"lstrip":false,"rstrip":false,"normalized":false,"special":true},{"id":15,"content":"<|function|>","single_word":false,"lstrip":false,"rstrip":false,"normalized":false,"special":true},{"id":16,"content":"<|observation|>","single_word":false,"lstrip":false,"rstrip":false,"normalized":false,"special":true},{"id":17,"content":"<|eot|>","single_word":false,"lstrip":false,"rstrip":false,"normalized":false,"special":true},{"id":18,"content":"<think>","single_word":false,"lstrip":false,"rstrip":false,"normalized":false,"special":true},{"id":19,"content":"</think>","single_word":false,"lstrip":false,"rstrip":false,"normalized":false,"special":true},{"id":20,"content":"<analysis>","single_word":false,"lstrip":false,"rstrip":false,"normalized":false,"special":true},{"id":21,"content":"</analysis>","single_word":false,"lstrip":false,"rstrip":false,"normalized":false,"special":true},{"id":22,"content":"<reasoning>","single_word":false,"lstrip":false,"rstrip":false,"normalized":false,"special":true},{"id":23,"content":"</reasoning>","single_word":false,"lstrip":false,"rstrip":false,"normalized":false,"special":true},{"id":24,"content":"<commentary>","single_word":false,"lstrip":false,"rstrip":false,"normalized":false,"special":true},{"id":25,"content":"</commentary>","single_word":false,"lstrip":false,"rstrip":false,"normalized":false,"special":true},{"id":26,"content":"<final>","single_word":false,"lstrip":false,"rstrip":false,"normalized":false,"special":true},{"id":27,"content":"</final>","single_word":false,"lstrip":false,"rstrip":false,"normalized":false,"special":true},{"id":28,"content":"<tools>","single_word":false,"lstrip":false,"rstrip":false,"normalized":false,"special":true},{"id":29,"content":"</tools>","single_word":false,"lstrip":false,"rstrip":false,"normalized":false,"special":true},{"id":30,"content":"<available_tools>","single_word":false,"lstrip":false,"rstrip":false,"normalized":false,"special":true},{"id":31,"content":"</available_tools>","single_word":false,"lstrip":false,"rstrip":false,"normalized":false,"special":true},{"id":32,"content":"<tool_call>","single_word":false,"lstrip":false,"rstrip":false,"normalized":false,"special":true},{"id":33,"content":"</tool_call>","single_word":false,"lstrip":false,"rstrip":false,"normalized":false,"special":true},{"id":34,"content":"<tool_response>","single_word":false,"lstrip":false,"rstrip":false,"normalized":false,"special":true},{"id":35,"content":"</tool_response>","single_word":false,"lstrip":false,"rstrip":false,"normalized":false,"special":true},{"id":36,"content":"<function_call>","single_word":false,"lstrip":false,"rstrip":false,"normalized":false,"special":true},{"id":37,"content":"</function_call>","single_word":false,"lstrip":false,"rstrip":false,"normalized":false,"special":true},{"id":38,"content":"<function_response>","single_word":false,"lstrip":false,"rstrip":false,"normalized":false,"special":true},{"id":39,"content":"</function_response>","single_word":false,"lstrip":false,"rstrip":false,"normalized":false,"special":true},{"id":40,"content":"<|tool_sep|>","single_word":false,"lstrip":false,"rstrip":false,"normalized":false,"special":true},{"id":41,"content":"<|fim_prefix|>","single_word":false,"lstrip":false,"rstrip":false,"normalized":false,"special":true},{"id":42,"content":"<|fim_middle|>","single_word":false,"lstrip":false,"rstrip":false,"normalized":false,"special":true},{"id":43,"content":"<|fim_suffix|>","single_word":false,"lstrip":false,"rstrip":false,"normalized":false,"special":true},{"id":44,"content":"<|fim_pad|>","single_word":false,"lstrip":false,"rstrip":false,"normalized":false,"special":true},{"id":45,"content":"<|repo_name|>","single_word":false,"lstrip":false,"rstrip":false,"normalized":false,"special":true},{"id":46,"content":"<|file_sep|>","single_word":false,"lstrip":false,"rstrip":false,"normalized":false,"special":true},{"id":47,"content":"<|vision_start|>","single_word":false,"lstrip":false,"rstrip":false,"normalized":false,"special":true},{"id":48,"content":"<|vision_end|>","single_word":false,"lstrip":false,"rstrip":false,"normalized":false,"special":true},{"id":49,"content":"<|vision_pad|>","single_word":false,"lstrip":false,"rstrip":false,"normalized":false,"special":true},{"id":50,"content":"<|image_pad|>","single_word":false,"lstrip":false,"rstrip":false,"normalized":false,"special":true},{"id":51,"content":"<|video_pad|>","single_word":false,"lstrip":false,"rstrip":false,"normalized":false,"special":true},{"id":52,"content":"<|image|>","single_word":false,"lstrip":false,"rstrip":false,"normalized":false,"special":true},{"id":53,"content":"<|video|>","single_word":false,"lstrip":false,"rstrip":false,"normalized":false,"special":true},{"id":54,"content":"[IMG]","single_word":false,"lstrip":false,"rstrip":false,"normalized":false,"special":true},{"id":55,"content":"[IMG_BREAK]","single_word":false,"lstrip":false,"rstrip":false,"normalized":false,"special":true},{"id":56,"content":"[IMG_END]","single_word":false,"lstrip":false,"rstrip":false,"normalized":false,"special":true}],"normalizer":{"type":"NFC"},"pre_tokenizer":{"type":"ByteLevel","add_prefix_space":false,"trim_offsets":true,"use_regex":true},"post_processor":null,"decoder":{"type":"ByteLevel","add_prefix_space":true,"trim_offsets":true,"use_regex":true},"model":{"type":"BPE","dropout":null,"unk_token":"<|unk|>","continuing_subword_prefix":null,"end_of_word_suffix":null,"fuse_unk":false,"byte_fallback":false,"vocab":{"<|bos|>":0,"<|eos|>":1,"<|pad|>":2,"<|unk|>":3,"<|eod|>":4,"<|startoftext|>":5,"<|endoftext|>":6,"<|endofprompt|>":7,"<|im_start|>":8,"<|im_end|>":9,"<|system|>":10,"<|developer|>":11,"<|user|>":12,"<|assistant|>":13,"<|tool|>":14,"<|function|>":15,"<|observation|>":16,"<|eot|>":17,"<think>":18,"</think>":19,"<analysis>":20,"</analysis>":21,"<reasoning>":22,"</reasoning>":23,"<commentary>":24,"</commentary>":25,"<final>":26,"</final>":27,"<tools>":28,"</tools>":29,"<available_tools>":30,"</available_tools>":31,"<tool_call>":32,"</tool_call>":33,"<tool_response>":34,"</tool_response>":35,"<function_call>":36,"</function_call>":37,"<function_response>":38,"</function_response>":39,"<|tool_sep|>":40,"<|fim_prefix|>":41,"<|fim_middle|>":42,"<|fim_suffix|>":43,"<|fim_pad|>":44,"<|repo_name|>":45,"<|file_sep|>":46,"<|vision_start|>":47,"<|vision_end|>":48,"<|vision_pad|>":49,"<|image_pad|>":50,"<|video_pad|>":51,"<|image|>":52,"<|video|>":53,"[IMG]":54,"[IMG_BREAK]":55,"[IMG_END]":56,"!":57,"\"":58,"#":59,"$":60,"%":61,"&":62,"'":63,"(":64,")":65,"*":66,"+":67,",":68,"-":69,".":70,"/":71,"0":72,"1":73,"2":74,"3":75,"4":76,"5":77,"6":78,"7":79,"8":80,"9":81,":":82,";":83,"<":84,"=":85,">":86,"?":87,"@":88,"A":89,"B":90,"C":91,"D":92,"E":93,"F":94,"G":95,"H":96,"I":97,"J":98,"K":99,"L":100,"M":101,"N":102,"O":103,"P":104,"Q":105,"R":106,"S":107,"T":108,"U":109,"V":110,"W":111,"X":112,"Y":113,"Z":114,"[":115,"\\":116,"]":117,"^":118,"_":119,"`":120,"a":121,"b":122,"c":123,"d":124,"e":125,"f":126,"g":127,"h":128,"i":129,"j":130,"k":131,"l":132,"m":133,"n":134,"o":135,"p":136,"q":137,"r":138,"s":139,"t":140,"u":141,"v":142,"w":143,"x":144,"y":145,"z":146,"{":147,"|":148,"}":149,"~":150,"¡":151,"¢":152,"£":153,"¤":154,"¥":155,"¦":156,"§":157,"¨":158,"©":159,"ª":160,"«":161,"¬":162,"®":163,"¯":164,"°":165,"±":166,"²":167,"³":168,"´":169,"µ":170,"¶":171,"·":172,"¸":173,"¹":174,"º":175,"»":176,"¼":177,"½":178,"¾":179,"¿":180,"À":181,"Á":182,"Â":183,"Ã":184,"Ä":185,"Å":186,"Æ":187,"Ç":188,"È":189,"É":190,"Ê":191,"Ë":192,"Ì":193,"Í":194,"Î":195,"Ï":196,"Ð":197,"Ñ":198,"Ò":199,"Ó":200,"Ô":201,"Õ":202,"Ö":203,"×":204,"Ø":205,"Ù":206,"Ú":207,"Û":208,"Ü":209,"Ý":210,"Þ":211,"ß":212,"à":213,"á":214,"â":215,"ã":216,"ä":217,"å":218,"æ":219,"ç":220,"è":221,"é":222,"ê":223,"ë":224,"ì":225,"í":226,"î":227,"ï":228,"ð":229,"ñ":230,"ò":231,"ó":232,"ô":233,"õ":234,"ö":235,"÷":236,"ø":237,"ù":238,"ú":239,"û":240,"ü":241,"ý":242,"þ":243,"ÿ":244,"Ā":245,"ā":246,"Ă":247,"ă":248,"Ą":249,"ą":250,"Ć":251,"ć":252,"Ĉ":253,"ĉ":254,"Ċ":255,"ċ":256,"Č":257,"č":258,"Ď":259,"ď":260,"Đ":261,"đ":262,"Ē":263,"ē":264,"Ĕ":265,"ĕ":266,"Ė":267,"ė":268,"Ę":269,"ę":270,"Ě":271,"ě":272,"Ĝ":273,"ĝ":274,"Ğ":275,"ğ":276,"Ġ":277,"ġ":278,"Ģ":279,"ģ":280,"Ĥ":281,"ĥ":282,"Ħ":283,"ħ":284,"Ĩ":285,"ĩ":286,"Ī":287,"ī":288,"Ĭ":289,"ĭ":290,"Į":291,"į":292,"İ":293,"ı":294,"Ĳ":295,"ĳ":296,"Ĵ":297,"ĵ":298,"Ķ":299,"ķ":300,"ĸ":301,"Ĺ":302,"ĺ":303,"Ļ":304,"ļ":305,"Ľ":306,"ľ":307,"Ŀ":308,"ŀ":309,"Ł":310,"ł":311,"Ń":312,"ĠĠ":313,"Ġt":314,"Ġa":315,"in":316,"he":317,"re":318,"on":319,"ĠĠĠĠ":320,"er":321,"Ġthe":322,"at":323,"Ġs":324,"Ġo":325,"en":326,"Ġc":327,"es":328,"is":329,"or":330,"Ġw":331,"it":332,"an":333,"al":334,"Ġp":335,"Ġf":336,"Ġb":337,"ed":338,"ing":339,"Ġan":340,"ar":341,"ou":342,"Ġof":343,"Ġm":344,"ion":345,"Ġin":346,"le":347,"Ġd":348,"ic":349,"Ġto":350,"Ġand":351,"as":352,"ro":353,"Ġth":354,"ĠĠĠĠĠĠĠĠ":355,"ct":356,"ent":357,"Ġh":358,"st":359,"Ġe":360,"ĠĠĠ":361,"Ġn":362,"et":363,"om":364,"Ġre":365,"Ġl":366,"el":367,"il":368,"ol":369,"Ġis":370,"im":371,"id":372,"ut":373,"am":374,"ot":375,"us":376,"ve":377,"Ġg":378,"ĠT":379,"ĠI":380,"ation":381,"ig":382,"ow":383,"ce":384,"ly":385,"ur":386,"Ġ(":387,"Ġbe":388,"od":389,"ad":390,"ch":391,"Ġthat":392,"ĠS":393,"Ġfor":394,"ul":395,"ĠA":396,"ver":397,"un":398,"Ġst":399,"Ġ1":400,"Ġy":401,"Ġon":402,"if":403,"ra":404,"se":405,"ĠC":406,"ay":407,"ith":408,"Ġit":409,"ir":410,"Ġ=":411,"âĢ":412,"Ġcon":413,"em":414,"Ġ\"":415,"um":416,"Ġas":417,"qu":418,"ag":419,"ate":420,"ter":421,"pe":422,"Ġwith":423,"Ġyou":424,"00":425,"Ġal":426,"Ġpro":427,"Ġwh":428,"her":429,"ab":430,"Ġare":431,"ĠĠĠĠĠĠĠ":432,"Ġv":433,"ri":434,"ist":435,"ĠThe":436,"th":437,"ac":438,"ĠM":439,"est":440,"Ġex":441,"Ġor":442,"res":443,"Ġ2":444,"ĠP":445,"Ġwe":446,"os":447,"ers":448,"op":449,"Ġde":450,"and":451,"ht":452,"ess":453,"ore":454,"</":455,"ĠB":456,"ain":457,"Ġcom":458,"rom":459,"ke":460,"iv":461,"oc":462,"Ġr":463,"ĠĠĠĠĠĠĠĠĠĠĠĠĠĠĠĠ":464,"ld":465,"oun":466,"ĠF":467,"pl":468,"ction":469,"Ġus":470,"ity":471,"ame":472,"ill":473,"--":474,"ub":475,"ort":476,"ant":477,"Ġhe":478,"ment":479,"Ġby":480,"=\"":481,"ĠW":482,"ap":483,"Ġat":484,"Ġse":485,"ĠR":486,"der":487,"ĠH":488,"ĠD":489,"Ġnot":490,"te":491,"up":492,"ave":493,"ĠE":494,"Ġfrom":495,"ies":496,"ĉĉ":497,"ive":498,"Ġcan":499,"Ġne":500,"ure":501,"Ġwas":502,"Ġthis":503,"ren":504,"art":505,"ight":506,"ĠN":507,"all":508,"Ġch":509,"iz":510,"Ġ{":511,"ass":512,"Ġ0":513,"fe":514,"pt":515,"ial":516,"'s":517,"end":518,"Ġun":519,"og":520,"ud":521,"ĠL":522,"Ġhave":523,"ge":524,"ould":525,"ue":526,"ĠG":527,"int":528,"Ġsh":529,"ine":530,"ode":531,"ical":532,"Ġle":533,"ust":534,"out":535,");":536,"Ġcl":537,"red":538,"age":539,"ult":540,"Âł":541,"Ġk":542,"ell":543,"Ġab":544,"con":545,"imp":546,"ome":547,"ich":548,"Ġ<":549,"ost":550,"ib":551,"av":552,"\",":553,"ans":554,"our":555,"..":556,"Ġdo":557,"per":558,"act":559,"ong":560,"ĠIn":561,"ated":562,"ĠO":563,"ard":564,"ack":565,"ound":566,"orm":567,"Ġwhe":568,"ak":569,"Ġif":570,"Ġwor":571,"ide":572,"ĠĠĠĠĠĠĠĠĠĠĠ":573,"cl":574,"Ġ3":575,"//":576,"ther":577,").":578,"Ġ-":579,"The":580,"ile":581,"able":582,"Ġtr":583,"ip":584,"cc":585,"ind":586,"Ġall":587,"Ġpl":588,"Ġint":589,"ie":590,"Ġcomp":591,"âĢĻ":592,"Ġres":593,"Ġthey":594,"Ġj":595,"Ġar":596,"ions":597,"ĠâĢ":598,"Ġen":599,"ata":600,"Ġ'":601,"Ġbut":602,"ex":603,"Ġme":604,"Ġwhich":605,"oug":606,"ations":607,"ally":608,"ign":609,"ime":610,"ast":611,"ous":612,"ect":613,"ath":614,"Ġ}":615,"Ġad":616,"##":617,"ress":618,"ary":619,"ase":620,"ĠU":621,"ĠJ":622,"\":":623,"du":624,"ĠTh":625,"Ġcont":626,"**":627,"urn":628,"Ġtheir":629,"ok":630,"Ġ[":631,"ber":632,"one":633,"Ġgo":634,"),":635,"ang":636,"so":637,"ance":638,"ty":639,"code":640,"ice":641,"01":642,"ach":643,"ep":644,"rent":645,"ire":646,"Ġsu":647,"Ġone":648,"Ġso":649,"ence":650,"Ġwill":651,"Ġmore":652,"Ġap":653,"In":654,"Ġ+":655,"Ġout":656,"ition":657,"Ġhas":658,"ace":659,"str":660,"ory":661,"Ġwere":662,"ough":663,"Ġother":664,"ia":665,"ents":666,"Ġdis":667,"ens":668,"Ġ*":669,"aus":670,"ff":671,"'t":672,"vel":673,"Ġyour":674,"form":675,"amp":676,"sp":677,"ord":678,"ake":679,"Ġli":680,"gr":681,"Ġimp":682,"Ġqu":683,"ose":684,"ite":685,"----":686,"ely":687,"ph":688,"Ġper":689,"Ġev":690,"ry":691,"ks":692,"Ġup":693,"Ġ4":694,"very":695,"com":696,"Ġ$":697,"Ġ&":698,"ount":699,"Ġthere":700,"Ġclass":701,"ms":702,"lo":703,"low":704,"now":705,"Ġsome":706,"ater":707,"ear":708,"Ġsc":709,"ĠĠĠĠĠ":710,"are":711,"Ġman":712,"Ġsp":713,"Ġabout":714,"Ġwould":715,"Ġ19":716,"ject":717,"Ġsy":718,"Ġalso":719,"Ġpart":720,"Ġ\\":721,"we":722,"turn":723,"ree":724,"ll":725,"ces":726,"ors":727,"ild":728,"ail":729,"ize":730,"Ġspe":731,"()":732,"Ġdif":733,"tain":734,"pro":735,"ĠĠĠĠĠĠĠĠĠĠĠĠĠĠĠ":736,"ĠK":737,"Ġ5":738,"get":739,"ĠIt":740,"ĠV":741,"ef":742,"Ġ|":743,"ne":744,"Ġnum":745,"ĠSt":746,"port":747,"Ġpe":748,"name":749,"ps":750,"Ġpre":751,"==":752,"Ġpo":753,"Ġro":754,"erv":755,"Ġtime":756,"ook":757,"gt":758,"ates":759,"Ġwhen":760,"ause":761,"xt":762,"__":763,"Ġval":764,"Ġstr":765,"Ġthan":766,"ys":767,"Ġbec":768,"rib":769,"ari":770,"Ġany":771,"li":772,"Ġget":773,"eth":774,"wo":775,"10":776,"\">":777,"Ġlike":778,"Ġgr":779,"ink":780,"Ġbet":781,"Ġwhat":782,"ish":783,"Ġits":784,"Ġinto":785,"ings":786,"Ġfun":787,"ĠAn":788,"lt":789,"Ġcol":790,"stem":791,"ck":792,"Ġknow":793,"Ġhis":794,"lect":795,"ĠY":796,"vers":797,"ove":798,"ific":799,"Ġwho":800,"Ġfe":801,"ual":802,"ĠThis":803,"Ġ.":804,"Ġthem":805,"Ġx":806,"Ġind":807,"ople":808,"ict":809,"elf":810,"Ġhow":811,"aa":812,"Ġno":813,"irst":814,"Ġnew":815,"Ġover":816,"ft":817,"12":818,"Ġgen":819,"Ġob":820,"cre":821,"Ġuse":822,"Ġcomm":823,"tern":824,"ble":825,"ics":826,"put":827,"ays":828,"ution":829,"les":830,"span":831,"Ġhad":832,"ons":833,"ds":834,"Ġmod":835,"rit":836,"cess":837,"Ġdiffe":838,"Ġrel":839,"reat":840,"row":841,"Ġonly":842,"Ġag":843,"fect":844,"ian":845,"ug":846,"older":847,"Ġtwo":848,"Ġjust":849,"Ġpeople":850,"ock":851,"Ġact":852,"Ġpr":853,"Ġwork":854,"St":855,"ĠCh":856,"Ġthese":857,"Ġdes":858,"Ġmay":859,"ubl":860,"Ġthen":861,"clud":862,"ont":863,"20":864,"Ġbeen":865,"iel":866,"Ġ6":867,"ick":868,"ax":869,"rain":870,"NN":871,"aw":872,"ĠĊ":873,"ange":874,"Ġcons":875,"Ġpos":876,"ov":877,"own":878,"Ġform":879,"olog":880,"Ġunder":881,"Ġused":882,"ype":883,"arg":884,"Ġte":885,"Ġreturn":886,"Ġ/":887,"erm":888,"ĉĉĉĉ":889,"Ġacc":890,"Ġset":891,"Ġneed":892,"âĢĿ":893,"',":894,"Ġsub":895,"ec":896,"Ġam":897,"Ġstud":898,"ular":899,"ark":900,"ÂłÂł":901,"ient":902,"cept":903,"ative":904,"Ġsuch":905,"pre":906,"Ġsup":907,"Ġem":908,"Ġadd":909,"ating":910,"ade":911,"igh":912,"Ġim":913,"Ġfirst":914,"hen":915,"Ġass":916,"Ġdef":917,"val":918,"ull":919,"ween":920,"ced":921,"Ġfunction":922,"Ġdata":923,"ample":924,"Ġwhere":925,"Ġmost":926,"19":927,"ility":928,"Ġspec":929,"iew":930,"ob":931,"Ġmy":932,"pos":933,"lement":934,"Ġbecause":935,"hed":936,"Ġph":937,"ible":938,"ĠâĢľ":939,"hat":940,"Ġaf":941,"Ġext":942,"Ġpoint":943,"Ġsystem":944,"ning":945,"Ġco":946,"type":947,"Ġsol":948,"Ġbetween":949,"Ġtrans":950,"><":951,"ĠIf":952,"0000":953,"Ġinter":954,"...":955,"its":956,"oth":957,"Ġyear":958,"als":959,"ss":960,"Ġcould":961,"(\"":962,"iss":963,"Ġreg":964,"ring":965,"ied":966,"Ġmem":967,"rough":968,"Ġ10":969,"ise":970,"Ġid":971,"ities":972,"ublic":973,"ower":974,"ollow":975,"sub":976,"Ġdifferent":977,"Ġnumber":978,"ext":979,"Ġequ":980,"pect":981,"Ġshould":982,"ield":983,"Ġdoes":984,"pon":985,"app":986,"text":987,"ract":988,"ix":989,"cy":990,"ues":991,"Ġresult":992,"11":993,"Ġ201":994,"Ġprodu":995,"ures":996,"uct":997,"Ġ7":998,"ĠĠĠĠĠĠĠĠĠĠĠĠĠĠĠĠĠĠĠ":999,"Ġcall":1000,"ased":1001,"Ġvari":1002,"ually":1003,"ĠUn":1004,"mer":1005,"Ġour":1006,"sh":1007,"ious":1008,"Ġ8":1009,"://":1010,"Ġi":1011,"Ġbl":1012,"uch":1013,"Ġeach":1014,"ric":1015,"Ġ#":1016,"Ġrec":1017,"Ġmat":1018,"::":1019,"Ġthrough":1020,"sc":1021,"Ġprov":1022,"Ġoff":1023,"ting":1024,"Ġsame":1025,"data":1026,"Ġrequ":1027,"Ġmany":1028,"Ġinclud":1029,"Ġmake":1030,"``":1031,"ood":1032,"fore":1033,"Ġatt":1034,"15":1035,"Ġgener":1036,"Ġusing":1037,"plic":1038,"ool":1039,"ĠHe":1040,"oup":1041,"eng":1042,"Ġpol":1043,"Ġdist":1044,"Ġop":1045,"Ġrem":1046,"Ġway":1047,"Ġ:":1048,"the":1049,"Ġsee":1050,"Ġ9":1051,"--------":1052,"math":1053,"))":1054,"velop":1055,"uc":1056,"000":1057,"Ġsm":1058,"].":1059,"ational":1060,"uring":1061,"25":1062,"ten":1063,"ctions":1064,"16":1065,"pr":1066,"io":1067,"ages":1068,"Ġback":1069,"Ġinv":1070,"Ġimport":1071,"Ġke":1072,"ork":1073,"Ġbu":1074,"yp":1075,"ically":1076,"Ġ//":1077,"lp":1078,"ew":1079,"Ġend":1080,"Ġthink":1081,"Ġcur":1082,"Ġac":1083,"ng":1084,"Ġsign":1085,"Ġdet":1086,"quot":1087,"Ġsur":1088,"Ġeven":1089,"Ġfollow":1090,"ever":1091,"ature":1092,"ev":1093,"></":1094,"ator":1095,"Ġcor":1096,"Ġright":1097,"resent":1098,"ars":1099,"Ġvery":1100,"Ġvalue":1101,"ody":1102,"read":1103,"ethod":1104,"Ġproble":1105,"Ġdon":1106,"ource":1107,"Ġwell":1108,"hes":1109,"inal":1110,"arch":1111,"to":1112,"ute":1113,"Ġra":1114,"Ġtest":1115,"erg":1116,"ines":1117,"ĠWe":1118,"Ġwant":1119,"by":1120,"err":1121,"Ġfact":1122,"ffect":1123,"Ġevery":1124,"ah":1125,"cul":1126,"32":1127,"wn":1128,"Ġel":1129,"other":1130,"ava":1131,"ism":1132,"old":1133,"],":1134,"let":1135,"hem":1136,"Th":1137,"folder":1138,"Ġher":1139,"Ġ200":1140,"ments":1141,"Ġconst":1142,"Ġlong":1143,"Ġcre":1144,"Ġbel":1145,"Ġafter":1146,"ful":1147,"ert":1148,"Ġdevelop":1149,"Ġmodel":1150,"imes":1151,"fl":1152,"ily":1153,"Ġbeing":1154,"Ġmuch":1155,"Ġdid":1156,"atic":1157,"Ġfl":1158,"Ġinte":1159,"set":1160,"ized":1161,"Ġhigh":1162,"ript":1163,"be":1164,"Ġinst":1165,"Ġdep":1166,"add":1167,"oid":1168,"Ġexp":1169,"Ġpers":1170,"18":1171,"ĠâĢĵ":1172,"htt":1173,"17":1174,"ists":1175,"import":1176,"py":1177,"Ġcent":1178,"Ġ`":1179,"):":1180,"24":1181,"Ġgiv":1182,"man":1183,"Ġâ":1184,"ited":1185,"raph":1186,"riv":1187,"Ġfind":1188,"Ġtype":1189,"oy":1190,"Ġprocess":1191,"Ġexample":1192,"Ġlook":1193,"Ġent":1194,"date":1195,"ER":1196,"ĠPro":1197,"Ġpar":1198,"64":1199,"14":1200,"ward":1201,"par":1202,"Ġshow":1203,"Ġeffect":1204,"user":1205,"ale":1206,"Ġmin":1207,"Ġdi":1208,"Ġchild":1209,"An":1210,"yn":1211,"Ġ18":1212,"ĠFor":1213,"fo":1214,"Ġshe":1215,"Ġsa":1216,"aking":1217,"ray":1218,"ined":1219,"gan":1220,"ince":1221,"13":1222,"ife":1223,"},":1224,"Ġ20":1225,"tr":1226,"sw":1227,"ĠHow":1228,"ins":1229,"Ġchar":1230,"Ġdec":1231,"ases":1232,"====":1233,"Ġed":1234,"ural":1235,"ern":1236,"AT":1237,"Ġthose":1238,"Ġstart":1239,"de":1240,"tainer":1241,"Ġsom":1242,"ash":1243,"Ġboth":1244,"Ġyears":1245,"col":1246,"ices":1247,"bl":1248,"Ġtra":1249,"air":1250,"Ġread":1251,"Ġline":1252,"cent":1253,"Ġincre":1254,"ox":1255,"Ġnow":1256,"lex":1257,"ead":1258,"Ġpartic":1259,"ential":1260,"Ġagain":1261,"Ġhelp":1262,"ule":1263,"rence":1264,"vent":1265,"fer":1266,"formation":1267,"Ġname":1268,"Ġfound":1269,"Ġaut":1270,"ience":1271,"br":1272,"Ġear":1273,"ĠCom":1274,"Ġexper":1275,"stand":1276,"Ġwhile":1277,"Ġpublic":1278,"vert":1279,"chn":1280,"ww":1281,"bers":1282,"of":1283,"Ġgood":1284,"****":1285,"RE":1286,"();":1287,"meric":1288,"ĠAnd":1289,"Ġsim":1290,"line":1291,"âĢĵ":1292,"ton":1293,"Ġcal":1294,"ĠAl":1295,"cond":1296,"ider":1297,"Ġloc":1298,"Ġmethod":1299,"Ġappro":1300,"Ġrep":1301,"oci":1302,"dd":1303,"ĠAr":1304,"ĠThey":1305,".\"":1306,"estion":1307,"tt":1308,"Ġcar":1309,"Ġdire":1310,"Ġposs":1311,"50":1312,"ets":1313,"Ġlear":1314,"container":1315,"Ġdown":1316,"Ġcount":1317,"Pro":1318,"'re":1319,"Ġhum":1320,"Ġdisc":1321,"ants":1322,"itt":1323,"ology":1324,"Ġmain":1325,"land":1326,"ĠAs":1327,"rest":1328,"ĠĠĠĠĠĠĠĠĠĠĠĠĠĠĠĠĠĠĠĠĠĠĠ":1329,"Ġarg":1330,".,":1331,"Ġreal":1332,"Ġ@":1333,"ĠYou":1334,"Ġwater":1335,"IN":1336,"size":1337,"rol":1338,"alth":1339,"ĠĠĠĠĠĠĠĠĠ":1340,"Ġself":1341,"ME":1342,"Ġplay":1343,"led":1344,"Ġhim":1345,"It":1346,"Ġlevel":1347,"not":1348,"over":1349,"Ġsmall":1350,"ength":1351,"ier":1352,".</":1353,"Ġexpl":1354,"Ġbefore":1355,"Ġhand":1356,"ivid":1357,"akes":1358,"ify":1359,"Ġcase":1360,"Ġser":1361,"NNNN":1362,"Ð¾":1363,"_{":1364,"\")":1365,"Ġown":1366,"ĠCon":1367,"$</":1368,"ĠAmeric":1369,"ather":1370,"Ġworld":1371,"gram":1372,"Ġcell":1373,"30":1374,"lear":1375,"22":1376,"Ġpower":1377,"Ġpat":1378,"rac":1379,"ames":1380,"Ġmade":1381,"('":1382,"ĠSe":1383,"ĠRe":1384,"ĠFile":1385,"Ġet":1386,"ĠBut":1387,"Ġz":1388,"Ġsay":1389,"els":1390,"ization":1391,"Ġmon":1392,"Con":1393,"work":1394,"\">$":1395,"tic":1396,"ccess":1397,"ision":1398,"Ġgu":1399,"Ġhere":1400,"subfolder":1401,"ĠQ":1402,"ved":1403,"Id":1404,"Ġ)":1405,"Ġperson":1406,"oss":1407,"here":1408,"ency":1409,"oint":1410,"acter":1411,"rem":1412,"Ġcap":1413,"alse":1414,"az":1415,"any":1416,"ane":1417,"mint":1418,"Ġmean":1419,"Ġ</":1420,"Ġtake":1421,"java":1422,"Ġstill":1423,"Ġmet":1424,"ability":1425,"ts":1426,"ger":1427,"ank":1428,"inu":1429,"ness":1430,"ĠSo":1431,"Ġsk":1432,"ense":1433,"ared":1434,"idth":1435,"ĠThere":1436,"Ġfr":1437,"uss":1438,"ergy":1439,"Ġless":1440,"Ex":1441,"test":1442,"ired":1443,"Ġobject":1444,"ement":1445,"heck":1446,"Ġduring":1447,"ole":1448,"way":1449,"lib":1450,"ffic":1451,"Ġav":1452,"atch":1453,"Ġpop":1454,"ask":1455,"99":1456,"Ġ_":1457,"Ġmult":1458,"ought":1459,"Ġtem":1460,"arm":1461,"ething":1462,"ĠEx":1463,"Ġcalled":1464,"ST":1465,"Ġmed":1466,"ser":1467,"Ġrun":1468,"ason":1469,"arge":1470,"cript":1471,"Ġest":1472,"ides":1473,"fig":1474,"ON":1475,"Ġlead":1476,"att":1477,"Ð°":1478,"Ġ>":1479,"Ġproblem":1480,"Ġthree":1481,"28":1482,"ner":1483,"ively":1484,"ateg":1485,"Ġlet":1486,"Ġimportant":1487,"Ġanal":1488,"cial":1489,"Ġbr":1490,"Ġunderstand":1491,"ional":1492,"23":1493,"Name":1494,"ument":1495,"Ġallow":1496,"for":1497,"https":1498,"Ġins":1499,"Ġelect":1500,"ĠWh":1501,"Ġorder":1502,"Ġocc":1503,"pp":1504,"Ġaround":1505,"iron":1506,"self":1507,"min":1508,"Ġide":1509,"ĠX":1510,"mod":1511,"und":1512,"ĉĉĉ":1513,"Ġsl":1514,"ters":1515,"itions":1516,"irc":1517,"div":1518,"Ġopt":1519,"ves":1520,"Ch":1521,"Ġtechn":1522,"Ġinformation":1523,"####":1524,"Ġreally":1525,"angu":1526,"Ġlist":1527,"ulation":1528,"Ðµ":1529,"Ġnon":1530,"27":1531,"return":1532,"'m":1533,"||":1534,"ems":1535,"Ġgiven":1536,"ives":1537,"Ġelse":1538,"Ġmeas":1539,"ym":1540,"ium":1541,"Ġsomething":1542,"Ġstat":1543,"Ġmust":1544,"Ġstate":1545,"Ġtry":1546,"ĠSub":1547,"error":1548,"Ġlife":1549,"ross":1550,"66":1551,"Ġoper":1552,"itive":1553,"Ġ==":1554,"back":1555,"px":1556,"Re":1557,"Ġmight":1558,"gg":1559,"alk":1560,"Ġthings":1561,"Ġsupport":1562,"ĠWhat":1563,"21":1564,"ety":1565,"Ġref":1566,"aj":1567,"Ġcond":1568,"ples":1569,"Ġtyp":1570,"ways":1571,"}{":1572,"iqu":1573,"Up":1574,"Ġchang":1575,"This":1576,"ayer":1577,"Ġpass":1578,"Ġcr":1579,"ression":1580,"ml":1581,"igned":1582,"field":1583,"ote":1584,"Ġgoing":1585,"Ġbeh":1586,"Ġchange":1587,"Ġsaid":1588,"ron":1589,"40":1590,"Ġ,":1591,"Ġoften":1592,"Ġwithout":1593,"Ġcurrent":1594,"201":1595,"ality":1596,"Ġfollowing":1597,"hip":1598,"Ġtrue":1599,"Ġanother":1600,"Ġfil":1601,"ified":1602,"NA":1603,"Ġsimp":1604,"gin":1605,"Ġcode":1606,"Ġgover":1607,"Ġproper":1608,"ivity":1609,"username":1610,"33":1611,"order":1612,"Ġhapp":1613,"80":1614,"Ġstruct":1615,"Ġapp":1616,"Ġstand":1617,"ctor":1618,"ann":1619,"ĠÐ":1620,"ground":1621,"Ġcommun":1622,"ior":1623,"Ġtri":1624,"gen":1625,"ĠâĢ¢":1626,"Ġeas":1627,"ervice":1628,"Ġcommon":1629,"Ġ15":1630,"Ġprob":1631,"Ġbre":1632,"Ġwrit":1633,"Ġprote":1634,"ral":1635,"60":1636,",\"":1637,"ond":1638,"abel":1639,"Ġcalcul":1640,"ivers":1641,"olution":1642,"Ġvol":1643,"If":1644,"ertain":1645,"cur":1646,"Ġansw":1647,"ystem":1648,"Ġgovern":1649,"Ġgroup":1650,"byte":1651,"ĠInd":1652,"met":1653,"ĠNew":1654,"Ġenergy":1655,"En":1656,"requ":1657,"Ġcontain":1658,"ots":1659,"iod":1660,"Ġprogram":1661,"Ġtext":1662,"Ġsecond":1663,"ocial":1664,"ä¸":1665,"arent":1666,"ished":1667,"ik":1668,"son":1669,"face":1670,"aving":1671,"Ġfam":1672,"chool":1673,"ately":1674,"^{":1675,"arget":1676,"word":1677,"45":1678,"Ġlo":1679,"frac":1680,"rop":1681,"Ġ--":1682,"ref":1683,"less":1684,"ilar":1685,"play":1686,"ault":1687,"right":1688,"ĠSc":1689,"amet":1690,"oh":1691,"version":1692,"Ġiss":1693,"ably":1694,"____":1695,"Ġbas":1696,"Ġtop":1697,"def":1698,"Ġhist":1699,"Ġperform":1700,"Com":1701,"med":1702,"Ġlarge":1703,"agn":1704,"Ġstudents":1705,"Ġ17":1706,"Ġgrow":1707,"AD":1708,"Ġdem":1709,"view":1710,"->":1711,"\".":1712,"FF":1713,"][":1714,"Ġtoo":1715,"ãģ":1716,"Ġsize":1717,"thing":1718,"Ġter":1719,"Ġbuild":1720,"viron":1721,"Ġtot":1722,"ery":1723,"Ġident":1724,"ape":1725,"35":1726,"Ġbody":1727,"ĠSh":1728,"Ġchildren":1729,"Ġhuman":1730,"day":1731,"Ġlog":1732,"Ġve":1733,"strong":1734,"Ġdr":1735,"ÂłÂłÂłÂł":1736,"ividual":1737,"ven":1738,"Ġknown":1739,"aged":1740,"Ġ12":1741,"68":1742,"ĠIs":1743,"Ġpossible":1744,"Ġelement":1745,"cont":1746,"Ġsince":1747,"Ġwithin":1748,"Ġredu":1749,"Ġinterest":1750,"Ġfew":1751,"ouse":1752,"rect":1753,"Ġbetter":1754,"ital":1755,"Ġrese":1756,"roll":1757,"umn":1758,"Ġlast":1759,"Ð¸":1760,"til":1761,"Ġwhy":1762,"75":1763,"ination":1764,"As":1765,"Ġcour":1766,"crib":1767,"Ġmeans":1768,"Ġadv":1769,"Ġorig":1770,"Ġbelie":1771,"df":1772,"ĠZ":1773,"To":1774,"Ġlangu":1775,"Ġuser":1776,"Ġorgan":1777,"Ġday":1778,"Ġstudy":1779,"Ġlim":1780,"Ġplace":1781,"ĠThese":1782,"Ġbased":1783,"Ġlight":1784,"Ġmove":1785,"Ġmark":1786,"ither":1787,"Ġsing":1788,"\"]":1789,"ID":1790,"rite":1791,"90":1792,"ĠĠĠĠĠĠĠĠĠĠĠĠĠĠĠĠĠĠĠĠĠĠĠĠĠĠĠ":1793,"Ġpresent":1794,"Ġkey":1795,"bs":1796,"vious":1797,"ĠCl":1798,"ï¼":1799,"Ġgreat":1800,"\"/":1801,"36":1802,"Ġsym":1803,"aterial":1804,"Ġcontrol":1805,"We":1806,"Ġnull":1807,"Ġrequire":1808,"Ġwar":1809,"andom":1810,"Ġpost":1811,"ĠHowever":1812,"Ġdirect":1813,"Ġfin":1814,"rc":1815,"ponse":1816,"ĠâĪ":1817,"Ġrad":1818,"ury":1819,"ĠAf":1820,"msg":1821,"call":1822,"ams":1823,"eral":1824,"conom":1825,"omen":1826,"Ġmov":1827,"duct":1828,"70":1829,"Ġhealth":1830,"ĠÎ":1831,"ĠDe":1832,"Ġ=>":1833,"Ġquestion":1834,"ĠOn":1835,"Ġinc":1836,"Ġindividual":1837,"Ġbo":1838,"200":1839,"md":1840,"lood":1841,"Ġmus":1842,"AR":1843,"Update":1844,"âĢĶ":1845,"\\\\":1846,"Ġlaw":1847,"CT":1848,"lection":1849,"orn":1850,"Ġproduct":1851,"ÑĤ":1852,"Ġabove":1853,"inc":1854,"OR":1855,"ats":1856,"Ġvalues":1857,"yle":1858,"string":1859,"Ġarea":1860,"Ġpres":1861,"ends":1862,"Ġpoints":1863,"Ġleft":1864,"ived":1865,"Ġland":1866,"long":1867,"log":1868,"igure":1869,"Ġsit":1870,"Info":1871,"Ġhead":1872,"org":1873,"ott":1874,"Ġgre":1875,"uro":1876,"lob":1877,"Ġ!":1878,"value":1879,"'ve":1880,"ysis":1881,"ĠThat":1882,"Ġsignific":1883,"Ġpred":1884,"Ġphys":1885,"print":1886,";&":1887,"Ġpract":1888,"List":1889,"hor":1890,"Ġvis":1891,"Ġagainst":1892,"idd":1893,"Ġopen":1894,"itle":1895,"raw":1896,"Ġ100":1897,"ĠEng":1898,"38":1899,"Ġspace":1900,"verse":1901,"ĠTr":1902,"Ġappe":1903,"ĠWhen":1904,"new":1905,"ries":1906,"Ġalways":1907,"ume":1908,"vironment":1909,"ittle":1910,"Ġ16":1911,"Ġtotal":1912,"Ġresults":1913,"essage":1914,"Cl":1915,"AL":1916,"Ġes":1917,"ference":1918,"ources":1919,"ribut":1920,"AA":1921,"yd":1922,"mp":1923,"Ġnumbers":1924,"ables":1925,"Ġlow":1926,"rivate":1927,"ification":1928,"----------------":1929,"48":1930,"alf":1931,"Ġcomput":1932,"Ġaddition":1933,"plication":1934,"Ġturn":1935,";/":1936,"ention":1937,"Ġparticular":1938,"Ġincluding":1939,"Ġdev":1940,"omet":1941,"anc":1942,"ma":1943,"lete":1944,"ajor":1945,"time":1946,"Ġcharacter":1947,"ormal":1948,"96":1949,"Ġpur":1950,"Ġput":1951,"Ġplan":1952,"\"/>":1953,"ration":1954,"Ġfile":1955,"26":1956,"Ġhig":1957,"ĠEn":1958,"Ġpot":1959,"Ġsum":1960,"icult":1961,"Ġdeterm":1962,"Ġmeasure":1963,"ians":1964,"=\"-":1965,"Ġtimes":1966,"Ġable":1967,"Ġoccur":1968,"nect":1969,"Ġcaus":1970,"ĠTo":1971,"ĠSp":1972,"Ġtrain":1973,"Ġactually":1974,"lish":1975,"LE":1976,"Res":1977,"Ġeng":1978,"String":1979,"imal":1980,"Ġbest":1981,"Ġanswer":1982,"outh":1983,"serv":1984,"ush":1985,"Ġexist":1986,"unction":1987,"Ġrepresent":1988,"bo":1989,"SS":1990,"}\\":1991,"Se":1992,"Ġtreat":1993,"00000000":1994,"Ġworks":1995,"78":1996,"Ġperiod":1997,"ently":1998,"aut":1999,"Ġcult":2000,"Ġcreate":2001,"Ġfood":2002,"Ġinvol":2003,"urther":2004,"Ð½":2005,"ences":2006,"46":2007,"Ġgovernment":2008,"Ġinfl":2009,"orth":2010,"Ġold":2011,"55":2012,"ream":2013,"Ġsimilar":2014,"ological":2015,"```":2016,"comm":2017,"Ġlot":2018,"Ġfalse":2019,"')":2020,"[\"":2021,"ĠLe":2022,"epend":2023,"Ġconf":2024,"Ġcertain":2025,"ental":2026,"ories":2027,"action":2028,"ĠRes":2029,"Ġcare":2030,"file":2031,"ids":2032,"Ġthing":2033,"ope":2034,"ception":2035,"Ġnever":2036,"Ġview":2037,"Ġreason":2038,"29":2039,"Ġsever":2040,"aps":2041,"39":2042,"Ġdoesn":2043,"Ġterm":2044,"Type":2045,"])":2046,"imate":2047,"Ġkeep":2048,"Ġcomb":2049,"Ġbook":2050,"Ġprint":2051,"Ġnext":2052,"ances":2053,"ission":2054,"Ġlittle":2055,"wh":2056,"aces":2057,"ering":2058,"struct":2059,"ĠPl":2060,"rr":2061,"ĠĠĠĠĠĠ":2062,"mintUpdate":2063,"Ġfree":2064,"this":2065,"class":2066,"Ġleg":2067,"Ġ14":2068,"Ġkind":2069,"af":2070,"Ġcho":2071,"ards":2072,"Data":2073,"oms":2074,"Ġdescrib":2075,"iple":2076,"Ġstep":2077,"Ġremain":2078,"Ġexpect":2079,"Ġmass":2080,"Ġschool":2081,"Ġsocial":2082,"Ġcolor":2083,"rel":2084,"atures":2085,"What":2086,"me":2087,"reg":2088,"Ġcirc":2089,"iter":2090,"37":2091,"SE":2092,"Ġmaterial":2093,"etic":2094,"ided":2095,"Ġrange":2096,"Ġsignificant":2097,"Ġside":2098,"aster":2099,"ey":2100,"Ġimpro":2101,"estions":2102,"Ġgeneral":2103,"istic":2104,"amples":2105,"uff":2106,"Ġfield":2107,"Ġdue":2108,"Ġlearn":2109,"ÑĢ":2110,"Ġfeel":2111,"Ġconsider":2112,"por":2113,"ware":2114,"oney":2115,"========":2116,"ĠĠĠĠĠĠĠĠĠĠĠĠĠ":2117,"left":2118,"Ġinit":2119,"ember":2120,"Ġair":2121,"For":2122,"Ġfour":2123,"':":2124,"Ġlik":2125,"Ġleast":2126,"Ġeconom":2127,"Ġinclude":2128,"Ġris":2129,"rix":2130,"Ġamount":2131,"Ġ%":2132,"Ġsingle":2133,"Ġseveral":2134,"ird":2135,"uck":2136,"Ġbi":2137,"train":2138,"Ġmajor":2139,"34":2140,"ocus":2141,"Val":2142,"Ġlanguage":2143,"ribute":2144,"idence":2145,"Ġdel":2146,"ĠPh":2147,"fr":2148,"iness":2149,"Ġwidth":2150,"ĠAmerican":2151,"Ġstring":2152,"ero":2153,"icro":2154,"Ġu":2155,"load":2156,"Ġmill":2157,"Ġfore":2158,"my":2159,"Ġlarg":2160,"Ġhard":2161,"Tr":2162,"ploy":2163,"Ġpress":2164,"Ġspecific":2165,"Ġbehav":2166,"ised":2167,"###":2168,"Ġnet":2169,"enc":2170,"Ġpath":2171,"Ġcome":2172,"lease":2173,"Ġdesign":2174,"Ġgive":2175,"ending":2176,"Ġcomplex":2177,"www":2178,"ĠAt":2179,"acy":2180,"from":2181,"Ġeither":2182,"Ġenough":2183,"indow":2184,"rag":2185,"count":2186,"Ġnat":2187,"ailable":2188,"Ġdiff":2189,"Ġuntil":2190,"Ġlater":2191,"ternal":2192,"iversity":2193,"ording":2194,"Ġcells":2195,"ident":2196,"Ġcost":2197,"Ġfar":2198,"Ġ},":2199,"Ġask":2200,"Ġlearning":2201,"Ġproblems":2202,"ready":2203,"Ð¾Ð":2204,"Ġmil":2205,"Ġ11":2206,"ators":2207,"Ġenvironment":2208,"Ar":2209,"Ġdevelopment":2210,"Col":2211,"though":2212,"Ġsource":2213,"********":2214,"'ll":2215,"Ġmax":2216,"Ġsw":2217,"yl":2218,"ving":2219,"Ġspecies":2220,"Ñģ":2221,"ina":2222,"bb":2223,"ĠOr":2224,"Ġ30":2225,"Ġclear":2226,"ender":2227,":</":2228,"ended":2229,"Ġreport":2230,"ĠCol":2231,"....":2232,"Ġerror":2233,"Ġtemper":2234,"Ġprovide":2235,"Ġsuccess":2236,"td":2237,"Ġproject":2238,"Ġbecome":2239,"ogn":2240,"Ġinput":2241,"umber":2242,"Ġcheck":2243,"bra":2244,"Ġmaking":2245,"Ġgame":2246,"Ġ32":2247,"Ġant":2248,"ene":2249,"Ġabs":2250,"98":2251,"Cont":2252,"Ġthought":2253,"Ġshort":2254,"ait":2255,"Ġrest":2256,"Ġlayer":2257,"posed":2258,"44":2259,"Ġmen":2260,"Ġhref":2261,"Ġtarget":2262,"rap":2263,"NT":2264,"pecial":2265,"Ġgl":2266,"ique":2267,"ĠFr":2268,"ustom":2269,"Ġsystems":2270,"Ġobserv":2271,"Add":2272,"Ġbig":2273,"Ġsugg":2274,"Ġdone":2275,"Ġposition":2276,"ules":2277,"\");":2278,"ored":2279,"Ġbro":2280,"Ġfail":2281,"Ġhtt":2282,"place":2283,"Ġlocal":2284,"cription":2285,"ted":2286,"Ġenc":2287,"ĠGr":2288,"Ġthough":2289,"Ġblood":2290,"pose":2291,"Ġmot":2292,"rodu":2293,"oups":2294,"Ġhaving":2295,"AP":2296,"Ġevent":2297,"ek":2298,"ta":2299,"['":2300,"Ġearly":2301,"inter":2302,"Ġresearch":2303,"yy":2304,"Ġnear":2305,"ounds":2306,"Ġsure":2307,"Sc":2308,"thon":2309,"Ġclos":2310,"Ġgot":2311,"Ġmakes":2312,"95":2313,"NNNNNNNN":2314,"fficient":2315,"He":2316,"Ġsqu":2317,"hemat":2318,"Ġalready":2319,"$$":2320,"use":2321,"urope":2322,"Ġothers":2323,"IT":2324,"Ġlen":2325,"Ġpolit":2326,"ribution":2327,"iction":2328,"ĠAll":2329,"Ã©":2330,"Ġchanges":2331,"ients":2332,"Ġrate":2333,"stru":2334,"Ġang":2335,"Ġpotential":2336,"imum":2337,"Ġwords":2338,"65":2339,"Ġneg":2340,"ales":2341,"Ġtell":2342,"head":2343,"verage":2344,"ĠUnited":2345,"Ġflow":2346,"ograph":2347,"Ġ/>":2348,"ĠUS":2349,"Ġhigher":2350,"Ġprof":2351,"ler":2352,"cle":2353,"Ġdefin":2354,"Ġart":2355,"aper":2356,"97":2357,"go":2358,"most":2359,"loc":2360,"Ġcontin":2361,"Ġvarious":2362,"Ġimage":2363,"list":2364,"Ġalong":2365,"ouble":2366,"Ġindic":2367,"opy":2368,"ills":2369,"oph":2370,"Ġaccess":2371,"Ġrelations":2372,"ĠÂ":2373,"Ġbit":2374,"ude":2375,"Ġ*/":2376,"Ġcourse":2377,"How":2378,"#:":2379,"co":2380,"Ġeduc":2381,"Or":2382,"Ġprivate":2383,"By":2384,"ĠCan":2385,"oot":2386,"ĠĠĠĠĠĠĠĠĠĠĠĠĠĠĠĠĠĠĠĠĠĠĠĠĠĠĠĠĠĠĠ":2387,"Al":2388,".âĢĿ":2389,"Ġuns":2390,"roid":2391,"ibr":2392,"aim":2393,"Ġcorrect":2394,"Ġassoci":2395,"05":2396,"Ġdiv":2397,"You":2398,"Ġdiscuss":2399,"Ġdise":2400,"Ġserv":2401,".)":2402,"cell":2403,"47":2404,"Ġsolution":2405,"iation":2406,"Ġusually":2407,"Ġvar":2408,"Ġword":2409,"Ġcrit":2410,"lobal":2411,"Ġstrong":2412,"Ġfrequ":2413,"}}":2414,"ĠBy":2415,"++":2416,"ling":2417,"Ġlength":2418,"Ġterms":2419,"Ġidea":2420,"ĠEar":2421,"Ġavailable":2422,"Wh":2423,"hers":2424,"body":2425,"Ġdom":2426,"Ġvoid":2427,"path":2428,"inux":2429,"ped":2430,"Un":2431,"color":2432,"Ġgas":2433,"Ġimplement":2434,"Ġ{\"":2435,"Ġrather":2436,"raft":2437,"Ġben":2438,"ui":2439,"Ġbus":2440,"ĠBrit":2441,"ison":2442,"Ġ25":2443,"Ġmoney":2444,"Ġsimple":2445,"rences":2446,"Ġhappen":2447,"Ġrece":2448,"ae":2449,"side":2450,"Ġnecess":2451,"Ġaway":2452,"ocument":2453,"Ġpay":2454,"Mod":2455,"ixed":2456,"icle":2457,"managed":2458,"AC":2459,"iving":2460,"orld":2461,"Ġaddress":2462,"Ġhome":2463,"Ġdoing":2464,"Ġresp":2465,"Ġbelow":2466,"Ġanalysis":2467,"ĠStates":2468,"128":2469,"ĠEurope":2470,"Ġdat":2471,"ze":2472,"Ġcause":2473,"ones":2474,"Ġwhether":2475,"ĠâĢĺ":2476,"usion":2477,"But":2478,"js":2479,"Ġge":2480,"dis":2481,"Ġhistory":2482,"ges":2483,"Ġwon":2484,"Ġprim":2485,"Ġprom":2486,"Ġtalk":2487,"Ġtoget":2488,"comp":2489,"Ġtogether":2490,"sequ":2491,"Ġtypes":2492,"uture":2493,"ties":2494,"Ġaffect":2495,"Ġcy":2496,"Ġsurface":2497,"uit":2498,"Ġinvest":2499,"asing":2500,"Ġexplain":2501,"input":2502,"Ġstructure":2503,"osp":2504,"31":2505,"aaa":2506,"Ġtrad":2507,"gor":2508,"](":2509,"bol":2510,"Ġtheory":2511,"lev":2512,"atus":2513,"Ġgraph":2514,"key":2515,"There":2516,"lected":2517,"empt":2518,"ĠComm":2519,"ered":2520,"aves":2521,"ands":2522,"Ġlower":2523,"Ġweight":2524,"ĠGerm":2525,"index":2526,"chan":2527,"(\\":2528,"raction":2529,"Ġconcept":2530,"AN":2531,"aken":2532,"une":2533,"Ġamong":2534,"Ġsuggest":2535,"Ġ**":2536,"{\\":2537,"Ġforce":2538,"Ġwomen":2539,"Ġpopulation":2540,"Ġwhole":2541,"rist":2542,"ius":2543,"Ġdig":2544,"Ġdays":2545,"ĠNo":2546,"ii":2547,"Ġ?":2548,"ĠÃ":2549,"sv":2550,"ours":2551,"uation":2552,"ĉĉĉĉĉĉĉĉ":2553,"ledge":2554,"net":2555,"Ġ13":2556,"Ġworking":2557,"Ġbreak":2558,"Ġinflu":2559,"sy":2560,"Ġactiv":2561,"Ġmonth":2562,"Ġ50":2563,"Ġrespect":2564,"88":2565,"stit":2566,"oman":2567,"On":2568,"bject":2569,"Ġversion":2570,"ires":2571,"Ġfolder":2572,"Ġmar":2573,"pond":2574,"Ġoutput":2575,"à¤":2576,"Ġrole":2577,"DE":2578,"ãĢ":2579,"100":2580,"Ġvir":2581,"Ġconditions":2582,"Ġartic":2583,"Ġnatural":2584,"Ġseen":2585,"Ġver":2586,"block":2587,"LL":2588,"Ġquant":2589,"Ġsyn":2590,"aug":2591,"Ġfurther":2592,"54":2593,"ADME":2594,"ĠAd":2595,"utions":2596,"Ġì":2597,"wards":2598,"gorith":2599,"Ġrecord":2600,"Ġcannot":2601,"Ġfunctions":2602,"but":2603,"Ġprobably":2604,"ival":2605,"Ġess":2606,"Ġcontinu":2607,"ĠOne":2608,"So":2609,"];":2610,"Ġcases":2611,"ula":2612,"Ġbegin":2613,"Ġlikely":2614,"Sh":2615,"ĠQu":2616,"Ġapproach":2617,"itor":2618,"Ġgroups":2619,"Ġinf":2620,"ĠCal":2621,"Ġparamet":2622,"\";":2623,"Ġsequ":2624,"sum":2625,"IC":2626,"And":2627,"ĠWar":2628,"Ġsens":2629,"Ġspecial":2630,"Ġcompon":2631,"angle":2632,"atter":2633,"../":2634,"ĠBe":2635,"Ġresponse":2636,"where":2637,"clude":2638,"sg":2639,"inary":2640,"57":2641,"Ġhowever":2642,"aring":2643,"opt":2644,"imens":2645,"Ġareas":2646,"Ġstop":2647,"ram":2648,"loat":2649,"ĠSystem":2650,"Im":2651,"ibility":2652,"Ġfocus":2653,"Ġfamily":2654,"Ġcreat":2655,"Ġdidn":2656,"Ġsense":2657,"ĠIm":2658,"Ġtable":2659,"Ġcountry":2660,"Ġincrease":2661,"Ġtool":2662,"Ġsent":2663,"Ġstandard":2664,"Ġinstead":2665,"08":2666,"Ġfull":2667,"Ġsepar":2668,"ohn":2669,"Ġrequired":2670,"ĠSome":2671,"http":2672,"uration":2673,"aced":2674,"View":2675,"Ġexact":2676,"Ġax":2677,"Ġetc":2678,"util":2679,"cer":2680,"Ġdifficult":2681,"Ġaccount":2682,"lying":2683,"çļ":2684,"Ġonce":2685,"source":2686,"ãĤ":2687,"rror":2688,"ĠPr":2689,"Ġquestions":2690,"pecially":2691,"pec":2692,")\\":2693,"çļĦ":2694,"bu":2695,"length":2696,"ES":2697,"Ġlab":2698,"amm":2699,"Ġprevious":2700,"Ġey":2701,"ails":2702,"README":2703,"ĠUniversity":2704,"AS":2705,"Ġissue":2706,"Ġ$\\":2707,"Ġequal":2708,"pi":2709,"Ġcentury":2710,"Ġsomeone":2711,"ener":2712,"na":2713,"Ġequation":2714,"ption":2715,"Ġnormal":2716,"Ġdifference":2717,"âĢ¢":2718,"ackage":2719,"RO":2720,"address":2721,"Ġret":2722,"Ġred":2723,"Ġspeed":2724,"Ġcontent":2725,"reen":2726,"cing":2727,"elves":2728,"Ġneeds":2729,"const":2730,"Ġimm":2731,"Ġexperim":2732,"plications":2733,"top":2734,"Ġcomplet":2735,"Ġblock":2736,"Ġacross":2737,"Ġpattern":2738,"item":2739,"ift":2740,"Ġestab":2741,"Qu":2742,"Ġscient":2743,"'d":2744,"Ġmethods":2745,"gress":2746,"leg":2747,"94":2748,"Ġblack":2749,"Ġoriginal":2750,"Ġport":2751,"Ġmind":2752,"ilities":2753,"iles":2754,"Ġimpact":2755,"Ġmatter":2756,"ilt":2757,"Ġrelationship":2758,"arc":2759,"equ":2760,"Ġshown":2761,"Ġrisk":2762,"point":2763,"Ġinitial":2764,"Ġlevels":2765,"bit":2766,">,":2767,"77":2768,"Ġbecame":2769,"='":2770,"Ġexpress":2771,"ĠIfx":2772,"Ġsubject":2773,"uments":2774,"âĢ¦":2775,"atory":2776,"Ġentire":2777,"Ġbrain":2778,"linux":2779,"plied":2780,"Ġfinal":2781,"ĠMay":2782,"Ġways":2783,"function":2784,"au":2785,"ï¼Į":2786,"ache":2787,"Ġattack":2788,"iddle":2789,"Ġpain":2790,"Text":2791,"idered":2792,"izing":2793,"hern":2794,"Ġintegr":2795,"Ġage":2796,"ields":2797,"light":2798,"ĠFolder":2799,"Ġexperience":2800,"Ġparent":2801,"={":2802,"Ġkill":2803,"Ġitself":2804,"().":2805,"flow":2806,"rees":2807,"ĠTe":2808,"Ġtemperature":2809,"gebra":2810,"ĠDo":2811,"Ġstates":2812,"bar":2813,"Ġcreated":2814,"html":2815,"Ġ...":2816,"Ġanything":2817,"Ġdest":2818,"model":2819,"Ġdeg":2820,"Ġpressure":2821,"trans":2822,"Ġconsidered":2823,"itional":2824,"Ġfuture":2825,"oad":2826,"Ġloss":2827,"04":2828,"ĠShe":2829,"Ġder":2830,"Ġbenef":2831,"ĠWith":2832,"Ġconnect":2833,"58":2834,"Time":2835,"hing":2836,"EN":2837,"Ġunderstanding":2838,"ump":2839,"Ġeffects":2840,"ĠSubfolder":2841,"07":2842,"chie":2843,"Ġcolumn":2844,"Ġrespons":2845,"erc":2846,"Ġheight":2847,"ores":2848,"plit":2849,"ung":2850,"ithub":2851,"comes":2852,"Ġrandom":2853,"Ġur":2854,"var":2855,"Ġsoci":2856,"ãĥ":2857,"state":2858,"Ġsat":2859,"Ġseries":2860,"node":2861,"Ġanim":2862,"Ġobtain":2863,"ĠBl":2864,"Ġpositive":2865,"));":2866,"Ġauthor":2867,"istics":2868,"icy":2869,"Ġdisplay":2870,"Ġpret":2871,"Ġjob":2872,"ĠEarth":2873,"den":2874,"itch":2875,"Ġsupp":2876,"Ġbase":2877,"ites":2878,"Ġche":2879,"Ġmarket":2880,"Ġseems":2881,"Ġusr":2882,"All":2883,"Ġpercent":2884,"ĠPol":2885,"Value":2886,"bon":2887,"Ġgra":2888,"ips":2889,"IS":2890,"Ġelements":2891,"Ġrelated":2892,"sem":2893,"Ġneeded":2894,"Ġla":2895,"ĠString":2896,"Ġbackground":2897,"Ġwrite":2898,"02":2899,"odes":2900,"rong":2901,"Ġrevert":2902,"ION":2903,"ee":2904,"Ġmechan":2905,"oken":2906,"Ġindust":2907,"public":2908,"Ġfall":2909,"Ġmagn":2910,"ession":2911,"Ġens":2912,"unc":2913,"Ġshows":2914,"ĠÏ":2915,"Ġseem":2916,"67":2917,"Ġunsigned":2918,"Ġsimply":2919,"Ġfri":2920,"ĠEnglish":2921,"ĠRep":2922,"Ġintrodu":2923,"Ġsays":2924,"Ġalgorith":2925,"Ġmultiple":2926,"ĠThen":2927,"Ġconc":2928,"Ġknowledge":2929,"Ġsort":2930,"like":2931,"Ġill":2932,"Ġmach":2933,"struction":2934,"Ġaction":2935,"De":2936,"ister":2937,"ley":2938,"ET":2939,"âĪ":2940,"cd":2941,"Ġorg":2942,"Ġtw":2943,"Ġconstant":2944,"Ġisn":2945,"Ġespecially":2946,"xy":2947,"agement":2948,"Ġclaim":2949,"box":2950,"down":2951,"rad":2952,"fact":2953,"Ġcontext":2954,"Ġstrateg":2955,"book":2956,"hicle":2957,"Ġbusiness":2958,"map":2959,"Pl":2960,"Ġlink":2961,"off":2962,"Ġ[\"":2963,"Ġrow":2964,"Ġce":2965,"Ġpast":2966,"Ġever":2967,"Ġbad":2968,"AG":2969,"Ġphysical":2970,"93":2971,"Ġtrying":2972,"rm":2973,"mit":2974,"Ġprotect":2975,"Ġdeath":2976,"Ġpredict":2977,"anks":2978,"Ġalmost":2979,"Ġdisease":2980,"UT":2981,"Ġ24":2982,"ising":2983,"ĠCar":2984,"Ġbehavior":2985,"ns":2986,"ĠGe":2987,"Ġcame":2988,"03":2989,"quad":2990,"Ġaw":2991,"86":2992,"Ġhalf":2993,"Ġaccept":2994,"Ġstory":2995,"OT":2996,"Ġstatic":2997,"Ġdam":2998,"Ġindex":2999,"Ġaverage":3000,"uary":3001,"mber":3002,"06":3003,"ai":3004,"mon":3005,"Ġrat":3006,"Ġrelig":3007,"ĠAfric":3008,"no":3009,"ottom":3010,"Ġload":3011,"Ġprevent":3012,"']":3013,"ining":3014,"';":3015,"ming":3016,"Ġpaper":3017,"Ġprinc":3018,"Ġimprove":3019,"Ġtoday":3020,"ĠNe":3021,"ager":3022,"Ġmodels":3023,"Ġmom":3024,"Ġsuper":3025,"Ġdistance":3026,"Item":3027,"istance":3028,"Ġevidence":3029,"linuxmint":3030,"ĠGod":3031,"Ġachie":3032,"github":3033,"max":3034,"ideo":3035,"group":3036,"Ġaccur":3037,"Ġparts":3038,"Ġdefined":3039,"Ġfactors":3040,"Ġbelieve":3041,"ĠJohn":3042,"ĠNot":3043,"Ġ!=":3044,"eration":3045,"Ġgrowth":3046,"Ġtreatment":3047,"iver":3048,"anced":3049,"Ġdistribution":3050,"argin":3051,"Ġwhite":3052,"ured":3053,"Ġfactor":3054,"ĠMar":3055,"\\\"":3056,"ivil":3057,"Ġlines":3058,"Ġgetting":3059,"orks":3060,"uk":3061,"Ġquick":3062,"ches":3063,"iol":3064,"uleb":3065,"Ġclose":3066,"ecause":3067,"apt":3068,"ĠChrist":3069,"Ġmor":3070,"rer":3071,"sq":3072,"Ġpolitical":3073,"Ð»":3074,"ynam":3075,"itary":3076,"Ġindepend":3077,"db":3078,"mselves":3079,"des":3080,"pen":3081,"Ġchall":3082,"Ġchem":3083,"aries":3084,"ĠAm":3085,"Ġsoft":3086,"iding":3087,"ĠâĪĴ":3088,"56":3089,"sender":3090,"reed":3091,"Ġdepart":3092,"Ġproduction":3093,"medi":3094,"wise":3095,"Ġlimit":3096,"Ġthemselves":3097,"uaw":3098,"When":3099,"Ġvariable":3100,"Ġassociated":3101,"ike":3102,"Is":3103,"Ġengine":3104,"uaword":3105,"Ġyet":3106,"position":3107,"42":3108,"bt":3109,"Ġcity":3110,"ĠMe":3111,"Ġvalid":3112,"uth":3113,"Ġarray":3114,"Ġborder":3115,"Ġability":3116,"Ġcommunic":3117,"Ġphot":3118,"Ġrecogn":3119,"Ġcoll":3120,"Ġep":3121,"Ġstyle":3122,"overed":3123,"resh":3124,"ĠCont":3125,"09":3126,"No":3127,"Ġregion":3128,"Ġpretty":3129,"Ġmathemat":3130,"adata":3131,"ried":3132,"Ġzero":3133,"amb":3134,"bed":3135,"ĠII":3136,"Ġtaken":3137,"Ġpage":3138,"Ġcut":3139,"da":3140,"subsubfolder":3141,"Ġmeaning":3142,"Ġflu":3143,"ED":3144,"pri":3145,"cal":3146,"uel":3147,"ĠMan":3148,"ourn":3149,"Ġmodern":3150,"Ġden":3151,"Ġwritten":3152,"ĠWorld":3153,"Ġplant":3154,"Ġrev":3155,"Ġbal":3156,"Ġactivity":3157,"fa":3158,"output":3159,"width":3160,"Of":3161,"Ġbound":3162,"Ġcomes":3163,"mat":3164,"Ġbar":3165,"ĠMod":3166,"Ġmemory":3167,"Ġuses":3168,"nection":3169,"Test":3170,"ĠBritish":3171,"Ġtook":3172,"åı":3173,"Ġemploy":3174,"Ġessential":3175,"Ġyoung":3176,"Ġtax":3177,"Ġconsist":3178,"Service":3179,"Ġrot":3180,"TT":3181,"Ġmicro":3182,"oll":3183,"Ġperformance":3184,"Ġfont":3185,"plate":3186,"49":3187,"apter":3188,"dom":3189,"erson":3190,"num":3191,"Ġmusic":3192,"ensity":3193,"Ġstudies":3194,"Ġassum":3195,"sing":3196,"Ġarticle":3197,"Ġpri":3198,"Ġlive":3199,"87":3200,"iet":3201,"earch":3202,"itude":3203,"ĠAmerica":3204,"CO":3205,"image":3206,"Ġsex":3207,"Ġfac":3208,"85":3209,"Ġnothing":3210,"main":3211,"Ġdefault":3212,"Ġtakes":3213,"ternational":3214,"Ġstd":3215,"Ġmatrix":3216,"Ġsett":3217,"Ġcountries":3218,"plot":3219,"ayout":3220,"Ġground":3221,"Ġcenter":3222,"Ġmembers":3223,"Ġhel":3224,"Ġdocument":3225,"Ind":3226,"lim":3227,"utes":3228,"ĠFe":3229,"ĠRet":3230,"Ġnecessary":3231,"Ġslow":3232,"Ġpool":3233,"Ġmillion":3234,"aging":3235,"ĠAfter":3236,"Ġnetwork":3237,"using":3238,"43":3239,"oon":3240,"ops":3241,"Ġeval":3242,"ĠPar":3243,"Ġcoun":3244,"////":3245,"fully":3246,"Ġwrong":3247,"Ġmath":3248,"Ġscience":3249,"ĠAct":3250,"Ġmiss":3251,"Ġquite":3252,"actions":3253,"Ġfeatures":3254,"hib":3255,"Ġsomet":3256,"arily":3257,"92":3258,"ĠAp":3259,"amed":3260,"oute":3261,"Ġavoid":3262,"ĠCO":3263,"Ġfund":3264,"Set":3265,"aching":3266,"cons":3267,"Ðº":3268,"Ġcle":3269,"ĠMy":3270,"Ġprec":3271,"with":3272,"itted":3273,"era":3274,"leep":3275,"ober":3276,"}$":3277,"ä»":3278,"Ġmaintain":3279,"ached":3280,"CH":3281,"Ġsound":3282,"ĠAss":3283,"Error":3284,"Object":3285,"src":3286,"tes":3287,"Ġdecl":3288,"256":3289,"ih":3290,"Ġteac":3291,"Gr":3292,"Ġsection":3293,"Ġdeal":3294,"ĠNorth":3295,"Ġprovided":3296,"Ġcomputer":3297,"ÂłĊ":3298,"Ġthus":3299,"ĠComp":3300,"sm":3301,"Ġfive":3302,"icial":3303,"Ġnature":3304,"Ġcondition":3305,"File":3306,"Ġnegative":3307,"pha":3308,"Ġdeveloped":3309,"ging":3310,"do":3311,"Node":3312,"info":3313,"Ġcross":3314,"Ġbir":3315,"Ġlonger":3316,"Ġdepend":3317,"Ġissues":3318,"Ġobjects":3319,"ĠPer":3320,"ĠLet":3321,"Ġcustom":3322,"Ġeasy":3323,"AB":3324,"Ġpie":3325,"include":3326,"########":3327,"Ġpractice":3328,"Ġcommunity":3329,"ises":3330,"Ġlooking":3331,"Ġappear":3332,"Ġattempt":3333,"Ġcorres":3334,"Ġproduce":3335,"Get":3336,"content":3337,"Ġann":3338,"Ġrequest":3339,"oud":3340,"inate":3341,"Ġsrc":3342,"Ġunit":3343,"Ġvariables":3344,"Ġgrad":3345,"amework":3346,"Ġheat":3347,"Ġtechnology":3348,"Ġhouse":3349,"arr":3350,"Ġconfig":3351,"Ġincreased":3352,"Ġsometimes":3353,"(),":3354,"Ġresources":3355,"Ġhor":3356,"ĠAdd":3357,"mem":3358,"Ġhold":3359,"apan":3360,"Ġheart":3361,"Ġmulti":3362,"ĠâĢĶ":3363,"Ġestim":3364,"rt":3365,"Ġeverything":3366,"Ġregard":3367,"Key":3368,"Ġindividuals":3369,"ĠCent":3370,"atively":3371,"oring":3372,"acc":3373,"å¤":3374,"river":3375,"ĠSup":3376,"Ġexpression":3377,"76":3378,"Ġcommand":3379,"Ġconsum":3380,"ceed":3381,"background":3382,"Ġeducation":3383,"Ġago":3384,"CC":3385,"Ġsquare":3386,"part":3387,"ensive":3388,"Ġfeed":3389,"Ġmessage":3390,"Ġgreater":3391,"Ġexec":3392,"Ġlinear":3393,"acity":3394,"title":3395,"41":3396,"Ġcontinue":3397,"ĠMat":3398,"With":3399,"NAME":3400,"Ġbasic":3401,"Ġste":3402,"Ġdirection":3403,"Ġtaking":3404,"User":3405,",âĢĿ":3406,"Ġproperties":3407,"xim":3408,"ogle":3409,"ĠDes":3410,"Ġsample":3411,"51":3412,"Ġeff":3413,"((":3414,">.":3415,"init":3416,"Ġsearch":3417,"________":3418,"Ġdraw":3419,"ĠGen":3420,"Par":3421,"eful":3422,"iff":3423,"Ġroot":3424,"Ġanaly":3425,"ĠDis":3426,"à¦":3427,"know":3428,"Ġglobal":3429,"mark":3430,"ync":3431,"sych":3432,"Ġupon":3433,"Ġinstance":3434,"astic":3435,"sl":3436,"Ġproperty":3437,"Ġlarger":3438,"irect":3439,"Ġmap":3440,"Ġgain":3441,"elling":3442,"Ġservice":3443,"Ġevents":3444,"Ġmole":3445,"osis":3446,"active":3447,"Ġinside":3448,"Ġdirectly":3449,"Ġscale":3450,"Ġnuc":3451,"attle":3452,"ĠĠĠĠĊ":3453,"Ġliter":3454,"');":3455,"Ġstarted":3456,"ament":3457,"Ġfem":3458,"run":3459,"Ġwriting":3460,"label":3461,"Ġrefer":3462,"ino":3463,"Ġbegan":3464,"US":3465,"Fr":3466,"Ġsite":3467,"aly":3468,"Ġtransform":3469,"ĠPe":3470,"Ġapplication":3471,"rown":3472,"Ġface":3473,"ulations":3474,"exec":3475,"rup":3476,"\":\"":3477,"ĠSouth":3478,"Ġsurv":3479,"Ġremov":3480,"Ġlabel":3481,"Ġcomplete":3482,"iven":3483,"tem":3484,"ĠGu":3485,"inks":3486,"adding":3487,"Ġextrem":3488,"Ġfigure":3489,"State":3490,"Ġuseful":3491,"UR":3492,"Ġ40":3493,"Ġanimals":3494,"\",\"":3495,"su":3496,"ags":3497,"AM":3498,"just":3499,"ster":3500,"Ġ21":3501,"ĠStud":3502,"Ġ\"\\":3503,"ights":3504,"otal":3505,"59":3506,"img":3507,"pred":3508,"bre":3509,"Ġconstruct":3510,"ada":3511,"Ġmention":3512,"Code":3513,"ĠĠĊ":3514,"Ġgenerally":3515,"Ġexpected":3516,"rench":3517,"Ġhyp":3518,"quest":3519,"Ġplants":3520,"Ġbuilding":3521,"uly":3522,"valid":3523,"æľ":3524,"Ġsal":3525,"edia":3526,"Ġeconomic":3527,"At":3528,"align":3529,"ĠSte":3530,"icon":3531,"ategory":3532,"ls":3533,"Ġ\"\"":3534,"Ġarch":3535,"Ġnumer":3536,"estern":3537,"Ġpair":3538,"äº":3539,"Ġdecre":3540,"Ġ&&":3541,"sole":3542,"ech":3543,"Ġren":3544,"style":3545,"Ġgives":3546,"Ġcompos":3547,"ged":3548,"ĠPart":3549,"Ġorigin":3550,"Ġquality":3551,"ection":3552,"())":3553,"fort":3554,"Not":3555,"Ġrights":3556,"Map":3557,"Ġreading":3558,"Ġdeep":3559,"Ġaccording":3560,"Ġtherefore":3561,"Ġnames":3562,"Ġincreasing":3563,"Ġ26":3564,"Ġmoment":3565,"ama":3566,"round":3567,"Ġliving":3568,"ube":3569,"enn":3570,"Ġpubl":3571,"Ġeffective":3572,"ython":3573,"ults":3574,"Bl":3575,"ydro":3576,"Ġ||":3577,"Ġmeet":3578,"aset":3579,"Ġparticip":3580,"urch":3581,"oke":3582,"Ġsun":3583,"eter":3584,"rive":3585,"Ġexactly":3586,"ension":3587,"oin":3588,"api":3589,"Ġprovides":3590,"array":3591,"Ġbuilt":3592,"ney":3593,"ipp":3594,"Ġanc":3595,"ĠWhy":3596,"Ġinstall":3597,"Ġfront":3598,"based":3599,"ĠEd":3600,"Ġhom":3601,"Ġrule":3602,"cos":3603,"91":3604,"ony":3605,"enge":3606,"ret":3607,"istory":3608,"Ġsix":3609,"Ġeffort":3610,"Ġoutside":3611,"Ġteam":3612,"âĶ":3613,"ils":3614,"Ġhol":3615,"ibrary":3616,"ĠNational":3617,"Ġdemon":3618,"ĠIS":3619,"och":3620,"74":3621,"Ġdescribed":3622,"Ġnp":3623,"ĠYork":3624,"Ġmargin":3625,"Ġformula":3626,"ese":3627,"Class":3628,"Ġallows":3629,"Man":3630,"Ġsymbol":3631,"fil":3632,"Ġthird":3633,"TM":3634,"ponent":3635,"Ġhours":3636,"Ġconcent":3637,"ĠJapan":3638,"Address":3639,"Ġtraining":3640,"ĠVal":3641,"atives":3642,"ĠNow":3643,"isms":3644,"urs":3645,"Ġsociety":3646,"Ġ22":3647,"xword":3648,"base":3649,"ĠJew":3650,"Ġheav":3651,"Ġprobability":3652,"ĠFl":3653,"Ġfire":3654,"Ġ]":3655,"(&":3656,"Ġforms":3657,"Ġcompet":3658,"ĠAust":3659,"roller":3660,"ken":3661,"Ġbox":3662,"Ġadded":3663,"MA":3664,"metadata":3665,"Ġdetermine":3666,"89":3667,"($":3668,"Ġfill":3669,"alle":3670,"Ġcompany":3671,"change":3672,"que":3673,"Ġnational":3674,"Ġcompared":3675,"Ġskills":3676,"Exception":3677,"Ġones":3678,"Ġequations":3679,"Per":3680,"âĢľ":3681,"ades":3682,"Ġexamples":3683,"mary":3684,"Ġ$$":3685,"Ġ__":3686,"Ġir":3687,"84":3688,"ying":3689,"ched":3690,"plies":3691,"Ġvector":3692,"used":3693,"Ġreview":3694,"53":3695,"Ġpict":3696,"Ġconcern":3697,"73":3698,"Pr":3699,"Ġregular":3700,"ĠInt":3701,"fs":3702,"\"&":3703,"Ġhttps":3704,"Ġdetect":3705,"more":3706,"Ġalgebra":3707,"Ġshape":3708,"cles":3709,"Ġincluded":3710,"ournal":3711,"Ġball":3712,"})":3713,"bin":3714,"start":3715,"Ġcontains":3716,"Ġhar":3717,"Ġhttp":3718,"erate":3719,"itory":3720,"see":3721,"FFFF":3722,"Ġerr":3723,"Ġexperi":3724,"Ġ->":3725,"Ġwent":3726,"Ġled":3727,"){":3728,"void":3729,"Ġsequence":3730,"Ġexcept":3731,"};":3732,"Ġstudent":3733,"kk":3734,"Ġpersonal":3735,"inst":3736,"Ġhost":3737,"PI":3738,"Ġhy":3739,"Ġargument":3740,"Ġprice":3741,"Ġearth":3742,"Ġmovement":3743,"idge":3744,"anch":3745,"ĠRev":3746,"Ġnode":3747,"Ġlack":3748,"abase":3749,"men":3750,"Ġreduce":3751,"hh":3752,"haps":3753,"rs":3754,"Ġhistor":3755,"Ġnote":3756,"annel":3757,"Ġlove":3758,"Ġactivities":3759,"cret":3760,"Ġrunning":3761,"[_":3762,"rial":3763,"Ġë":3764,"Rep":3765,"ride":3766,"Ġpatients":3767,"mission":3768,"Ġcamp":3769,"Def":3770,"One":3771,"Ġpopular":3772,"ptoms":3773,"Ġmonths":3774,"attribute":3775,"Ġweek":3776,"Ġexam":3777,"Ġdouble":3778,"Ġactual":3779,"Ġinterpre":3780,"format":3781,"izes":3782,"Ġproducts":3783,"Ġconvert":3784,"aches":3785,"Ġculture":3786,"CE":3787,"Ñĥ":3788,"encies":3789,"52":3790,"Ġinvolved":3791,"Ġforces":3792,"Ġaltern":3793,"isions":3794,"inct":3795,"Ġrules":3796,"ĠRuss":3797,"ains":3798,"Ġtravel":3799,"Des":3800,"Ġselect":3801,"Ġsignal":3802,"come":3803,"known":3804,"ING":3805,"iers":3806,"Ġtree":3807,"ifier":3808,"True":3809,"Ġq":3810,"Ent":3811,"bug":3812,"Ġthinking":3813,"Ġmut":3814,"åĪ":3815,"Int":3816,"Ġcaused":3817,"Ġeasily":3818,"Ġmatch":3819,"zz":3820,"static":3821,"ìĿ":3822,"Ġsolve":3823,"Ġgoes":3824,"asc":3825,"unch":3826,"ĠKing":3827,"Ġmilitary":3828,"iler":3829,"Ġdemonstr":3830,"Ġcapt":3831,"Ġunique":3832,"Ġfeature":3833,"ĠWhile":3834,"portun":3835,"ulate":3836,"Ġviol":3837,"umb":3838,"Ed":3839,"ru":3840,"reate":3841,"param":3842,"ĠJan":3843,"Ġfamil":3844,"jk":3845,"Ġonline":3846,"Ġideas":3847,"Ġcompletely":3848,"================":3849,"Ġfav":3850,"afe":3851,"irm":3852,"ailed":3853,"Ġstatus":3854,"itation":3855,"Ġcorrespond":3856,"Ġproduced":3857,"Ġsmaller":3858,"uge":3859,"config":3860,"asons":3861,"Ġalthough":3862,"Ġalgorithm":3863,"png":3864,"Ġvia":3865,"vehicle":3866,"Ġgets":3867,"Ġrecomm":3868,"Ġcat":3869,"hel":3870,"''":3871,"olar":3872,"ĠHere":3873,"Ġpack":3874,"Ġbecomes":3875,"Ġtransl":3876,"iting":3877,"Ġaud":3878,"Ġsituation":3879,"Ġfrequency":3880,"ĉĉĉĉĉ":3881,"Ġhumans":3882,"Ġautom":3883,"Ġ23":3884,"Ġmaterials":3885,"Ġdivid":3886,"72":3887,"Ġadditional":3888,"Ġcarbon":3889,"Ġeveryone":3890,"Ġprimary":3891,"Ġtowards":3892,"Ġstress":3893,"Ġinteresting":3894,"());":3895,"Ġlib":3896,"Ġinfe":3897,"ĠAb":3898,"Be":3899,"Ġ;":3900,"\"><":3901,"Ġstren":3902,"script":3903,"Ġflex":3904,"dat":3905,"Ġ60":3906,"Ġidentify":3907,"ĠFirst":3908,"Ġearli":3909,"lands":3910,"Ġdrug":3911,"riev":3912,"ĠCo":3913,"Ġparticularly":3914,"****************":3915,"Ġconduct":3916,"board":3917,"ND":3918,"ares":3919,"Ġcompar":3920,"ulated":3921,"ĠFrench":3922,"ä½":3923,"Ġreference":3924,"hash":3925,"web":3926,"std":3927,"len":3928,"NNNNNNNNNNNNNNNN":3929,"curity":3930,"true":3931,"ĠSince":3932,"IP":3933,"Ġcoord":3934,"Ġprior":3935,"Ġcopy":3936,"Ġsil":3937,"ocks":3938,"Ġsoftware":3939,"inding":3940,"ĠÂł":3941,"IR":3942,"Ġassess":3943,"which":3944,"?\"":3945,"igation":3946,"iency":3947,"Ġrelative":3948,"ha":3949,"Ġdynam":3950,"]]":3951,"ĠFigure":3952,"OS":3953,"cast":3954,"Ġtitle":3955,"ĠĠĠĠĠĠĠĠĠĠĠĠĠĠĠĠĠ":3956,"Ġtests":3957,"ĠTrans":3958,"ĠReg":3959,"vere":3960,"Ġbehind":3961,"Log":3962,"Ġsubst":3963,"Ġfast":3964,"ĠData":3965,"{\"":3966,"iques":3967,"ĠMed":3968,"79":3969,"Now":3970,"ĠGo":3971,"dev":3972,"ĠGerman":3973,"Ã¡":3974,"Ġwall":3975,"lished":3976,"Ġemot":3977,"oice":3978,"Ġdefinition":3979,"Ġratio":3980,"ĠAug":3981,"Ġlate":3982,"Ġspect":3983,"Ġevolution":3984,"Ġfiles":3985,"Ġmachine":3986,"abor":3987,"iverse":3988,"IL":3989,"Ġsem":3990,"Ð²":3991,"Ġrequires":3992,"plt":3993,"jj":3994,"Ġchemical":3995,"aid":3996,"Ġvideo":3997,"Ġfight":3998,"rack":3999,"ĠList":4000,"Table":4001,"Date":4002,"ĠMore":4003,"Ġincludes":4004,"Bu":4005,"wx":4006,"ĠWill":4007,"perty":4008,"Ġactive":4009,"Ġthrow":4010,"orage":4011,"ocr":4012,"0000000000000000":4013,"Ad":4014,"button":4015,"Ġtend":4016,"Ġimages":4017,"rate":4018,"Ġdimens":4019,"Ġcentral":4020,"ĠAcc":4021,"62":4022,"erve":4023,"Ġspread":4024,"ternet":4025,"table":4026,"]:":4027,"can":4028,"izer":4029,"Ġangle":4030,"IG":4031,"Ġsaying":4032,"Ġobserved":4033,"Ġparameters":4034,"TS":4035,"Ġopportun":4036,"anger":4037,"\">$\\":4038,"HE":4039,"Ġfit":4040,"Ġshare":4041,"Ġroom":4042,"ously":4043,"Ġsus":4044,"ellig":4045,"Ġimag":4046,"sk":4047,"ccup":4048,"Ġdate":4049,"begin":4050,"ributed":4051,"ruct":4052,"Line":4053,"Ġsimpl":4054,"pty":4055,"83":4056,"Ġrepe":4057,"oo":4058,"Ġapproxim":4059,"dir":4060,"Ġappropri":4061,"Ġsn":4062,"Ġbill":4063,"Ġsources":4064,"69":4065,"=\\":4066,"Â°":4067,"Ġwindow":4068,"ĠState":4069,"Ġdesigned":4070,"Ġwanted":4071,"abit":4072,"Ġcauses":4073,"Ġcard":4074,"aaah":4075,"yds":4076,"åĲ":4077,"ĠFrom":4078,"Ġful":4079,"Ġcover":4080,"Ġcivil":4081,"Ġallowed":4082,"Ġelectr":4083,"Ġinfluence":4084,"ĠHis":4085,"ued":4086,"aaak":4087,"Ġcomponents":4088,"Ġsleep":4089,"enced":4090,"Ġbring":4091,"Ġvolume":4092,"ferrer":4093,"Ġsymptoms":4094,":\\":4095,"Ġign":4096,"Ġnut":4097,"63":4098,"acters":4099,"omial":4100,"ios":4101,"Ġthroughout":4102,"Ġaspect":4103,"Ġelectric":4104,"ana":4105,"ba":4106,"oreferrer":4107,"Ġabsol":4108,"idx":4109,"rote":4110,"Ġtask":4111,"orem":4112,"tered":4113,"current":4114,"[]":4115,"IM":4116,"ferences":4117,"Ġapplied":4118,"flict":4119,"Ġnight":4120,"Ġservices":4121,"Ġlimited":4122,"Ġwhose":4123,"ening":4124,"Ġchalleng":4125,"Color":4126,"ĠApp":4127,"Ġ});":4128,"Ġquickly":4129,"Ġdf":4130,"Ġ);":4131,"ĠMin":4132,"Ġlost":4133,"Path":4134,"onal":4135,"Ġ+=":4136,"eah":4137,"TO":4138,"Ġvers":4139,"aker":4140,"ighb":4141,"Ġaff":4142,"build":4143,"Ġprop":4144,"Sp":4145,"ĠThus":4146,"Ġimmedi":4147,"ĠOct":4148,"åĽ":4149,"random":4150,"ography":4151,"urb":4152,"ÂłÂłÂłÂłÂłÂłÂłÂł":4153,"Ġmis":4154,"pid":4155,"ĠGree":4156,"ĠCons":4157,"Ġclimate":4158,"Ġprocesses":4159,"ĠTest":4160,"Ġsolutions":4161,"efore":4162,"asks":4163,"ĠBecause":4164,"ĠMost":4165,"Ġapplications":4166,"gn":4167,"---":4168,"Ġcontact":4169,"hand":4170,"Ġunits":4171,"Ġdifferences":4172,"core":4173,"wire":4174,"Ġmedia":4175,"Form":4176,"From":4177,"ilos":4178,"Ġmedic":4179,"LO":4180,"åº":4181,"Ġpoor":4182,"Ġbalance":4183,"Ġdegree":4184,"ros":4185,"ĠOther":4186,"mm":4187,"Ġeth":4188,"Ġwin":4189,"Ġmiddle":4190,"Ph":4191,"ederal":4192,"othes":4193,"bf":4194,"ĠPress":4195,"omb":4196,"Ġfollows":4197,"cks":4198,"ĠclassName":4199,"Ġvert":4200,"arrow":4201,"Ġcomment":4202,"Ġandroid":4203,"atform":4204,"Ġlocation":4205,"Ġsoil":4206,"Ġfixed":4207,"Ġsubt":4208,"elt":4209,"Ġoptions":4210,"iam":4211,"aff":4212,"aven":4213,"Ġmaximum":4214,"oe":4215,"Ġsaw":4216,"!!":4217,"Ġchoice":4218,"ishing":4219,"ameter":4220,"Math":4221,"roy":4222,"ersion":4223,"onom":4224,"82":4225,"Ġstuff":4226,"ĠĠĠĠĠĠĠĠĠĠĠĠĠĠĠĠĠĠĠĠĠĠĠĠ":4227,"Ġcolon":4228,"Ġsold":4229,"lin":4230,"Ġwave":4231,"Ġitem":4232,"gment":4233,"Point":4234,"Ġrecent":4235,"clusion":4236,"\"),":4237,"Ġequival":4238,"sup":4239,"Ġanyone":4240,"Ġestablished":4241,"undred":4242,"local":4243,"Ġoptim":4244,"ĠGet":4245,"ĠSch":4246,"minist":4247,"Ġmanagement":4248,"Ġlaws":4249,"eta":4250,"Ġgreen":4251,"Ġmoving":4252,"ĠAlso":4253,"Ġhappens":4254,"Ġpurpose":4255,"ellow":4256,"Ġstar":4257,"II":4258,"Ġfat":4259,"ometry":4260,"inated":4261,"rieved":4262,"oding":4263,"Ġminutes":4264,"ĠArch":4265,"çĶ":4266,"Ġfields":4267,"Ġpick":4268,"Ġperfect":4269,"Ġpp":4270,"å®":4271,"Ġadvant":4272,"Ġhydro":4273,"idden":4274,"Ġdark":4275,"link":4276,"Ġdemand":4277,"igen":4278,"Ġattention":4279,"ĠEm":4280,"json":4281,"Ġapply":4282,"ĠJust":4283,"check":4284,"number":4285,"PS":4286,"Ġchanged":4287,"works":4288,"Ġprogress":4289,"Ġobvious":4290,"Model":4291,"Order":4292,"Ġfair":4293,"Ġdevice":4294,"Ġleading":4295,"Ġstri":4296,"char":4297,"81":4298,"Comp":4299,"ibly":4300,"Ġjava":4301,"ĠpoolInfo":4302,"Ġround":4303,"pite":4304,"jlp":4305,"mar":4306,"mosp":4307,"ocal":4308,"akhh":4309,"aajj":4310,"jkfa":4311,"xccup":4312,"jlpwx":4313,"Ġevalu":4314,"Ġcool":4315,"ccm":4316,"level":4317,"abled":4318,"Us":4319,"Ġsolid":4320,"Ġoption":4321,">>":4322,"Index":4323,"Ġclean":4324,"Ġlay":4325,"ĠAI":4326,"Le":4327,"Ġbasis":4328,"Ġcred":4329,"${":4330,"ufact":4331,"ingu":4332,"Ġexc":4333,"Ġsteps":4334,"Ġidx":4335,"Ġdecision":4336,"ĠOf":4337,"ĠIndia":4338,"Ġthreat":4339,"hest":4340,"Ġpsych":4341,"Ġdamage":4342,"package":4343,"åħ":4344,"Ġplayer":4345,"gy":4346,"Array":4347,"PE":4348,"ca":4349,"ĠChina":4350,"Ġensure":4351,"Ġpolicy":4352,"Ġindependent":4353,"eloc":4354,"gth":4355,"Ġhighly":4356,"nd":4357,"ctors":4358,"ĠApr":4359,"ĠNet":4360,"New":4361,"Ġstage":4362,"Ġgames":4363,"Ġbeginning":4364,")]":4365,"Ġitems":4366,"Ġcreating":4367,"Ġtools":4368,"ĠPre":4369,"Ġreported":4370,"Ġheld":4371,"Ġtrade":4372,"Ġexerc":4373,"Ġskin":4374,"ĠClass":4375,"71":4376,"({":4377,"Ġ28":4378,"ĠMath":4379,"Ġprot":4380,"Ġthous":4381,"unk":4382,"Ġcritical":4383,"Em":4384,"Ġcompan":4385,"ULL":4386,"Ġ[]":4387,"ĠChar":4388,"clus":4389,"Over":4390,"Ġformed":4391,"Ġbroad":4392,"Ġgrav":4393,"Status":4394,"Ð¼":4395,"Ġhelps":4396,"Ġcomponent":4397,"spring":4398,"Ġlooks":4399,"append":4400,"Ġharm":4401,"Ġcapital":4402,"ĠCor":4403,"ci":4404,"adem":4405,"Ġ2010":4406,"Ġtypically":4407,"Ġproced":4408,"Ġord":4409,"object":4410,"olic":4411,"Dis":4412,"uah":4413,"Ġacid":4414,"Ġchoose":4415,"Ġaccom":4416,"Ġvisual":4417,"Ġdriv":4418,"otic":4419,"Ġpadding":4420,"Ġcharacters":4421,"Ġcancer":4422,"ux":4423,"python":4424,"reated":4425,"Ġ2012":4426,"Ġmaybe":4427,"Ġasked":4428,"ustain":4429,"rypt":4430,"ln":4431,"Ġassert":4432,"Ġwalk":4433,"Ġeyes":4434,"grad":4435,"BC":4436,"Ġremember":4437,"bi":4438,"sec":4439,"ĠDNA":4440,"ĠEuropean":4441,"heet":4442,"61":4443,"Ġdiag":4444,"unt":4445,"Ġtried":4446,"ements":4447,"Ġsoon":4448,"Ġserious":4449,"RA":4450,"Ġrock":4451,"aur":4452,"Ġtim":4453,"Ġfollowed":4454,"room":4455,"otes":4456,"Ġnorm":4457,"Ġedges":4458,"ĠHar":4459,"gle":4460,"ÑĮ":4461,"CP":4462,"sqrt":4463,"ban":4464,"host":4465,";,":4466,"TE":4467,"Ġweb":4468,"Ġscreen":4469,"Ġelectron":4470,"Ġbuy":4471,"ĠMon":4472,"ĠSim":4473,"Ġusers":4474,"Ġtrack":4475,"isf":4476,"Context":4477,"inf":4478,"$.":4479,"Sup":4480,"oles":4481,"vey":4482,"ĠPres":4483,"Ġcontr":4484,"uahalf":4485,"ĠMany":4486,"Ġfoot":4487,"Ġnone":4488,"/*":4489,"Ġcolle":4490,"olve":4491,"rew":4492,"Ġrele":4493,"height":4494,"quote":4495,"Ġwind":4496,"Let":4497,"Ġenh":4498,"Ġachieve":4499,"ĠDef":4500,"Ġflo":4501,"Out":4502,"ĠAre":4503,"Ġbacter":4504,"Ġ<<":4505,"Ġstra":4506,"Ġofficial":4507,"ĠIndian":4508,"igr":4509,"Ġtechniques":4510,"Ġindustry":4511,"ĠSer":4512,"Ġfeet":4513,"ĠMark":4514,"That":4515,"apping":4516,"Ġsea":4517,"IV":4518,"Ġvariety":4519,"anish":4520,"coming":4521,"Ġcollect":4522,"Ġdescription":4523,"Ġhot":4524,"plicit":4525,"Ġmag":4526,"conds":4527,"Ġparty":4528,"ĠAg":4529,"Ġcalculate":4530,"Event":4531,"olean":4532,"Ġphase":4533,"ÂłÂłÂł":4534,"Ġplanet":4535,"Ġstatement":4536,"Ġ2011":4537,"Ġobtained":4538,"Ġ2013":4539,"eline":4540,"Ġjud":4541,"Ġseparate":4542,"Ġult":4543,"Ġsets":4544,"Ġcit":4545,"Ġstay":4546,"weight":4547,"\\/":4548,"Ġsides":4549,"Ġtransport":4550,"craft":4551,"Ġefficient":4552,"Ġextra":4553,"vis":4554,"My":4555,"olved":4556,"Request":4557,"float":4558,"Ġplot":4559,"allel":4560,"Ġpow":4561,"Ġupdate":4562,"atever":4563,"Element":4564,"create":4565,"SC":4566,"Ġoccurs":4567,"ĠSet":4568,"Ġcore":4569,"ball":4570,"âĶĢ":4571,"Ġemerg":4572,"Ġdead":4573,"show":4574,"child":4575,"erved":4576,"Ġoperations":4577,"Ġoverall":4578,"Ġfriend":4579,"Ġmid":4580,"Ġhundred":4581,"cean":4582,"Ġpan":4583,"vention":4584,"ĠTherefore":4585,"Ġappropriate":4586,"Act":4587,"column":4588,"Ġcarry":4589,"Count":4590,"Ap":4591,"Ġplaces":4592,"lient":4593,"Ġreasons":4594,"Ġconstit":4595,"ĠBr":4596,"FC":4597,"eds":4598,"Ġworth":4599,"year":4600,"product":4601,"ica":4602,"urg":4603,"ĠSm":4604,"Ġpublished":4605,"Ġï":4606,"aling":4607,")(":4608,"che":4609,"Ġatmosp":4610,"Ġleave":4611,"outhern":4612,"è¿":4613,"Hand":4614,"Ġstore":4615,"ãĢĤ":4616,"alpha":4617,"Ġserver":4618,"Ġwrote":4619,"Ġtransfer":4620,"Ġhimself":4621,"term":4622,"Ġgoal":4623,"aled":4624,"aul":4625,"Ġreve":4626,"yond":4627,"Ġparents":4628,"-&":4629,"Ñı":4630,"fit":4631,"Ġbehavi":4632,"ologies":4633,"ĠÃĹ":4634,"ancial":4635,"Ġcorrel":4636,"pack":4637,"oes":4638,"sect":4639,"lor":4640,"Ġten":4641,"Ġlives":4642,"Ġpatterns":4643,"Ġdensity":4644,"uster":4645,"Ġanimal":4646,"Ġscientific":4647,"ĠEven":4648,"Ġexperiment":4649,"Ġoil":4650,"ponents":4651,"ĠFin":4652,"ĠBo":4653,"post":4654,"update":4655,"augh":4656,"duction":4657,"Ġ27":4658,"ocol":4659,"process":4660,"soft":4661,"ĠSw":4662,"Ġtraditional":4663,"Ġhope":4664,"Ġclosed":4665,"Ġcop":4666,"Ġcos":4667,"Ġvirt":4668,"Ġalt":4669,"php":4670,"ervation":4671,"ouch":4672,"Ġwait":4673,"Ġice":4674,"ple":4675,"ĠRetrieved":4676,"hens":4677,"ĠAlthough":4678,"Ġmedical":4679,"Ġyourself":4680,"~~":4681,"Ġnamed":4682,"Ġ:=":4683,"Ġtrig":4684,"oper":4685,"what":4686,"Ġconv":4687,"Ġfarm":4688,"Size":4689,"Message":4690,"odies":4691,"Ġclasses":4692,"Ġhandle":4693,"ĠMus":4694,"Ġsolar":4695,"levant":4696,"Ġmotion":4697,"Ġslight":4698,"Ġconflict":4699,"parent":4700,"Ġinternal":4701,"aily":4702,"Ġformat":4703,"overn":4704,"App":4705,"Ġ31":4706,"Ġer":4707,"Ġbeyond":4708,"Ġtalking":4709,"Af":4710,"url":4711,"inese":4712,"ĠEl":4713,"display":4714,"null":4715,"ĠRed":4716,"Ġrates":4717,"Ġguess":4718,"stract":4719,"Ġconnection":4720,"Ġarr":4721,"ario":4722,"ĠInter":4723,"urt":4724,"dered":4725,"msgid":4726,"End":4727,"stitution":4728,"Ġinn":4729,"Ġlif":4730,"Ġpull":4731,"Ġeye":4732,"ĠAustral":4733,"Ġwatch":4734,"Ġprotein":4735,"Config":4736,"Ġveloc":4737,"orthern":4738,"ĠRec":4739,"Ġcoming":4740,"msgstr":4741,"Ġ()":4742,"Ġdetails":4743,"Ġanswers":4744,"Ġfilm":4745,"Ġremove":4746,"doc":4747,"Ġtesting":4748,"gu":4749,"Ġforest":4750,"ilder":4751,"Ġreach":4752,"Ġhit":4753,"Ġstarting":4754,"Ġregions":4755,"alysis":4756,"Ġbooks":4757,"Ġearlier":4758,"Ġtown":4759,"Ġsuff":4760,"Ġinj":4761,"Ġfine":4762,"Ġframe":4763,"Ġaxis":4764,"Ġeat":4765,"ĠMc":4766,"ĠNone":4767,"Ġ2016":4768,"Ġ2009":4769,"Ġlat":4770,"ĠIN":4771,"uman":4772,"Ġ>=":4773,"Ġspir":4774,"Ġoppos":4775,"ĠCoun":4776,"Ġ2008":4777,"ĠUse":4778,"Ifx":4779,"Ġforward":4780,"ief":4781,"Here":4782,"section":4783,"Ġ2015":4784,"Ġreligious":4785,"Ġmount":4786,"iment":4787,"gricult":4788,"Ġphen":4789,"Ġpresence":4790,"Ġconsequ":4791,"Ġbottom":4792,"Ġgir":4793,"Ġoperation":4794,"Ġcommunication":4795,"Ġbul":4796,"Ġincreases":4797,"itable":4798,"Ġnorth":4799,"spec":4800,"export":4801,"ĠuserInfo":4802,"}^{":4803,"Ġincor":4804,"Ġdefine":4805,"Ġstructures":4806,"âĪĴ":4807,"Ġ{},":4808,"Ġsaf":4809,"Ġwid":4810,"MP":4811,"Ġmess":4812,"eed":4813,"Ġupper":4814,",\\":4815,"Ġ///":4816,"Ġstrength":4817,"Ġcircle":4818,"atile":4819,"Trans":4820,"ira":4821,"500":4822,"iar":4823,"Ġprograms":4824,"Ġ};":4825,"Ġ2014":4826,"istry":4827,"font":4828,"CL":4829,"Ġfix":4830,"Ġrelatively":4831,"Ġparameter":4832,"Ġque":4833,"è¯":4834,"Ġking":4835,"raint":4836,"values":4837,"fill":4838,"Ġstraight":4839,"ĠRoman":4840,"Sub":4841,"ĠScience":4842,"page":4843,"Ġreduced":4844,"Ġprofess":4845,"Ġtiss":4846,"Read":4847,"ifying":4848,"ened":4849,"gl":4850,"Ġreceived":4851,"Ġcharge":4852,"Ġeasier":4853,"Aut":4854,"Ġsecurity":4855,"Ġdiagn":4856,"Ġcultural":4857,"press":4858,"Ġmentioned":4859,"([":4860,"Ġpassed":4861,"ga":4862,"ptember":4863,"Ġcounter":4864,"ambda":4865,"crete":4866,"Ġpowerful":4867,"ĠYour":4868,"Ġuniverse":4869,"execution":4870,"Ġwarm":4871,"Ġmode":4872,"ĠWest":4873,"ogen":4874,"Ġsignificantly":4875,"blockquote":4876,"Ġleaders":4877,"DF":4878,"Ġdescribe":4879,"Ġwide":4880,"Ġexists":4881,"ĠCong":4882,"Ġproof":4883,"abilities":4884,"Ġgave":4885,"Ġrapid":4886,"Ã³":4887,"Ġupd":4888,"rupt":4889,"Ġagree":4890,"connect":4891,"Ġtold":4892,"Ġ00":4893,"Ġsupply":4894,"ancy":4895,"duc":4896,"Ġmother":4897,"gar":4898,"roke":4899,"Ġrob":4900,"Ġestablish":4901,"tim":4902,"oted":4903,"urrent":4904,"Ġinterval":4905,"Ġwebs":4906,"ĠWell":4907,"Ġdog":4908,"Ġscen":4909,"king":4910,"izations":4911,"Ġmer":4912,"Ġmember":4913,"pat":4914,"ĠAugust":4915,"Ġscript":4916,"cs":4917,"aught":4918,"æĺ":4919,"Ð´":4920,"bal":4921,"Ġencou":4922,"Ġwasn":4923,"Ġburn":4924,"Ġcompanies":4925,"$,":4926,"ĠMarch":4927,"Ġvirus":4928,"eks":4929,"ĠDr":4930,"itect":4931,"\"],":4932,"ners":4933,"Ġperformed":4934,"stream":4935,"BN":4936,"Ġblue":4937,"Ġreflect":4938,"TC":4939,"ÑģÑĤ":4940,"Ġutil":4941,"Pre":4942,"ensor":4943,"strict":4944,"Ġexpand":4945,"Ġworked":4946,"dk":4947,"Ġcycle":4948,"Ġ90":4949,"._":4950,"rier":4951,"Ġ80":4952,"cular":4953,"Ġhands":4954,"cap":4955,"Ġpicture":4956,"Ġvs":4957,"Ġreaction":4958,"abs":4959,"target":4960,"Ġri":4961,"ĠCalcul":4962,"project":4963,"hr":4964,"Ġrepl":4965,"UE":4966,"yg":4967,"Ġresulting":4968,"Ġnav":4969,"Ġsetting":4970,"Ġprep":4971,"ico":4972,"rapy":4973,"gs":4974,"Button":4975,"Ġsafe":4976,"Ġcatch":4977,"ĠBar":4978,"Ġseason":4979,"Ġintellig":4980,"Ġancient":4981,"ĠEngland":4982,"ĠJune":4983,"ashing":4984,"ĠDep":4985,".;":4986,"PA":4987,"Ġaim":4988,"rim":4989,"ocation":4990,"orph":4991,")}":4992,"Ġmajority":4993,"Ġdetermined":4994,"ĠGreat":4995,"Ġeffic":4996,"Ġinvestig":4997,"Ġthread":4998,"Figure":4999,"status":5000,"Ġpen":5001,"Ġexisting":5002,"nb":5003,"Ġcontroll":5004,"Ġenvironmental":5005,"æķ":5006,"æĸ":5007,"onic":5008,"Ġexplan":5009,"Ġremains":5010,"pped":5011,"MS":5012,"Ġgenetic":5013,"Ġarm":5014,"Ġaren":5015,"ERT":5016,"Ġlabor":5017,"rab":5018,"206":5019,"Ġloop":5020,"ĉĉĉĉĉĉ":5021,"cember":5022,"osing":5023,"Ġmsg":5024,"omin":5025,"Ġunc":5026,"plain":5027,"Ġequivalent":5028,"Ġimportance":5029,"ĠDem":5030,"result":5031,"Ġbank":5032,"Ġoffer":5033,"adow":5034,"Ġproposed":5035,"Ġappears":5036,"Ġneighb":5037,"gers":5038,"iform":5039,"Ġspeak":5040,"Ġresistance":5041,"Ġsatisf":5042,"Ġfailed":5043,"mitted":5044,"arian":5045,"ĠDav":5046,"aste":5047,"xf":5048,"heets":5049,"Ñĭ":5050,"ĠGermany":5051,"Ġcorresponding":5052,"Token":5053,"Image":5054,"Ġmanufact":5055,"ping":5056,"Ġdivision":5057,"Ġeventually":5058,"Ġband":5059,"Ġbrought":5060,"Ġactions":5061,"Ġsave":5062,"Ġcurve":5063,"Ġ36":5064,"Ġresearc":5065,"Ġvict":5066,"how":5067,"war":5068,"Ġconnected":5069,"Ġpiece":5070,"Ġinstr":5071,"ĠAc":5072,"Ġ/*":5073,"Ġlegal":5074,"Ġeconomy":5075,"Ġcand":5076,"ny":5077,"nof":5078,"ĠAfrica":5079,"Ġfloat":5080,"force":5081,"Ġchance":5082,"ned":5083,"xygen":5084,"Ġgenerate":5085,"next":5086,"ĠEach":5087,"zh":5088,"Ġphilos":5089,"Ġanti":5090,"Ġrespectively":5091,"cel":5092,"Ġproport":5093,"issions":5094,"icks":5095,"adr":5096,"Ġshowed":5097,"ĠRE":5098,"Ġdie":5099,"joy":5100,"cat":5101,"Ġauto":5102,"ĠInst":5103,"ĠTable":5104,"Inter":5105,"Ġroad":5106,"Ġemp":5107,"Ġcommit":5108,"Ġinform":5109,"íķ":5110,"Ġlibrary":5111,"Ġargs":5112,"Ġfraction":5113,"Ġbur":5114,"tage":5115,"Ġdrop":5116,"Ser":5117,"Ġbirth":5118,"Ġhuge":5119,"Ġcruc":5120,"Ġdistinct":5121,"amily":5122,"ATE":5123,"Ġlargest":5124,"Ġrelease":5125,"Ġboard":5126,"Ġgiving":5127,"rics":5128,"Ġ2007":5129,"amental":5130,"ham":5131,"Ġperhaps":5132,"open":5133,"server":5134,"Ġbenefits":5135,"ialog":5136,"nofollow":5137,"reedom":5138,"ĠAut":5139,"Input":5140,"Ġgene":5141,"Ġenter":5142,"ially":5143,"Result":5144,"space":5145,"Ġsong":5146,"anges":5147,"ĠChinese":5148,"yles":5149,"Ġfig":5150,"Ġ2017":5151,"swer":5152,"Ġcam":5153,"Ġparticles":5154,"ĠĠĠĠĠĠĠĠĠĠ":5155,"Ġlanguages":5156,"Att":5157,"Ġvelocity":5158,"Ġhappened":5159,"ĠJuly":5160,"Number":5161,"ship":5162,"Ġweak":5163,"Ġcm":5164,"oz":5165,"Ġfully":5166,"ovember":5167,"pol":5168,"CA":5169,"anged":5170,"Acc":5171,"Ġtor":5172,"Safe":5173,"Ġequip":5174,"Ġacqu":5175,"Start":5176,"pass":5177,"Ġsustain":5178,"istor":5179,"ifically":5180,"Reg":5181,"Ġcurrently":5182,"ptions":5183,"Group":5184,"Ġselected":5185,"vider":5186,"arp":5187,"Ġsouth":5188,"rient":5189,"........":5190,"Ġfuel":5191,"Ġdiet":5192,"Ġcontinued":5193,"ĠRepublic":5194,"Ġimplementation":5195,"Ġlocated":5196,"Ġcosts":5197,"Ġ~":5198,"\"]},":5199,"np":5200,"Ġrare":5201,"Ġpatient":5202,"Ġformer":5203,"ĠFrance":5204,"ernel":5205,"Ġshall":5206,"EE":5207,"Ġhon":5208,"Some":5209,"amin":5210,"%;":5211,"outputs":5212,"iples":5213,"Ġalone":5214,"ĠApril":5215,"Ġdeb":5216,"hood":5217,"ĠNULL":5218,"Ġrise":5219,"Ġcollection":5220,"Ġcombination":5221,"cor":5222,"Ġinterpret":5223,"Ġcitiz":5224,"Ġneut":5225,"Ġadapt":5226,"pace":5227,"rum":5228,"atically":5229,"Ġgold":5230,"isp":5231,"TR":5232,"Ġfinancial":5233,"After":5234,"Ġinstit":5235,"ĠAmericans":5236,"Ġgrowing":5237,"oration":5238,"Ġwhatever":5239,"Ġmeasures":5240,"Ġ((":5241,"Ġdepends":5242,"Ġassume":5243,"ran":5244,"Ġreplace":5245,"Client":5246,"ĠEqu":5247,"Ġshap":5248,"Ġtriangle":5249,"Ġgun":5250,"=(":5251,"Ġfemale":5252,"Ġmale":5253,"Fl":5254,"Ġmathematical":5255,"rage":5256,"Ġclearly":5257,"det":5258,"win":5259,"Ġsurround":5260,"Ġmostly":5261,"ĠBlack":5262,")</":5263,"Ġrespond":5264,"âĸ":5265,"Ġsend":5266,"Ġwild":5267,"Ġgenerated":5268,"Ġsamples":5269,"ĠLog":5270,"ĠLaw":5271,"Why":5272,"Ġclient":5273,"ynomial":5274,"ĠâĨ":5275,"Ġship":5276,"Ġabsor":5277,"last":5278,"Ġ[],":5279,"ĠAfrican":5280,"names":5281,"ria":5282,"Ġstre":5283,"Ġpresented":5284,"Ġwouldn":5285,"Ġopin":5286,"Ġdevices":5287,"Ġadding":5288,"lang":5289,"Ġplaced":5290,"Ġ64":5291,"ributes":5292,"UL":5293,"Ġoccup":5294,"Ġadminist":5295,"iring":5296,"ampl":5297,"Ġprefer":5298,"ĠSeptember":5299,"Ġwood":5300,"rome":5301,"fered":5302,"-\\":5303,"Ġcharacteristics":5304,"acing":5305,"Ġcoup":5306,"Ġillust":5307,"Ġmeasured":5308,"Ġplane":5309,"ĠJanuary":5310,"Ġswitch":5311,"ĠPM":5312,"antic":5313,"Ġstim":5314,"Ġwoman":5315,"ĠHistory":5316,"Ġfriends":5317,"Ġconcepts":5318,"??":5319,"Ġscore":5320,"Ġalign":5321,"la":5322,"ĠInte":5323,"OL":5324,"Ġ2000":5325,"raz":5326,"ĠUp":5327,"Ġreality":5328,"ias":5329,"Ġproviding":5330,"that":5331,"Ġresid":5332,"ractions":5333,"Ġuint":5334,"Ġschem":5335,"ĠPeople":5336,"Ġ2018":5337,"Ġgod":5338,"Ġfish":5339,"Ġplayers":5340,"water":5341,"resents":5342,"Ġscientists":5343,"Ġexpos":5344,"Ġtrees":5345,"Ġmental":5346,"Ġgenes":5347,"iny":5348,"Ġcontrast":5349,"atin":5350,"ĠAny":5351,"ĠChristian":5352,"Ġconstruction":5353,"Ġdou":5354,"Ġtruth":5355,"args":5356,"ĠGeneral":5357,"768":5358,"Ġminimum":5359,"pective":5360,"Ġterrit":5361,"Ġvary":5362,"Ġcateg":5363,"Ġdro":5364,"roph":5365,"ĠOctober":5366,"Ġcommonly":5367,"Ġfilter":5368,"ĠDE":5369,"Ġrout":5370,"ĠFig":5371,"ĠSee":5372,"Ġawait":5373,"Ġvolatile":5374,"iber":5375,"Ġsuccessful":5376,"'.":5377,"query":5378,"Ġdatabase":5379,"Ġ29":5380,"ondon":5381,"Ġcalculated":5382,"Ġliqu":5383,"Ġreturns":5384,"asion":5385,"ĠSol":5386,"nav":5387,"ĠUnion":5388,"Frame":5389,"Ġhabit":5390,"center":5391,"Ġcharg":5392,"Ġcoe":5393,"âĶĢâĶĢ":5394,"default":5395,"Ð¿":5396,"stitute":5397,"Ġintroduced":5398,"false":5399,"Ġresponsible":5400,"Ġoxygen":5401,"101":5402,"Ġaccel":5403,"Ġdestroy":5404,"Ġangles":5405,"umer":5406,"Ab":5407,"Ġfaster":5408,"ĠCour":5409,"sis":5410,"orial":5411,"ado":5412,"ĠRiver":5413,"These":5414,"Ġfinally":5415,"Ġgrade":5416,"select":5417,"artment":5418,"uations":5419,"share":5420,"Ġkids":5421,"Ġconver":5422,"Rec":5423,"ding":5424,"Ġdiscussion":5425,"Ġlogic":5426,"route":5427,"Ġroll":5428,"Ġweap":5429,"Ġcapacity":5430,"Ġfavor":5431,"phas":5432,"Ġfather":5433,"ocket":5434,"Ġnearly":5435,"rief":5436,"oting":5437,"Ð½Ð¸":5438,"Ġotherwise":5439,"Ġcrucial":5440,"Pos":5441,"success":5442,"inates":5443,"ords":5444,"Ġcold":5445,"åŃ":5446,"Ġreli":5447,"pan":5448,"aN":5449,"ÃŃ":5450,"Ġstrategy":5451,"Ġpd":5452,"Ġdegrees":5453,"Ġnation":5454,"Ġsevere":5455,"osed":5456,"home":5457,"irection":5458,"Ġson":5459,"del":5460,"Ġinvolves":5461,"Ġenjoy":5462,"ypes":5463,"find":5464,"first":5465,"Ġdeveloping":5466,"Ġpackage":5467,"overy":5468,"Ġrain":5469,"Block":5470,"aren":5471,"ĠEast":5472,"Ġmoved":5473,"Can":5474,"score":5475,"Ġsites":5476,"Ġfinding":5477,"ĠResearch":5478,"tical":5479,"ĠLevel":5480,"kg":5481,"Ġinternational":5482,"Ġprocessing":5483,"isl":5484,"po":5485,"ector":5486,"Ġhypothes":5487,"Ġchanging":5488,"Ġschools":5489,"ĠRem":5490,"iforn":5491,"First":5492,"Field":5493,"ĠVol":5494,"ĠDecember":5495,"pg":5496,"Ġsurpr":5497,"ague":5498,"ĠAD":5499,"Ġrepresents":5500,"ĠĠĠĠĠĠĠĠĠĠĠĠ":5501,"Ġadjust":5502,"indows":5503,"Ġpush":5504,"Manager":5505,"Ġmathematics":5506,"rict":5507,"pool":5508,"Ġwonder":5509,"mathbb":5510,"Ġradio":5511,"Ġparallel":5512,"Ġ('":5513,"Ġmissing":5514,"Ġmultip":5515,"FA":5516,"rary":5517,"Ġturned":5518,"\").":5519,"Ġwaste":5520,"Ġcontract":5521,"ĠRel":5522,"Ġteachers":5523,"Ġ(!":5524,"Ġfear":5525,"Ġtherm":5526,"framework":5527,"Ġweeks":5528,"Ġegg":5529,"shape":5530,"ĠSun":5531,"cules":5532,"FO":5533,"Ġstrategies":5534,"Equ":5535,"izont":5536,"ĠISBN":5537,"Ġ^":5538,"Ġidentified":5539,"fix":5540,"rec":5541,"Ġremoved":5542,"Ġletter":5543,"ĠMex":5544,"Ġminor":5545,"aign":5546,"Ste":5547,"Ġyes":5548,"ĠYes":5549,"Ġpractices":5550,"ooth":5551,"Ġplease":5552,"tex":5553,"Ġhear":5554,"Ġmeant":5555,"Ġaccuracy":5556,"ĠDuring":5557,"Ġcoast":5558,"bruary":5559,"Ġimmediately":5560,"edge":5561,"event":5562,"uted":5563,"Ġinfection":5564,"xx":5565,"hold":5566,"ste":5567,"Ġsounds":5568,"ris":5569,"Ġedge":5570,"Ġreact":5571,"hy":5572,"ql":5573,"Ġdivided":5574,"Ġrelevant":5575,"obile":5576,"uls":5577,"bly":5578,"rd":5579,"ĠUsing":5580,"icrosoft":5581,"QL":5582,"ĠCongress":5583,"CM":5584,"ename":5585,"ĠCanada":5586,"Ġerrors":5587,"Ġdigital":5588,"Ġopposite":5589,"Ġkilled":5590,"Ġut":5591,"Ġhighest":5592,"Ġrul":5593,"ĠOut":5594,"Ġassign":5595,"Ġexternal":5596,"However":5597,"Ġtopic":5598,"ç»":5599,"Ġdanger":5600,"Ġplayed":5601,"ao":5602,"ĠUnder":5603,"Ġnuclear":5604,"Ġteaching":5605,"ky":5606,"Ġmovie":5607,"Ġtransition":5608,"Ġcommer":5609,"orders":5610,"uries":5611,"Ġdepending":5612,"ĠNovember":5613,"Ġ2006":5614,"Content":5615,"ĠHigh":5616,"Fil":5617,"Ġdataset":5618,"Ġadvantage":5619,"TH":5620,"iant":5621,"Ġidentity":5622,"Ġempty":5623,"ifornia":5624,"Ġfa":5625,"etime":5626,"è®":5627,"ĠHol":5628,"ĠĠĠĠĠĠĠĠĠĠĠĠĠĠĠĠĠĠĠĠĠ":5629,"Ġ<=":5630,"Ġtoward":5631,"onym":5632,"Ġarguments":5633,"Ġ(\"":5634,"iling":5635,"////////":5636,"ĠOver":5637,"pes":5638,"Ġdomain":5639,"Ġ\\\\":5640,"à¸":5641,"Ref":5642,"\"},":5643,"Ġstream":5644,"ĠTheir":5645,"ferent":5646,"ĠPhys":5647,"'),":5648,"NS":5649,"Ġprove":5650,"Ġ===":5651,"ĠForm":5652,"Ġsufficient":5653,"Ġâī":5654,")$":5655,"OD":5656,"abet":5657,"ara":5658,"Ġforeign":5659,"ĠHer":5660,"Ġdoc":5661,"Ġheard":5662,"Ġgeneration":5663,"ĠLear":5664,"Ġreleased":5665,"Ġatom":5666,"css":5667,"Ġgrid":5668,"æĪ":5669,"Ġagricult":5670,"za":5671,"inite":5672,"message":5673,"ĠBu":5674,"Ġdepth":5675,"rael":5676,"Ġ33":5677,"Ġdiss":5678,"Ġhyper":5679,"ĠSchool":5680,"Ġvoltage":5681,"aae":5682,"Head":5683,"RL":5684,"ij":5685,"Ġradiation":5686,"Page":5687,"etch":5688,"Ġplatform":5689,"enty":5690,"Ġslightly":5691,"Ġsplit":5692,"ometric":5693,"lam":5694,"mine":5695,"estamp":5696,"icles":5697,"irt":5698,"Ġcir":5699,"question":5700,"Ġfundamental":5701,"itors":5702,"ophy":5703,"aac":5704,"Ġdecided":5705,"Ġ=&":5706,"CD":5707,"gypt":5708,"ĠPat":5709,"Ġinteger":5710,"Fact":5711,"ĠMathemat":5712,"nam":5713,"Ġrestrict":5714,"csv":5715,"sembl":5716,"Ġ\\\"":5717,"ĠInternational":5718,"Ġmist":5719,"Ġolder":5720,"Ġquantum":5721,"alt":5722,"Ġsec":5723,"./":5724,"Ġä¸":5725,"ĠRead":5726,"Ġaffected":5727,"cf":5728,"Ġdrive":5729,"anguage":5730,"ĠJournal":5731,"vest":5732,"mu":5733,"pected":5734,"faces":5735,"search":5736,"ka":5737,"Ġsin":5738,"Ġ''":5739,"root":5740,"exp":5741,"Ġeight":5742,"udd":5743,"Response":5744,"Ġhealthy":5745,"ĠPython":5746,"itionally":5747,"Ġleads":5748,"Ġexistence":5749,">(":5750,"}{\\":5751,"matrix":5752,"airs":5753,"Ġmetal":5754,"CS":5755,"ĠLondon":5756,"Ġcry":5757,"ĠJapanese":5758,"Ġauth":5759,"Ġtro":5760,"ansion":5761,"Ġmagnetic":5762,"++)":5763,"Ġworkers":5764,"CR":5765,"Ġnucle":5766,"Ġiron":5767,"SafeMath":5768,"Ġnotice":5769,"Ġteacher":5770,"inder":5771,"igration":5772,"lab":5773,"Ġformation":5774,"Ġcouple":5775,"sin":5776,"allenge":5777,"Ass":5778,"Ġextremely":5779,"Ġresource":5780,"case":5781,"Ġjo":5782,"}(":5783,"Ñĩ":5784,"Ġabsolute":5785,"Ġ1000":5786,"Ġcircum":5787,"ĠEvery":5788,"Ġalternative":5789,"ĠEmp":5790,"HP":5791,"Ġdry":5792,"ä¹":5793,"Ġcontaining":5794,"Ġrepro":5795,"Ġefficiency":5796,"rows":5797,"cil":5798,"greg":5799,"Ġarchitect":5800,"Ġcommunities":5801,"ĠNote":5802,"Ġdaily":5803,"Ġcalculator":5804,"Ġdied":5805,"Ġstars":5806,"osen":5807,"KE":5808,"Ġsafety":5809,"cm":5810,"Ġsupported":5811,"Ġspeech":5812,"Ġ70":5813,"Ġextract":5814,"mean":5815,"System":5816,"step":5817,">.</":5818,"Ġbelieved":5819,"ĠGovern":5820,"Ġnoreferrer":5821,"ĠPresident":5822,"normal":5823,"svn":5824,"Ġoperator":5825,"Ġlearned":5826,"ĠTwo":5827,"åĬ":5828,"mt":5829,"Ġfailure":5830,"Ġnews":5831,"Ġrelationships":5832,"ĠUser":5833,"Ġ2005":5834,"Ġmiles":5835,"Ġvote":5836,"Ġatmosphere":5837,"Ġstorage":5838,"Bits":5839,"Run":5840,"ĠTrue":5841,"Source":5842,"Ġbab":5843,"OM":5844,"client":5845,"Ġplaying":5846,"well":5847,"Ġenem":5848,"Ġleaves":5849,"icense":5850,"Ġderiv":5851,"Ġincome":5852,"ossible":5853,"Ġstack":5854,"Ġarmy":5855,"Ġcou":5856,"Ġcircuit":5857,"drop":5858,"Me":5859,"Ġpreviously":5860,"Ġrich":5861,"Ġkil":5862,"ĠHouse":5863,"Ġselection":5864,"aining":5865,"ĠTechn":5866,"Ġfelt":5867,"Ġtasks":5868,"uzz":5869,"xi":5870,"Ġprinciple":5871,"Ġphysics":5872,"ĠGreek":5873,"Ġknew":5874,"Ġhour":5875,"Ġmi":5876,"rav":5877,"race":5878,"cycl":5879,"aved":5880,"Ġ35":5881,"ĠPal":5882,"Ġrecently":5883,"Ġbeg":5884,"cho":5885,"They":5886,"Ġcolumns":5887,"Ġapproximately":5888,"Question":5889,"Ġseconds":5890,"Ġlooked":5891,"Ġhun":5892,"ugin":5893,"Ġelim":5894,"åľ":5895,"Ġaccurate":5896,"Ġbattle":5897,"False":5898,"write":5899,"tings":5900,"unic":5901,"car":5902,"Ġqual":5903,"Ġpoll":5904,"æĹ":5905,"Controller":5906,"ĠCalifornia":5907,"Ġdoi":5908,"kkml":5909,"Ġcandid":5910,"Ġisol":5911,"Ġbelong":5912,"times":5913,"Note":5914,"Ġbenefit":5915,"Ġoverflow":5916,"lections":5917,"Ġtechnique":5918,"ĠID":5919,"Ġ\"/":5920,"Ġrect":5921,"split":5922,"+\\":5923,"istical":5924,"ĠAccording":5925,"åĽŀ":5926,"scale":5927,"Ġinterested":5928,"ĠTime":5929,"Ġdiscovered":5930,"road":5931,"ĠEv":5932,"Repos":5933,"Method":5934,"ĠHealth":5935,"Ġheavy":5936,"Ġplt":5937,"ĠModel":5938,"Ġ2019":5939,"Ġtren":5940,"Ġcast":5941,"Ġchallenges":5942,"ĠOur":5943,"Ġsymmet":5944,"#####":5945,"ĠNOT":5946,"Ġfederal":5947,"kay":5948,"Ġbutton":5949,"âĢĿ.":5950,"ander":5951,"Ġpurch":5952,"ĠOb":5953,"ĠAPI":5954,"UN":5955,"plicated":5956,"itis":5957,"Ġdoll":5958,"Ġnotes":5959,"anging":5960,"Ġadvanced":5961,"oto":5962,"Am":5963,"Label":5964,"ĠINT":5965,"apers":5966,"Ġunivers":5967,"mic":5968,"transform":5969,"åº¦":5970,"Ġhous":5971,"Ġfamilies":5972,"iced":5973,"iders":5974,"Ġclin":5975,"Ġbinary":5976,"Post":5977,"depend":5978,"Ġreligion":5979,"Ġrecommend":5980,"frame":5981,"Ġcontinuous":5982,"inking":5983,"Ġhistorical":5984,"mi":5985,"ĠÐ¿":5986,"ĠFurther":5987,"Ġwebsite":5988,"Ġsch":5989,"Ġemphas":5990,"Ġonto":5991,"orge":5992,"Ġwants":5993,"Ġreceive":5994,"BR":5995,"ĠMult":5996,"Ġtrib":5997,"Ġborn":5998,".\\":5999,"Ġunless":6000,"à¥":6001,"ĠType":6002,"Ġpolynomial":6003,"!\"":6004,"option":6005,"xc":6006,"ĠDon":6007,"(-":6008,"Ġbool":6009,"Ġcities":6010,"Ġfreedom":6011,"Ġexercise":6012,"ĠWestern":6013,"Ġcomments":6014,"Ġ),":6015,"Ġexplore":6016,"Ġphenomen":6017,"oses":6018,"poses":6019,"ipe":6020,"Ġrace":6021,"estic":6022,"PL":6023,"under":6024,"Ġprotection":6025,"Ġreturned":6026,"rated":6027,"Ġbacteria":6028,"Ġwat":6029,"ĠBas":6030,"Cal":6031,"ums":6032,"Ġemail":6033,"ĠLike":6034,"Ġsecret":6035,"iated":6036,"Ġconsole":6037,"ĠDec":6038,"house":6039,"standing":6040,"isation":6041,"Ġ\\(":6042,"Ġmonitor":6043,"Inst":6044,"iate":6045,"ressed":6046,"izontal":6047,"Ġstation":6048,"ien":6049,"dep":6050,"Ġreferred":6051,"usr":6052,"ĠFind":6053,"Ġeffectively":6054,"Ġallowing":6055,")^":6056,"ĠEgypt":6057,"card":6058,"ĠAir":6059,"range":6060,"vector":6061,"ĠKe":6062,"æĺ¯":6063,"uffer":6064,"=&":6065,"Ġmolecules":6066,"Ġbon":6067,"Ġrg":6068,"ĠBook":6069,"ĠAng":6070,"Ġcertainly":6071,"Ġpopulations":6072,"Ġcarried":6073,"Ġchain":6074,"ĠObject":6075,"}_{":6076,"ariable":6077,"Ġmodule":6078,"learn":6079,"bottom":6080,"inity":6081,"Ġ500":6082,"images":6083,"linear":6084,"enth":6085,"'],":6086,"xml":6087,"private":6088,"Ġcreation":6089,"ĠFebruary":6090,"Ġrepresented":6091,"Ġ\"\"\"":6092,"Ġtrust":6093,"Ġspirit":6094,"Ġnor":6095,"Ġresearchers":6096,"cher":6097,"ancing":6098,"hentic":6099,"Ġexperiences":6100,"Ġcompre":6101,"################":6102,"DA":6103,"ĠCity":6104,"Ġdecisions":6105,"Ġvacc":6106,"ĠIsrael":6107,"Ġmuscle":6108,"Ġthick":6109,"Ġfluid":6110,"Ġconvers":6111,"stack":6112,"Ġinterface":6113,"Ġprojects":6114,"Ġpy":6115,"aah":6116,"ĠEduc":6117,"sembly":6118,"unding":6119,"zer":6120,"Stream":6121,"Ġswe":6122,"Det":6123,"Ð·":6124,"Ġapparent":6125,"graph":6126,"Ġrelation":6127,"pload":6128,"Ġmac":6129,"else":6130,"Ġquery":6131,"æķ°":6132,"Ġmel":6133,"DB":6134,"Ġwaves":6135,"wik":6136,"asure":6137,")/":6138,"blem":6139,"Ġpure":6140,"Ġrepresentation":6141,">&":6142,"ĠWeb":6143,"\"].":6144,"ĠJava":6145,"Ġcourt":6146,"ĠIts":6147,"Ġnice":6148,"ĩç":6149,"Ġprogramming":6150,"Ġnative":6151,"ĠâĢ¦":6152,"ools":6153,"unately":6154,"Ġ2020":6155,"Ġmo":6156,"layout":6157,"Ġliterature":6158,"Ġindicate":6159,"description":6160,"Te":6161,"Ġdu":6162,"has":6163,"Ġinteraction":6164,"Ġconcentration":6165,"Users":6166,"Ġaspects":6167,"free":6168,"IF":6169,"ðŁ":6170,"Ġattract":6171,"Ġkid":6172,"ä¸Ģ":6173,"SH":6174,"Ġcombined":6175,"Do":6176,"Ġshared":6177,"Ġforced":6178,"Ġcomparison":6179,"ributions":6180,"Ġ45":6181,"\"\"":6182,"axis":6183,"Select":6184,"ĠSecond":6185,"porary":6186,"ðĿ":6187,"Ġinvolve":6188,"Ġbodies":6189,"Box":6190,"$\\":6191,"ĠAnt":6192,"imensional":6193,"Ġvisible":6194,"eria":6195,"Ġrational":6196,"Ġcitizens":6197,"Ġefforts":6198,"ĠJe":6199,"items":6200,"ĠLa":6201,"Load":6202,"Ġkn":6203,"oyal":6204,"Ġhair":6205,"Ġclick":6206,"Ġsud":6207,"ĠPhil":6208,"Repository":6209,"ĠMor":6210,"Ġsell":6211,"ydz":6212,"ĠCreate":6213,"Ġestimated":6214,"iij":6215,"Ġê":6216,"OP":6217,"Ġbirds":6218,"Ġwidely":6219,"Ġreached":6220,"Ġpolic":6221,"structions":6222,"request":6223,"ictionary":6224,"ees":6225,"Check":6226,"ĠPost":6227,"ĠDavid":6228,"Ġprime":6229,"Ġstarts":6230,"Ġsubsequ":6231,"ashington":6232,"Ġ${":6233,"Ġveget":6234,"Ġliquid":6235,"otype":6236,"Ġjoint":6237,"SP":6238,"Ġexpressed":6239,"aaaz":6240,"dist":6241,"Ġflat":6242,"ĠSur":6243,"Ġcalls":6244,"Ġguy":6245,"ini":6246,"Ġstrug":6247,"Ġmys":6248,"Ġsupposed":6249,"ille":6250,"iance":6251,"Ã¶":6252,"ifact":6253,"Äģ":6254,"olds":6255,"oul":6256,"points":6257,"ographic":6258,"Version":6259,"nt":6260,"Ġdiseases":6261,"Ġexposure":6262,"Ġunknown":6263,"Ġcook":6264,"Ġcommercial":6265,"SA":6266,"Ġpeace":6267,"Ġchannel":6268,"ĠChurch":6269,"ĠLine":6270,"Ġfuck":6271,"rip":6272,"Ġsuggests":6273,"ĠSpanish":6274,"Ġkm":6275,"ĠPort":6276,"Ġmix":6277,"ipal":6278,"DP":6279,"predict":6280,"Ġproteins":6281,"Ġbuff":6282,"300":6283,"Ġconsistent":6284,"åį":6285,"Ġbasically":6286,"ĠJames":6287,"reement":6288,"urally":6289,"Ġorganization":6290,"Ġnovel":6291,"Ġnoise":6292,"Ġcausing":6293,"Ġcompare":6294,")=":6295,"Ġshowing":6296,"Ġexplicit":6297,"Ġsentence":6298,"Ġantib":6299,"Ġmaster":6300,"Fig":6301,"ĠDet":6302,"ĠStand":6303,"ĠJewish":6304,"ĠJews":6305,"uits":6306,"while":6307,"Ġded":6308,"Ġmotiv":6309,"Ġcovered":6310,"Ġprinciples":6311,"More":6312,"Ġ/**":6313,"/**":6314,"Ġcampaign":6315,"Ġderived":6316,"SI":6317,"ï¼Ł":6318,"Ġblog":6319,"pop":6320,"Ġexception":6321,"Ġremaining":6322,"only":6323,"Ġfeeling":6324,"ĠDi":6325,"Icons":6326,"inner":6327,"ĠOnce":6328,"ĠChe":6329,"Ġsexual":6330,"Ġstories":6331,"Ġbeaut":6332,"Ġpin":6333,"Ġrefers":6334,"Ġdiscussed":6335,"Ġradius":6336,"ĠWilliam":6337,"rat":6338,"Ġkept":6339,"Ġexplanation":6340,"Ġpowers":6341,"è¡":6342,"Ġshift":6343,"ÑĢÐ°":6344,"Ġexperiments":6345,"Ġstock":6346,"Ġextent":6347,"ded":6348,"omas":6349,"total":6350,"Gener":6351,"Property":6352,"Ġoffice":6353,"Ġstandards":6354,"Ġyield":6355,"aud":6356,"Ġserve":6357,"Ret":6358,"ĠMethod":6359,"big":6360,"Ġbatter":6361,"||||":6362,"While":6363,"Ġ2004":6364,"Ġestimate":6365,"Ġcro":6366,"ĠBi":6367,"Ġlinks":6368,"Ġpun":6369,"ala":6370,"Ġtreated":6371,"Ġstored":6372,"\"></":6373,"Ġconsists":6374,"Ġocean":6375,"amma":6376,"Ġwealth":6377,"Ġalgorithms":6378,"Ġthousands":6379,"ĠId":6380,"ĠSov":6381,"grid":6382,"ĠUs":6383,"anted":6384,"Create":6385,"ĉĊ":6386,"Write":6387,"EL":6388,"Ġdra":6389,"Ġentry":6390,"igma":6391,"Ġprocedure":6392,"çĶ¨":6393,"template":6394,"typed":6395,"Query":6396,"idation":6397,"iled":6398,"Ġ<-":6399,"ĠUK":6400,"rian":6401,"infty":6402,"Ġpaid":6403,"UM":6404,"draw":6405,"Ġopportunity":6406,"jection":6407,"phi":6408,"Net":6409,"Ġgal":6410,"ael":6411,"ĠStat":6412,"mc":6413,"å¤į":6414,"Ġconsc":6415,"aaakq":6416,"Ġesc":6417,"Ġmainly":6418,"Ġ\"#":6419,"ĠOh":6420,"react":6421,"minecraft":6422,"pers":6423,"arant":6424,"Ġroots":6425,"ilit":6426,"orts":6427,"nce":6428,"Ġchart":6429,"Ġvit":6430,"Ġadvance":6431,"Ġcategory":6432,"Ġminim":6433,"Ġrequirements":6434,"important":6435,"Ġbillion":6436,"Ġcouldn":6437,"Ġtissue":6438,"Ġpal":6439,"Rel":6440,"Ġmedium":6441,"Ġlegisl":6442,"Ġdetail":6443,"Ġcards":6444,"lambda":6445,"Ġweather":6446,"ya":6447,"Ġvill":6448,"asm":6449,"Ġmeasurement":6450,"Ġnodes":6451,"Ġequipment":6452,"Ġbranch":6453,"Lane":6454,"Ġpoly":6455,"Ġdefe":6456,"Ġdoctor":6457,"ĠBritain":6458,"?</":6459,"ĠMac":6460,"Ġsuggested":6461,"Ġoccurred":6462,"CON":6463,"Ġtemperatures":6464,"service":6465,"care":6466,"Ġdownload":6467,"imately":6468,"ĠText":6469,"ĠIP":6470,"bc":6471,"Ġphone":6472,"Ġbug":6473,"Ġos":6474,"ifferent":6475,"Ġmechanism":6476,"ronic":6477,"eding":6478,"xide":6479,"Ġexhib":6480,"Ġmouth":6481,"Ġ[[":6482,"ĠBC":6483,"Ġready":6484,"berg":6485,"Ġglass":6486,"real":6487,"Ġentirely":6488,"Mat":6489,"ĠEmpire":6490,"(_":6491,"OW":6492,"éĢ":6493,"Ġexchange":6494,"Ġideal":6495,")].":6496,"Provider":6497,"ructure":6498,"ëĭ":6499,"BU":6500,"roduction":6501,"enu":6502,"ĠSoci":6503,"Ġdivers":6504,"ĠMet":6505,"ĠHel":6506,"elled":6507,"arser":6508,"coh":6509,"Ġvertical":6510,"Ġspecifically":6511,"ĠCap":6512,"Ã¼":6513,"hi":6514,"ror":6515,"Ġpractical":6516,"sn":6517,"Are":6518,"ĠBoth":6519,"Ġconfiguration":6520,"Ġskill":6521,"rep":6522,"Back":6523,"ifications":6524,"Ġlose":6525,"itter":6526,"ĠdepartLane":6527,"Ġriver":6528,"onymous":6529,"Ġsolving":6530,"Ø§":6531,"bles":6532,"Ġbed":6533,"sor":6534,"Ġpossibly":6535,"band":6536,"Tem":6537,"Ġexpansion":6538,"ker":6539,"Ġcalculation":6540,"Ġobservations":6541,"summary":6542,"SON":6543,"ĠComput":6544,"ĠBel":6545,"ĠST":6546,"Ġprofessional":6547,"Ġlayers":6548,"Ġsituations":6549,"ida":6550,"PU":6551,"Open":6552,"Ġkg":6553,"Ġsynthe":6554,"Ġincorpor":6555,"Ġappre":6556,"utive":6557,"mut":6558,"Down":6559,"Ġopinion":6560,"ulf":6561,"grade":6562,"han":6563,"ĠWhich":6564,"het":6565,"Ġ-&":6566,",-":6567,"outs":6568,"Ġfrequently":6569,"Ġquadr":6570,"Ġseven":6571,"Ġworksheets":6572,"dt":6573,"Ġimpossible":6574,"ĠWashington":6575,"Ġchallenge":6576,"Layout":6577,"Ġpeak":6578,"ĠMich":6579,"ĠChallenge":6580,"Ġnetworks":6581,"Click":6582,"dict":6583,"inte":6584,"words":6585,"arter":6586,"Ġ2003":6587,"Ġmm":6588,"Ġvoice":6589,"android":6590,"Ġapproaches":6591,"Ġintelligence":6592,"Ġraise":6593,"Ġprops":6594,"Ġ300":6595,"lets":6596,"Title":6597,"Ġund":6598,"rays":6599,"atural":6600,"ĠSan":6601,"Ġple":6602,"uint":6603,"ĠWork":6604,"urance":6605,"Ġrough":6606,"lock":6607,"Ġplus":6608,"orrow":6609,"othing":6610,"Ġemb":6611,"loss":6612,"inet":6613,"ĠCam":6614,"zym":6615,"Ġknows":6616,"Off":6617,"Ġproperly":6618,"typedef":6619,"Ġfinite":6620,"life":6621,"Ġgoals":6622,"Ġtypical":6623,"Rem":6624,"EX":6625,"ĠAnother":6626,"ĠJes":6627,"ounter":6628,"Ġgravity":6629,"wide":6630,"tyle":6631,"rency":6632,"push":6633,"related":6634,"Ġturns":6635,"400":6636,"ĠGoogle":6637,"stood":6638,"Ġfloor":6639,"Web":6640,"Ġtouch":6641,"Ġreduction":6642,"otion":6643,"ĠDist":6644,"define":6645,"notation":6646,"iveness":6647,"Ġwhereas":6648,"Default":6649,"Ġinfect":6650,"Ġdynamic":6651,"¿½":6652,"ircraft":6653,"Ġspend":6654,"Ġinnov":6655,"zing":6656,"Product":6657,"Action":6658,"Ġspecified":6659,"Ġcompiler":6660,"Ġteach":6661,"ĠNumber":6662,"Î±":6663,"Ne":6664,"TML":6665,"deny":6666,"Ġexcess":6667,"cosystem":6668,"Ġ../":6669,"Ġformal":6670,"Ġlatter":6671,"ĠDevelop":6672,"context":6673,"Ġperspective":6674,"Ġcredit":6675,"Since":6676,"Part":6677,"aming":6678,"urity":6679,"ĠRober":6680,"Ġmotor":6681,"Ġimmune":6682,"ĠAustralia":6683,"Ext":6684,"Ġaware":6685,"Ġletters":6686,"ML":6687,"Ġprimarily":6688,"Ġexpressions":6689,"ĠDate":6690,"tag":6691,"å°":6692,"Ġregarding":6693,"Comm":6694,"Ġhop":6695,"ĠChild":6696,"Max":6697,"Ġprotected":6698,"ihu":6699,"Fe":6700,"Ġorbit":6701,"Ġtells":6702,"Ġmixed":6703,"Ġrecords":6704,"æľī":6705,"Ġexplained":6706,"eless":6707,"Ġshell":6708,"env":6709,"ĠArmy":6710,"Ġpriv":6711,"Ġkinds":6712,"tm":6713,"FL":6714,"Ġdrugs":6715,"Ġrank":6716,"pc":6717,"Ġtheore":6718,"Ġdoor":6719,"Ġspent":6720,"Ġguid":6721,"writ":6722,"Ġsigned":6723,"ĠNav":6724,"Ġextends":6725,"OST":6726,"Ð¾Ð²":6727,"Ġparticle":6728,"Ġlived":6729,"lements":6730,"Ġmembr":6731,"ĠElect":6732,"Ġtoken":6733,"cdot":6734,"ifies":6735,"ttp":6736,";=":6737,"theta":6738,"ĠLong":6739,"inant":6740,"Ġcogn":6741,"oking":6742,"ĠÂłĠÂł":6743,"ĥŃ":6744,"Ġdistingu":6745,"ĠPlan":6746,"system":6747,"Ġamounts":6748,"Price":6749,"SD":6750,"Go":6751,"ĠAND":6752,"ested":6753,"hover":6754,"Ġpercentage":6755,"uable":6756,"}$</":6757,"ĠOpen":6758,"olving":6759,"Ġhypothesis":6760,"Ġreplaced":6761,"ipedia":6762,"GB":6763,"ĠMal":6764,"Ġstable":6765,"Ġunion":6766,"2020":6767,"ĠĠĠĠĠĠĠĠĊ":6768,"jpg":6769,"imple":6770,"springframework":6771,"enses":6772,"Ġhaven":6773,"ĠBay":6774,"Ġsudden":6775,"Ġcomprehens":6776,"Inte":6777,"Ġsugar":6778,"Ġimproved":6779,"Ġcolors":6780,"Ġpieces":6781,"ĠRich":6782,"anned":6783,"orig":6784,"othe":6785,"`,":6786,"ocratic":6787,"Script":6788,"quare":6789,"Ġlinked":6790,"Ġinsp":6791,"Ġmission":6792,"Ġca":6793,"Ġrepeated":6794,"Ġbreath":6795,"plan":6796,"oma":6797,"Ġsignals":6798,"Ġfeedback":6799,"ĠCode":6800,"rich":6801,"Ġpages":6802,"ĠÐ²":6803,"uate":6804,"ĠSocial":6805,")$</":6806,"Ġinvent":6807,"Ġboundary":6808,"tax":6809,"stor":6810,"Ġchosen":6811,"Ġuniform":6812,"Ġadop":6813,"Ġchrom":6814,"Ġprices":6815,"ometimes":6816,"Ġlesson":6817,"ĠChapter":6818,"ĠKore":6819,"abil":6820,"Component":6821,"Ġtherapy":6822,"vm":6823,"Ġspaces":6824,"Ġpairs":6825,"yr":6826,"Ġsigns":6827,"ĠĠĠĠĠĠĠĠĠĠĠĠĠĠ":6828,"Ġmanner":6829,"Ġsouthern":6830,"lebr":6831,"Ġdespite":6832,"ua":6833,"Ġintended":6834,"Ġgoods":6835,"rie":6836,"Ġpolice":6837,"ĠTem":6838,"Ġsession":6839,"ĠProgram":6840,"});":6841,"encing":6842,"Ġindustrial":6843,"ĠCourt":6844,"Ġinner":6845,"[:":6846,"Ġstated":6847,"token":6848,"Ġrevolution":6849,"Ġmeasurements":6850,"itud":6851,"oday":6852,"ATION":6853,"oded":6854,"Ġcontribute":6855,"nic":6856,"ĠCheck":6857,"Ġseeing":6858,"RI":6859,"Then":6860,"åĽŀå¤į":6861,"Call":6862,"ounced":6863,"ĠAtt":6864,"}^":6865,"zhihu":6866,"Ġinteract":6867,"lope":6868,"Ġcontrolled":6869,"outer":6870,"1000":6871,"Ġpositions":6872,"ĠSl":6873,"ĠPaul":6874,"Ġrecorded":6875,"iences":6876,"Ġreducing":6877,"Ġwest":6878,"Ġacadem":6879,"Ġinsert":6880,"ĠVir":6881,"Ġmyself":6882,"Ġsegment":6883,"Ġasync":6884,"Ġindicates":6885,"osph":6886,"ĠPark":6887,"Ġä¸ĩç":6888,"Ġsac":6889,"Ġaccepted":6890,"Ġmere":6891,"Ġbecoming":6892,"Ġdecrease":6893,"Ġnecessarily":6894,"println":6895,"Ġpurposes":6896,"ĥŃåº¦":6897,"Ġnorthern":6898,"Ġtheorem":6899,"Ġoffic":6900,"Ġframework":6901,"Ġnoted":6902,"Ġä¸ĩçĥŃåº¦":6903,"Base":6904,"module":6905,"GG":6906,"Ġadults":6907,"ĠâĨĴ":6908,"cr":6909,"Ġmur":6910,"creen":6911,"Ġhighlight":6912,"Ġguide":6913,"Ġnumerous":6914,"family":6915,"filter":6916,"}.":6917,"uses":6918,"wood":6919,"Ġsand":6920,"Another":6921,"ĠSk":6922,"Ġleaving":6923,"1524":6924,"112":6925,"Ġworse":6926,"Ġmort":6927,"ishes":6928,"oder":6929,"Ġinteractions":6930,"Ġhappy":6931,"Ġoperating":6932,"ocker":6933,"Ġextreme":6934,"\\\",":6935,"Ġcomplexity":6936,"Ġemotional":6937,"Pol":6938,"imary":6939,"Ġpolicies":6940,"racy":6941,"you":6942,"Ġec":6943,"Ġconstraint":6944,"Ġadj":6945,"inger":6946,"Ġcorrectly":6947,"Ġbrother":6948,"Ġencourag":6949,"Ġspin":6950,"{{":6951,"ests":6952,"å¼":6953,"jlpwxh":6954,"inations":6955,"ĠFalse":6956,"Ġ})":6957,"aughter":6958,"Handler":6959,"yyaac":6960,"gener":6961,"Ġremained":6962,"âĢĿ,":6963,"():":6964,"Ġgender":6965,"spe":6966,"ĠBen":6967,"Ġdetailed":6968,"esc":6969,"255":6970,"ĠSoviet":6971,"Ġeating":6972,"Ġflag":6973,"unctions":6974,"AAFC":6975,"nes":6976,"Ġatoms":6977,"Ġmoves":6978,"SR":6979,"','":6980,"tee":6981,"UI":6982,"Ġdirectory":6983,"ĠInstead":6984,"ĠCD":6985,"Ġfamiliar":6986,"Ġpet":6987,"ificial":6988,"Ġmit":6989,"Americ":6990,"ims":6991,"amil":6992,"ceived":6993,"Ġfunctional":6994,"Ġoutcomes":6995,"Ġwife":6996,"ĠDel":6997,"Ġfamous":6998,"Ġepis":6999,"Ġring":7000,"kit":7001,"rl":7002,"bert":7003,"ĠSen":7004,"chron":7005,"ĠRussia":7006,"ERR":7007,"aint":7008,"Ġplays":7009,"astern":7010,"Ġauthors":7011,"Ġholds":7012,"break":7013,"Ġjobs":7014,"Ġmassive":7015,"Ġ2001":7016,"nbsp":7017,"Ġconclusion":7018,"Ġauthority":7019,"ocy":7020,"allow":7021,"Ġelectrical":7022,"Ġcub":7023,"Ġconscious":7024,"Ġhosp":7025,"angular":7026,"Ġends":7027,"types":7028,"iful":7029,"âĢĵ]":7030,"Ġextended":7031,"ĠConstitution":7032,"Ġbrief":7033,"ymbol":7034,"ĠAge":7035,"Ġlargely":7036,"Ã§":7037,"ĠExample":7038,"rowser":7039,"Ġsummer":7040,"itely":7041,"See":7042,"Ġruns":7043,"Ġsettings":7044,"Ġengineering":7045,"Ġvess":7046,"rains":7047,"UP":7048,"Ġindu":7049,"Ġhelped":7050,"ĠWhere":7051,"bor":7052,"ĠAsia":7053,"task":7054,"pm":7055,"Ġinsect":7056,"dec":7057,"Ġcompleted":7058,"ĠGreen":7059,"Ġtail":7060,"ORD":7061,"ĠAnalysis":7062,"ĠMain":7063,"ago":7064,"Ġphr":7065,"Ġquantity":7066,"Ġstick":7067,"Ġdecide":7068,"area":7069,"ingly":7070,"Ġtum":7071,"ĠGeorge":7072,"Ġvision":7073,"cohol":7074,"Eng":7075,"auto":7076,"ĠArab":7077,"Ġindeed":7078,"etween":7079,"uid":7080,")))":7081,"Ġ##":7082,"fortunately":7083,"Ġfoods":7084,"Ġing":7085,"unity":7086,"Ġdelay":7087,"Ġshot":7088,"Ġinh":7089,"ĠDepartment":7090,"ameters":7091,"enter":7092,"Ġfif":7093,"Ġpolar":7094,"defined":7095,"Ġstudied":7096,"Ġnit":7097,"Ġarriv":7098,"Ġfol":7099,"Ġecosystem":7100,"Task":7101,";:":7102,"Ġaircraft":7103,"Exp":7104,"Ġrows":7105,"Ġcorrelation":7106,"ĠInstitute":7107,"Ġgeometry":7108,"osa":7109,"Ġdiameter":7110,"location":7111,"mathrm":7112,"Ġiter":7113,"isher":7114,"Ġopportunities":7115,"Ġsmooth":7116,"ptr":7117,"Ġvast":7118,"Thread":7119,"!--":7120,"dimensional":7121,"Entity":7122,"timestamp":7123,"nel":7124,"umin":7125,"ĠHen":7126,"Ġbone":7127,"Ġfoss":7128,"Ġconsumption":7129,"Ġfrag":7130,"Ġinequ":7131,"Ġdistributed":7132,"ĠIslam":7133,"Ġhydrogen":7134,"Alloc":7135,"Ġ2002":7136,"ato":7137,"Ġurban":7138,"Ġinterview":7139,"Ġgap":7140,"å¸":7141,"ulating":7142,"ulum":7143,"Ġscene":7144,"Ġfresh":7145,"Ġast":7146,"unit":7147,"512":7148,"ï¿½":7149,"btn":7150,"Ġtroops":7151,"Ġintegral":7152,"âķ":7153,"inition":7154,"rium":7155,"pu":7156,"Ġtun":7157,"Length":7158,"ĠExt":7159,"Ġbits":7160,"Ġfractions":7161,"Ġperiods":7162,"Ġbond":7163,"Ġasking":7164,"VE":7165,"Ġanalog":7166,"Ġtemplate":7167,"tmp":7168,"burg":7169,"Ġconversion":7170,"ĠOF":7171,"Ġmanip":7172,"Ġelectrons":7173,"Ġtwice":7174,"ĠCath":7175,"Gen":7176,"Ġlock":7177,"Ġadult":7178,"ĠArt":7179,"adian":7180,"Ġapart":7181,"vec":7182,"Ġvariation":7183,"Ġconducted":7184,"ampling":7185,"Ġ``":7186,"umes":7187,"liament":7188,"ĠWhite":7189,"ATH":7190,"eties":7191,"ĠÎ±":7192,"ĠSum":7193,"ĠSociety":7194,"Ġ{}":7195,"txt":7196,"Ġrecon":7197,"2019":7198,"eper":7199,"header":7200,"Fin":7201,";</":7202,"response":7203,"Ġdecimal":7204,"æī":7205,"Ġassist":7206,"ĠGroup":7207,"ĠMart":7208,"Child":7209,"Ġmanage":7210,"Ġclaims":7211,"Ã£":7212,"Ġà¤":7213,"common":7214,"Ġtested":7215,"ĠSam":7216,"Show":7217,"Ġinstruction":7218,"Ġnormally":7219,"Row":7220,"Ġsklearn":7221,"iot":7222,"ĠPower":7223,"req":7224,"circ":7225,"GTM":7226,"files":7227,"sign":7228,"holder":7229,"ĠDay":7230,"ĠMuslim":7231,"ĠEducation":7232,"seccess":7233,"nections":7234,"annels":7235,"Ġske":7236,"ĠTur":7237,"Ġeast":7238,"Ġenhance":7239,"Ġelev":7240,"apse":7241,"perties":7242,"Ġprotocol":7243,"xa":7244,"idget":7245,"riage":7246,"Ġdecades":7247,"Ġreserved":7248,"Filter":7249,"Ġwinter":7250,"Ġrein":7251,"ĠMathematics":7252,"Ġtmp":7253,"ĠCr":7254,"Ġhidden":7255,"Ġboolean":7256,"Ġcapable":7257,"None":7258,"ĠAssoci":7259,"Ġrender":7260,"Mon":7261,"ĠConf":7262,"Ġgate":7263,"Ġgone":7264,"Ġcollege":7265,"reshold":7266,"MO":7267,"ĠValue":7268,"Ġvirtual":7269,"IST":7270,"avel":7271,"bd":7272,"Ġplate":7273,"ĠDoes":7274,"IO":7275,"Access":7276,"Ġchurch":7277,"Ġorganisms":7278,"ĠRussian":7279,"ĠTHE":7280,"Edit":7281,"________________":7282,"Ġpossibility":7283,"Ġserved":7284,"appe":7285,"heat":7286,"ican":7287,"stronom":7288,"Ġplanning":7289,"Ġleader":7290,"Ġelection":7291,"Ġil":7292,"Ġelectro":7293,"vas":7294,"ĠGl":7295,"LA":7296,"akhhn":7297,"di":7298,"Ġimplemented":7299,"Ġhence":7300,"eft":7301,"Ġgirl":7302,"ologists":7303,"ÑĢÐµ":7304,"illa":7305,"utter":7306,"Ġraised":7307,"Char":7308,"ĠGener":7309,"Ġunderstood":7310,"Ġsoldiers":7311,"ho":7312,"Ġcomposition":7313,"cluding":7314,"Ġbehaviour":7315,"ĠView":7316,"Ġinstrument":7317,"ï¼Ł](":7318,"ĠFore":7319,"orter":7320,"lay":7321,"PR":7322,"orry":7323,"ĠWater":7324,"ĠCivil":7325,"Ġreject":7326,"Ġodd":7327,"Ġcreates":7328,"Ġlimits":7329,"Ġblocks":7330,"Your":7331,"%,":7332,"Ġcollabor":7333,"Ġcontainer":7334,"Bar":7335,"Ġfert":7336,"google":7337,"func":7338,"Ġsecondary":7339,"leted":7340,"Ġneur":7341,"ĠError":7342,"Ġbroken":7343,"Ġ128":7344,"Ġresist":7345,"ĠWorks":7346,"Ġwestern":7347,"Ġtheories":7348,"yyaa":7349,"Exec":7350,"ĠOnly":7351,"VER":7352,"cluded":7353,"Ġexpensive":7354,"^{-":7355,"BA":7356,"organ":7357,"ĠAlex":7358,"ĠLearning":7359,"rices":7360,"ĠMexico":7361,"Ġorganic":7362,"Ġ75":7363,"Ġstatistics":7364,"Ġoffers":7365,"Ġguarant":7366,"Ġdisorder":7367,"Ġcloser":7368,"ĠThanks":7369,"ĠKey":7370,"Ġresolution":7371,"params":7372,"Ġurl":7373,"Ġguys":7374,"Ġattacks":7375,"Ġpossess":7376,"gest":7377,"non":7378,"ĠCenter":7379,"atial":7380,"udget":7381,"ĠParty":7382,"Ġstatements":7383,"ĠMaybe":7384,"Ġimagine":7385,"wrap":7386,"Ġproduces":7387,"inating":7388,"lig":7389,"Ġwei":7390,"Ġbiological":7391,"Ġflight":7392,"Column":7393,"ĠEngine":7394,"lines":7395,"Ġmoral":7396,"ĠâĪĪ":7397,"rogen":7398,"Util":7399,"Ġí":7400,"Ġbright":7401,"Ġessentially":7402,"Ġviews":7403,"columns":7404,"Ġisland":7405,"Ġeducational":7406,"alar":7407,"Ġcomplicated":7408,"ford":7409,"ĠLatin":7410,"Ġunderlying":7411,"Stud":7412,"Builder":7413,"omes":7414,"inction":7415,"Ġplans":7416,"ĠQue":7417,"Ġtechnologies":7418,"Ġacts":7419,"Ġrotation":7420,"Ġspring":7421,"ĠRad":7422,"Ġmarked":7423,"agon":7424,"EM":7425,"fall":7426,"ibraries":7427,"Answer":7428,"Ġvaluable":7429,"gent":7430,"example":7431,"remaining":7432,"ading":7433,"Ġcelebr":7434,"ĠAv":7435,"acific":7436,"serve":7437,"Ġexperimental":7438,"%.":7439,"ĠMiddle":7440,"rig":7441,"Ġmetab":7442,"ĠName":7443,"Ġ$(":7444,"å¾":7445,"Ġmanif":7446,"Ġdesc":7447,"control":7448,"æł":7449,"ĠCentral":7450,"ĠSimilar":7451,"FT":7452,"Ġcenturies":7453,"Ġpresident":7454,"ĠReview":7455,"Change":7456,"aahg":7457,"NO":7458,"Ġsusp":7459,"Ġ255":7460,"/.":7461,"Ġfle":7462,"Ġstrict":7463,"Header":7464,"ĠProject":7465,"[(":7466,"pping":7467,"Ġorient":7468,"even":7469,"Override":7470,"ĠDiv":7471,"Ġwish":7472,"Ġsed":7473,"ĠSuch":7474,"Ġfacts":7475,"]);":7476,"Cell":7477,"Funding":7478,"Ġseed":7479,"Ġended":7480,"ĠRun":7481,"Ġparticipants":7482,"Ġmessages":7483,"icular":7484,"Ġkernel":7485,"after":7486,"media":7487,"Ġregression":7488,"utely":7489,"ĠYeah":7490,"Ġdiagram":7491,"Ġenzym":7492,"Ġ1990":7493,"kin":7494,"Ġsubstant":7495,"Ġfib":7496,"CK":7497,"Ġhelpful":7498,"Ġspectrum":7499,"Link":7500,"Ġevaluate":7501,"Ġreform":7502,"ĠMil":7503,"ĠMarket":7504,"auth":7505,"direction":7506,"Entry":7507,"Ġsurvival":7508,"Co":7509,"olf":7510,"Ġrid":7511,"Ġthoughts":7512,"Ġdependent":7513,"rove":7514,"rams":7515,"apache":7516,"Ġdimensions":7517,"aph":7518,"herent":7519,"Ġ400":7520,"lementary":7521,"Ġvisit":7522,"Ġgreatest":7523,"sort":7524,"Ġconsequences":7525,"aser":7526,"join":7527,"ÃĹ":7528,"ĠSpec":7529,"Ġprem":7530,"Ġresponses":7531,"ĠUSA":7532,"Any":7533,"Ġinhib":7534,"Ġachieved":7535,"Ġbegins":7536,"assert":7537,"Use":7538,"Description":7539,"ĠRo":7540,";;":7541,"Ġprepar":7542,"ĠHuman":7543,"Ġsuccessfully":7544,"Ġinher":7545,"ano":7546,"Ġclinical":7547,"ĠTV":7548,"Ġfigures":7549,"Ġroute":7550,"asy":7551,"Ġclosely":7552,"Ġwire":7553,"vironments":7554,"Vis":7555,"zed":7556,"Ġflood":7557,"Ġlit":7558,"Ġusage":7559,"Ġships":7560,"Ġtox":7561,"lege":7562,"Ġprison":7563,"Ġjoin":7564,"ĠOff":7565,"Ġfocused":7566,"antly":7567,"Ġcars":7568,"May":7569,"ads":7570,"ĠMax":7571,"Ġcollected":7572,"alian":7573,"close":7574,"bool":7575,"Init":7576,"Ġcritic":7577,"istent":7578,"Ġcontinues":7579,"Ġdesired":7580,"opic":7581,"lik":7582,"Ġviolence":7583,"iable":7584,"ervices":7585,"itative":7586,"white":7587,"ĠSection":7588,"ä¸ª":7589,"Ġextension":7590,"hav":7591,"obj":7592,"ilib":7593,"Example":7594,"conf":7595,"FI":7596,"Ġgrand":7597,"full":7598,"Ġnarrow":7599,"ĠĠĠĠĠĠĠĠĠĠĠĠĠĠĠĠĠĠĠĠ":7600,"Ġfaith":7601,"Ġlots":7602,"Ġtechnical":7603,"copy":7604,"Ġcamera":7605,"Ġelectricity":7606,"ĠPo":7607,"click":7608,"oods":7609,"Ġvent":7610,"Ġdimension":7611,"ĠMem":7612,"Ġdescribes":7613,"Ġparties":7614,"Ġcoordinates":7615,"Ġdefic":7616,"fc":7617,"Ġcalc":7618,"author":7619,"wdk":7620,"Other":7621,"../../":7622,"docs":7623,"master":7624,"Ġclassification":7625,"Style":7626,"radius":7627,"Ġarbit":7628,"Ġdifferential":7629,"world":7630,"Yes":7631,"dx":7632,"Ġcalling":7633,"Ġ48":7634,"Ġpron":7635,"ĠVAL":7636,"Ġbelief":7637,"Min":7638,"Ġembed":7639,"Cons":7640,"Ġvehicle":7641,"ĠOld":7642,"uh":7643,"Ġcategories":7644,"Ġconvent":7645,"Ġweapons":7646,"going":7647,"pet":7648,"SERT":7649,"device":7650,"Ġshif":7651,"hop":7652,"001":7653,"ĠLou":7654,"Ġtag":7655,"Ġconfidence":7656,"Ġappeared":7657,"Ġmodified":7658,"bridge":7659,"Factory":7660,"Ġmeeting":7661,"168":7662,"modules":7663,"ĠMiss":7664,"Ġstatistical":7665,"Ġchapter":7666,"MM":7667,"never":7668,"Ġportion":7669,"iat":7670,"Ġancest":7671,"Ġkeeping":7672,"Ġ150":7673,"Ġradical":7674,"elines":7675,"tree":7676,"ĠÑģ":7677,"Ġoutcome":7678,"mult":7679,"Ġhole":7680,"ĠTex":7681,"ĠCa":7682,"miss":7683,"Ġconsidering":7684,"Ġlung":7685,"Ġcryst":7686,"lers":7687,"Ġwilling":7688,"angles":7689,"Ġexposed":7690,"Mode":7691,"asp":7692,"Ġsuc":7693,"ĠNaN":7694,"ĠVis":7695,"ĠFact":7696,"Ġuncertain":7697,"Ġ42":7698,"Ġinterests":7699,"Ġowners":7700,"Ġera":7701,"Ġexperienced":7702,"Ġsuitable":7703,"ĠInternet":7704,"Spec":7705,"ffff":7706,"Ġvectors":7707,"XX":7708,"ĠtotalAlloc":7709,"ĠtotalAllocPoint":7710,"Ġclassical":7711,"lined":7712,"ipping":7713,"ĠAtl":7714,"reme":7715,"Ġclim":7716,"Ġhorizontal":7717,"Ġorganizations":7718,"Ġsomewhat":7719,"ĠStudents":7720,"reet":7721,"Ġdim":7722,"').":7723,"ĠWil":7724,"omy":7725,"Ġinfinite":7726,"ĠPC":7727,"Dat":7728,"Ob":7729,"ĠUN":7730,"Ġpip":7731,"Ġrapidly":7732,"Ġdivide":7733,"ĠJesus":7734,">\"":7735,"Ġdiscover":7736,"Ġintegers":7737,"menu":7738,"Ġshoot":7739,"ĠJul":7740,"ports":7741,"2021":7742,"Ġcomfort":7743,"Ġpix":7744,"aws":7745,"Ġslowly":7746,"vol":7747,"itan":7748,"Ġperman":7749,"Ã£o":7750,"Width":7751,"Ġreports":7752,"UES":7753,"tra":7754,"Ġinstructions":7755,"Ġraw":7756,"Ġmeters":7757,"Ġspeaking":7758,"ocracy":7759,"*/":7760,";\\":7761,"cb":7762,"Ġdefinitely":7763,"}/":7764,"ĠBer":7765,"()</":7766,"Ġfighting":7767,"Ġdepos":7768,"Ġautomatically":7769,"Ġ37":7770,"Ġcustomer":7771,"åĨ":7772,"Ġmaps":7773,"ĠMass":7774,"ĠGal":7775,"Ġassessment":7776,"abetes":7777,"yes":7778,"ĠBig":7779,"Ġinline":7780,"Ġcorpor":7781,"Hel":7782,"?:":7783,"OUT":7784,"rations":7785,"\\)":7786,"Ġstone":7787,"nn":7788,"zen":7789,"Ġzone":7790,"ĠSat":7791,"Ġtrial":7792,"Bo":7793,"tons":7794,"Ġprepared":7795,"ĠJack":7796,"Ġ34":7797,"Ġpotentially":7798,"Ġwhom":7799,"Ġversions":7800,"Ġchoices":7801,"$$</":7802,"Ġreb":7803,"isc":7804,"lg":7805,"ĠOR":7806,"Ġtopics":7807,"aneous":7808,"Ġoptimal":7809,"icket":7810,"Ġaccum":7811,"Port":7812,"Ġtal":7813,"Many":7814,"Ġcompute":7815,"ä¼":7816,"hedul":7817,"ipher":7818,"Ġverb":7819,"ura":7820,"cpp":7821,"phone":7822,"Ġdrawn":7823,"Ġdiscrim":7824,"ensions":7825,"ora":7826,"%%":7827,"ROM":7828,"Ġgalax":7829,"Ġpartial":7830,"_.":7831,"erves":7832,"Ġlabels":7833,"127":7834,"Ġdiversity":7835,"Ġshr":7836,"Ġpropos":7837,"Ġsurrounding":7838,"mathbf":7839,"Ġdriving":7840,".[":7841,"wer":7842,"Current":7843,"site":7844,"Ġaudience":7845,"Ġvac":7846,"xture":7847,"ãĢģ":7848,"ployment":7849,"Ġterritory":7850,"LS":7851,"Ġwel":7852,"ĠYear":7853,"Ġdangerous":7854,"æĢ":7855,"Ġfindings":7856,"email":7857,"game":7858,"Ġ68":7859,"ĠRobert":7860,"Ġconstitution":7861,"method":7862,"ĠCount":7863,"icians":7864,"itivity":7865,"Ġrecommended":7866,"Ã¤":7867,"ĠVer":7868,"Ġenemy":7869,"Ġagreement":7870,"Ġyellow":7871,"Ġdetection":7872,"ĠPublic":7873,"Ġsurvey":7874,"Ġdiverse":7875,"Ġinternet":7876,"Ġthin":7877,"Ġsetup":7878,"Ġarticles":7879,"TY":7880,"clusive":7881,"Ġfilled":7882,"riend":7883,"ye":7884,"Ġopened":7885,"oral":7886,"Ġappoint":7887,"alog":7888,"Ġpropag":7889,"Ġappearance":7890,"ĠStep":7891,"Search":7892,"Ġpregn":7893,"Ġfort":7894,"ĠÐ½":7895,"Ġcalculations":7896,"Ġconcerned":7897,"Ġpul":7898,"esh":7899,"urns":7900,"Ġcluster":7901,"Ġreward":7902,"Ġobjective":7903,"Api":7904,"Ġrail":7905,"Ġtour":7906,"Ġsubjects":7907,"Ġsignificance":7908,"gi":7909,"AAAA":7910,"åĮ":7911,"Ġprofile":7912,"Ġreactions":7913,"å¯":7914,"Ġinfo":7915,"ocab":7916,"Ġmovements":7917,"Most":7918,"Work":7919,"ushed":7920,"Ġassumed":7921,"Ġ-->":7922,"ĠGovernment":7923,"Ġsurvive":7924,"ĠMount":7925,"Ġpassing":7926,"\"))":7927,"Del":7928,"åľ¨":7929,"INT":7930,"displaystyle":7931,"Ġdoubt":7932,"Project":7933,"Ġemissions":7934,"Ġsmart":7935,"Ġmagnitude":7936,"ĠINTO":7937,"Also":7938,"Ġjustify":7939,"rey":7940,"éĩ":7941,"Ġmachines":7942,"Ġinverse":7943,"van":7944,"ĠMer":7945,"Ġpassword":7946,"Pe":7947,"ĠWho":7948,"istan":7949,"Application":7950,"window":7951,"Ġenable":7952,"ighter":7953,"Ġanyway":7954,"Ġbaby":7955,"Ġcomputers":7956,"ĠArray":7957,"Ġrecognize":7958,"ĠShow":7959,"ĠFound":7960,"ĠPers":7961,"ĠRight":7962,"Ġprev":7963,"Ġpromote":7964,"late":7965,"Sim":7966,"Ġupdated":7967,"ipl":7968,"sembler":7969,"cut":7970,"TG":7971,"Ġalcohol":7972,"Ġfairly":7973,"such":7974,"arn":7975,"Ġstaff":7976,"ĠMake":7977,"ĠSal":7978,"Ġinvolving":7979,"Ġ],":7980,"ĠJer":7981,"Ġceil":7982,"ĠCommon":7983,"components":7984,"Ġhappening":7985,"debug":7986,"beta":7987,"ota":7988,"Ġsymbols":7989,"ĠWindows":7990,"uccess":7991,"Ġtorch":7992,"Step":7993,"Ġstages":7994,"ACT":7995,"\\:":7996,"ĠCharles":7997,"Ġtraffic":7998,"oved":7999,"ras":8000,"Ġclust":8001,"undle":8002,"Ġcapture":8003,"Red":8004,"Ġnations":8005,"Ġspot":8006,"ĠIII":8007,"legal":8008,"rb":8009,"Ġtransmission":8010,"ĠOper":8011,"lem":8012,"git":8013,"edy":8014,"je":8015,"Ġevaluation":8016,"ĠInc":8017,"Ġenvironments":8018,"uan":8019,"Ġsatell":8020,"scope":8021,"Ġseemed":8022,"Ġdict":8023,"fd":8024,"Ġthanks":8025,"åĩ":8026,"Ġpros":8027,"ĠTR":8028,"ĠService":8029,"Ġalb":8030,"Ġ1999":8031,"ĠĠĠĠĠĠĠĠĠĠĠĠĠĠĠĠĠĠ":8032,"Ġintegration":8033,"ĠPen":8034,"ĠCH":8035,"Ġconfir":8036,"Ġecho":8037,"ĠSea":8038,"Ġbuildings":8039,"ä¸į":8040,"},{\"":8041,"Ġfruit":8042,"Ġmanaged":8043,"achine":8044,"Next":8045,"Ġarms":8046,"rot":8047,"Ġboy":8048,"Ġconcerns":8049,"Ġlogical":8050,"Ġahead":8051,"Ġordered":8052,"gal":8053,"Ġlisted":8054,"Ġsalt":8055,"Ġclock":8056,"ader":8057,"Ġconservation":8058,"uent":8059,"ibilities":8060,"Ġeggs":8061,"ĠIr":8062,"ĠDan":8063,"Gtm":8064,"ĠBal":8065,"Ġinvestment":8066,"ĠRevolution":8067,"Ġcart":8068,"scrib":8069,"override":8070,"%)":8071,"pository":8072,"Ġappreci":8073,"markdown":8074,"Ġclar":8075,"Ġretain":8076,"rog":8077,"gery":8078,"Ġboost":8079,"Ġneither":8080,"scape":8081,"ĠEnd":8082,"pdf":8083,"Ġblow":8084,"ĠCalculate":8085,"edit":8086,"onna":8087,"Ġwalls":8088,"Ġbuffer":8089,"ĠPoint":8090,"uby":8091,"noreferrer":8092,"blue":8093,"`.":8094,"=\"#":8095,"Ġcareer":8096,"ĠMask":8097,"Ġsequences":8098,"Ġfirm":8099,"Ġlies":8100,"Ġabstract":8101,"ÐºÐ°":8102,"areness":8103,"boot":8104,")-":8105,"ĠSE":8106,"Ġultimately":8107,"Ġscope":8108,"ĠPlease":8109,"mode":8110,"ĠGood":8111,"omorph":8112,"west":8113,"Ġjoined":8114,"Ġmoon":8115,"Ġfly":8116,"Ġobservation":8117,"Ġouter":8118,"born":8119,"zero":8120,"Well":8121,"Ġunf":8122,"Although":8123,"ette":8124,"Ġ2021":8125,"Ġcircumst":8126,"flex":8127,"ki":8128,"Ġopening":8129,"element":8130,"Ġexcell":8131,"igate":8132,"ĠThomas":8133,"Ġdebt":8134,"ĠSpe":8135,"ropy":8136,"Custom":8137,"Ġcognitive":8138,"anda":8139,"Num":8140,"xiety":8141,"ĠStage":8142,"Ġabund":8143,"Ġrealize":8144,"ilibrium":8145,"[âĢĵ]":8146,"Each":8147,"Ġjournal":8148,"agnetic":8149,"ĠIsland":8150,"Ġthousand":8151,"props":8152,"URL":8153,"Ġsnow":8154,"Ġadopted":8155,"Pass":8156,"ĠFranc":8157,"Ġaccompl":8158,"called":8159,"appro":8160,"Ġion":8161,"Ġhearing":8162,"Ġtaught":8163,"IE":8164,"dule":8165,"Ġhorm":8166,"Ġbra":8167,"Ġobviously":8168,"Ġmorning":8169,"Ġtables":8170,"ĠBro":8171,"Ġsucceed":8172,"Ġsky":8173,"Ġdigits":8174,"PC":8175,"Ġmir":8176,"Ġoriginally":8177,"avery":8178,"ups":8179,"Ġbigger":8180,"Ġinterpretation":8181,"Ġstrongly":8182,"ĠMag":8183,"children":8184,"ena":8185,"xccupr":8186,"Ð³":8187,"ĠFunction":8188,"Ġcert":8189,"Ġreader":8190,"ĠSpace":8191,"Main":8192,"Ġstret":8193,"Listener":8194,"make":8195,"Ġfre":8196,"Ġcloud":8197,"border":8198,"Ġmechanisms":8199,"hard":8200,"stroke":8201,"SO":8202,"Ġattached":8203,"Module":8204,"before":8205,"Ġbeliefs":8206,"She":8207,"gments":8208,"archy":8209,"Output":8210,"iday":8211,"emic":8212,"Ġ\"$":8213,"Ġcontained":8214,"Ġarchitecture":8215,"Ġmanufacture":8216,"âķĲ":8217,"DR":8218,"Ġfacilit":8219,"IA":8220,"Ġconnections":8221,"Ġhundreds":8222,"ĠTra":8223,"Ġmembrane":8224,"ĠControl":8225,"Ġreasonable":8226,"ĠStart":8227,"uns":8228,"Ġsubset":8229,"ĠFree":8230,"Ð¹":8231,"ĠRob":8232,"110":8233,"ĠWH":8234,"Last":8235,"Ġcoal":8236,"Ġlisten":8237,"ĠFort":8238,"ĠEX":8239,"Ġconven":8240,"Ġrecognized":8241,"ĠVALUES":8242,"Ġsales":8243,"second":8244,"MENT":8245,"Ġslaves":8246,"ĠFinally":8247,"lat":8248,"Ġcomposed":8249,"parse":8250,"focus":8251,"sim":8252,"Ġcompetition":8253,"Ġstability":8254,"BS":8255,":\"":8256,"Ġvul":8257,"ensus":8258,"Ġdiffer":8259,"Total":8260,"Ġoffered":8261,"Ġscan":8262,"Ġbin":8263,"Ġaid":8264,"va":8265,"600":8266,"}$$":8267,"ĠColor":8268,"Position":8269,"Case":8270,"Ġaffects":8271,"Ġstimul":8272,"Ġtheme":8273,"Ġputting":8274,"Ġdebate":8275,"Ġnaturally":8276,"_,":8277,"ĠPage":8278,"hemical":8279,"Ġpil":8280,"Ġproceed":8281,"2013":8282,"Ġthr":8283,"ologist":8284,"ĠLook":8285,"Ġexpert":8286,"ìĹ":8287,"Ġhero":8288,"Ġproducing":8289,"opes":8290,"admin":8291,"Ġopposed":8292,"figure":8293,"Ġsections":8294,"double":8295,"Ġcultures":8296,"ĠĠĠĠĠĠĠĠĠĠĠĠĠĠĠĠĠĠĠĠĠĠĠĠĠ":8297,"ourney":8298,"ĠFurthermore":8299,"ĠMr":8300,"Ġwet":8301,"utch":8302,"rical":8303,"}_":8304,"ĠCouncil":8305,"Ġox":8306,"å¦":8307,"2016":8308,"ĠImage":8309,"ĠTheory":8310,"Ġdelete":8311,"Ġjump":8312,"uous":8313,"Ġunable":8314,"Ġvan":8315,"Ġintroduction":8316,"Ġannual":8317,"Ġlie":8318,"?.":8319,"Ġscores":8320,"Ġclassroom":8321,"endar":8322,"ĠAM":8323,"ĠLife":8324,"ellect":8325,"hedule":8326,"neg":8327,"Sl":8328,"ola":8329,"ĠTH":8330,"Ĥ¬":8331,"uce":8332,"Ġrig":8333,"Ġnumerical":8334,"ĠGiven":8335,"Ġdomestic":8336,"Ġrecept":8337,"Ġdriver":8338,"Ġtruly":8339,"Ð±":8340,"Oper":8341,"ĠNon":8342,"Ġproportion":8343,"ĠURL":8344,"ogram":8345,"Ġslope":8346,"partial":8347,"ĠSmith":8348,"iration":8349,"Ġlocations":8350,"rates":8351,"Ġbinding":8352,"drome":8353,"Ġtransformation":8354,"Ġimper":8355,"inv":8356,"Ġimplies":8357,"Ġbias":8358,"apped":8359,"Ġindicated":8360,"ZE":8361,"fficients":8362,"remove":8363,"ĠCollege":8364,"Ġdestroyed":8365,"Str":8366,"ĠTreat":8367,"Ġsimult":8368,"ìĿ´":8369,"Ġmamm":8370,"Ġdynamics":8371,"Ġdisorders":8372,"Ġmeat":8373,"ĠTexas":8374,"AND":8375,"Ġnarr":8376,"Ġinstitutions":8377,"ĠPacific":8378,"mal":8379,"Ġworksheet":8380,"Ġagent":8381,"igenous":8382,"Game":8383,"*}":8384,"Http":8385,"ĠNor":8386,"ĠQuestion":8387,"ĠThose":8388,"dig":8389,"Ð¾Ð»":8390,"GL":8391,"GE":8392,"0024":8393,"Ġlatest":8394,"ĠPy":8395,"ĠInformation":8396,"ĠStr":8397,"Ġexceed":8398,"Player":8399,"dy":8400,"Ġ::":8401,".*":8402,"ãģ®":8403,"Ġtaxes":8404,"expected":8405,"ĠCE":8406,"metic":8407,"ĠHome":8408,"Ġtotally":8409,"Ġmilk":8410,"Ġcriteria":8411,"Ġdram":8412,"frast":8413,"000000":8414,"Ġindependence":8415,"itz":8416,"look":8417,"Ġtoler":8418,"Ġseek":8419,"Const":8420,"Ġsv":8421,"Ġcharacteristic":8422,"ÏĢ":8423,"ĠÂ·":8424,"Ġaccounts":8425,"Ġ($":8426,"ĠMary":8427,"Ġmillions":8428,"Ġreverse":8429,"Ġcrim":8430,"ĠMill":8431,"Card":8432,"ĠMicrosoft":8433,"Car":8434,"Ġescape":8435,"Ġ95":8436,"Ġconj":8437,"Ġsensitive":8438,"æĿ":8439,"Ġconstructed":8440,"acent":8441,"ĠSec":8442,"internal":8443,"ĠÂµ":8444,"rev":8445,"Ġassigned":8446,"Ġdistrict":8447,"azon":8448,"ĠBudd":8449,"sample":8450,"ĠTw":8451,"Ġshapes":8452,"Core":8453,"ĠHenry":8454,"Ġmetric":8455,"Ġrecall":8456,"Ġacademic":8457,"stone":8458,"Ġsheet":8459,"ateral":8460,"Ġ172":8461,"Ġoffset":8462,"ï¼ļ":8463,"culation":8464,"icted":8465,"cuss":8466,"Ġbytes":8467,"Ġ120":8468,"akers":8469,"2017":8470,"Ġ38":8471,"ĠHence":8472,"Ġusual":8473,"levision":8474,"Ġgard":8475,"dated":8476,"ĠExper":8477,"aked":8478,"Ġscenario":8479,"Ġvital":8480,"Ġsupports":8481,"oj":8482,"Ġmultiply":8483,"adv":8484,"Ġhash":8485,"TP":8486,"Ġ192":8487,":**":8488,"ĠAS":8489,"Icon":8490,"Ġgirls":8491,"Ġha":8492,"Ġidentical":8493,"features":8494,"Ġstrings":8495,"Right":8496,"gb":8497,"ĠMoreover":8498,"Ġduration":8499,"ita":8500,"2000":8501,"ä¸º":8502,"Offset":8503,"Ġintent":8504,"ĠRef":8505,"Ġtiny":8506,"ĠEst":8507,"ĠBuild":8508,"ĠÏĢ":8509,")),":8510,"Ġinstalled":8511,"Ġtub":8512,"Build":8513,"Ġpig":8514,"icing":8515,"Assembler":8516,"Ġdrag":8517,"ĠImp":8518,"Using":8519,"ĠTor":8520,"asty":8521,"During":8522,"2015":8523,"RNA":8524,"Ġ\",":8525,"2018":8526,"Ġinches":8527,"266":8528,"then":8529,"Ġped":8530,"packages":8531,"pkg":8532,"upid":8533,"Ġgrass":8534,"ĠTer":8535,"jlpwxz":8536,"Ġexit":8537,"ĠItaly":8538,"ĉĉĉĉĉĉĉĉĉĉ":8539,"Ñħ":8540,"ĠGraph":8541,"ĠVari":8542,"mail":8543,"tenance":8544,"Ġminute":8545,"Ġthermal":8546,"auss":8547,"Ġ1980":8548,"she":8549,"Ġpounds":8550,"Ġcrime":8551,"ether":8552,"patch":8553,"rients":8554,"Ġprompt":8555,"obs":8556,"OK":8557,"icons":8558,"FFFFFFFF":8559,"Ġinputs":8560,"Ġkin":8561,"Ġtang":8562,"Ġincreasingly":8563,"American":8564,"Ġstanding":8565,"Ġmeth":8566,"ĠEconom":8567,"TA":8568,"Ġargue":8569,"apply":8570,"Ġdemonstrated":8571,"Ġtemp":8572,"itness":8573,"Ġjson":8574,"Ġfeelings":8575,"ĠCompany":8576,"ourse":8577,"Where":8578,"Ġplastic":8579,"Ġreven":8580,"ĠDev":8581,"sql":8582,"leton":8583,"fire":8584,"mid":8585,"ĠAP":8586,"Ġresponsibility":8587,"Ġgreatly":8588,"itudes":8589,"options":8590,"Ġmolecular":8591,"Ġmultiplication":8592,"Ġod":8593,"Ġcoefficient":8594,"Ġcoupl":8595,"Ġ>>":8596,"Ġsecure":8597,"ffe":8598,"ĠKingdom":8599,"hema":8600,"125":8601,"Ġnom":8602,"Ġran":8603,"Ġworry":8604,"Ġteeth":8605,"ilation":8606,"Ġillness":8607,"Ġ1998":8608,"Ġrh":8609,"Ġsupporting":8610,"ĠAR":8611,"person":8612,"å·":8613,"Ġdifficulty":8614,"ĠZe":8615,"Ġtele":8616,"Ġmg":8617,"ĠProcess":8618,"Ġassumption":8619,"ĠOrgan":8620,"Ġmagic":8621,"ymmet":8622,"ello":8623,"Ġshock":8624,"Ge":8625,"Ġdigit":8626,"Ġmask":8627,"ells":8628,"power":8629,"ĠSing":8630,"Ġsummary":8631,"ĠConsider":8632,"Ġcontrols":8633,"[[":8634,"Non":8635,"Ġpointer":8636,"imation":8637,"ById":8638,"Ġscheme":8639,"Ġprofit":8640,"Function":8641,"Ġtab":8642,"Ġban":8643,"Ġsick":8644,"Ġpackages":8645,"andon":8646,"*)":8647,"Ġhelping":8648,"ĠBill":8649,"Ġholding":8650,"help":8651,"DS":8652,"ĠHaw":8653,"Ġforget":8654,"eq":8655,"ĠSpain":8656,"ĠCatholic":8657,"Ġinitially":8658,"Ġmedicine":8659,"Ġsomewhere":8660,"Ġcustomers":8661,"Process":8662,"custom":8663,"Ġrevealed":8664,"ĠDevelopment":8665,"romise":8666,"Ġyeah":8667,"~~~~":8668,"ĠGold":8669,"Ġ\"<":8670,"Ġsubsequent":8671,"bg":8672,"temp":8673,"Ġhem":8674,"Ġtrick":8675,"Ġinfluenced":8676,"ĠHave":8677,"Ð¾ÑĢ":8678,"Ġsector":8679,"erman":8680,"ĠVirgin":8681,"Ġbehaviors":8682,"avelength":8683,"awn":8684,"ART":8685,"elih":8686,"ilon":8687,"Ġdollars":8688,"osion":8689,"ULT":8690,"Ġheader":8691,"Ġbird":8692,"Ġanalyze":8693,"ä¸Ń":8694,"ÑĨ":8695,"Ġbanks":8696,"ĠRome":8697,"çĽ":8698,"ĠLouis":8699,"Ã¢":8700,"ses":8701,"Ġbow":8702,"Ġshut":8703,"Ġ$$\\":8704,"agraph":8705,"ĠRichard":8706,"Ġphilosophy":8707,"Ġ['":8708,"Ġroles":8709,"aneously":8710,"Ġtrouble":8711,"Ġkeys":8712,"Ġabsolutely":8713,"BL":8714,"Ġestimates":8715,"ĠRom":8716,"Ġslavery":8717,"Ġreprodu":8718,"Ġorb":8719,"Ġbattery":8720,"Ġgall":8721,"ulary":8722,"Attribute":8723,"ÑĤÐµ":8724,"seud":8725,"icated":8726,"imer":8727,"Ġcoordinate":8728,"utorial":8729,"ported":8730,"anes":8731,"BO":8732,"Ġbatch":8733,"ella":8734,"ĠCur":8735,"Ġintensity":8736,"Ġcompounds":8737,"Mult":8738,"Ġprecision":8739,"Ġslave":8740,"ĠLand":8741,"tains":8742,"Ġproved":8743,"pa":8744,"ws":8745,"756":8746,"Global":8747,"umps":8748,"á»":8749,"Ġmuscles":8750,"kins":8751,"oids":8752,"dc":8753,"ĠTheorem":8754,"Ġconcrete":8755,"ponential":8756,"Ġmechanical":8757,"Ġpolitics":8758,"nings":8759,"ponds":8760,"âķĲâķĲ":8761,"Ġdrawing":8762,"\">$$":8763,"Ġdio":8764,"Ġshouldn":8765,"Ġsubstance":8766,"cknow":8767,"Ġanalys":8768,"Ġfourth":8769,"Ġsizes":8770,"ĠCarol":8771,"ĠProv":8772,"ea":8773,"Ġmyth":8774,"Ġagricultural":8775,"Ġgonna":8776,"tx":8777,"Ġresulted":8778,"ĠMichael":8779,"frastructure":8780,"foot":8781,"eb":8782,"Ġdut":8783,"ĠIss":8784,"Ġinfections":8785,"dot":8786,"aration":8787,"Ġknowing":8788,"TTP":8789,"ĠAssociation":8790,"Level":8791,"Ġrecognition":8792,"etary":8793,"ĠLin":8794,"Ġshop":8795,"cule":8796,"indu":8797,"Ġturb":8798,"Window":8799,"ĠCounty":8800,"Menu":8801,"ĠResource":8802,"Ġadvice":8803,"utils":8804,"styles":8805,"800":8806,"ulas":8807,"stat":8808,"Ġnil":8809,"isters":8810,"ĠMA":8811,"Ġdepression":8812,"Ġsustainable":8813,"Ġgovernments":8814,"Options":8815,"ĠOrder":8816,"Activity":8817,"ĠPet":8818,"Ġ96":8819,"Ġactivation":8820,"ĠStandard":8821,"kkm":8822,"jar":8823,"Ġkilling":8824,"Ġagreed":8825,"ĠGame":8826,"property":8827,"ollowing":8828,"xb":8829,"irty":8830,"APp":8831,"ashion":8832,"ĠGrand":8833,"Ġcontem":8834,"iary":8835,"Ġacids":8836,"Ġexplains":8837,"Ġdb":8838,"ĠFrank":8839,"Ġdisappe":8840,"player":8841,"å¦Ĥ":8842,"Container":8843,"OC":8844,"ĠNov":8845,"match":8846,"Ġdeclared":8847,"ĠCy":8848,"Ġimg":8849,")+":8850,"Ġphosph":8851,"Ġbeautiful":8852,"artifact":8853,"save":8854,"Ġobserve":8855,"ĠSouthern":8856,"ĠWhe":8857,"Ġremark":8858,"Ġadvoc":8859,"Ġalter":8860,"fn":8861,"Sum":8862,"Ġneural":8863,"aaze":8864,"ĠOpt":8865,"**:":8866,"ocabulary":8867,"ĠMars":8868,"ĠPR":8869,"Long":8870,"replace":8871,"Ġcache":8872,"Ġdetected":8873,"erior":8874,"ĠPeter":8875,"Ġinflamm":8876,"API":8877,"Ġacceleration":8878,"Ġacting":8879,"document":8880,"ĠPract":8881,"Ġsubtraction":8882,"xac":8883,"Ġhardware":8884,"Ġdiscovery":8885,"PT":8886,"kes":8887,"Ġexplo":8888,"send":8889,"Dec":8890,"Ġanxiety":8891,"Ġpredictions":8892,"9999":8893,"Ġmenu":8894,"Ġpand":8895,"tw":8896,"Ġcharacterized":8897,"fess":8898,"Ġ{\\":8899,"usiness":8900,"Ġtrigger":8901,"Ġshit":8902,"Ġneuro":8903,"bling":8904,"Ġ65":8905,"Ġadministration":8906,"imeter":8907,"ĠAlgebra":8908,"Ġvertex":8909,"_{\\":8910,"category":8911,"cu":8912,"azing":8913,"Ġcycl":8914,"Ġneighbor":8915,"Â·":8916,"ĠSy":8917,"Because":8918,"mediate":8919,"Ġbudget":8920,"Ġment":8921,"Ġorders":8922,"Mar":8923,"hicles":8924,"throp":8925,"Ġcomputing":8926,"Ġpredicted":8927,"Ġcompound":8928,"Ġhonest":8929,"LECT":8930,"best":8931,"Ġcyl":8932,"Ġcrops":8933,"wing":8934,"ĠEnvironment":8935,"Ġorganized":8936,"ĠHand":8937,"swers":8938,"Dev":8939,"ĠEnergy":8940,"Ġexcellent":8941,"isis":8942,"Ġbeam":8943,"æ³":8944,"Ġcarefully":8945,"Ġentity":8946,"feature":8947,"mask":8948,"omic":8949,"Ġmales":8950,"*(":8951,"Ġ1970":8952,"Ġemployed":8953,"Ġlists":8954,"ogene":8955,"Ġderivative":8956,"Ġemotions":8957,"Ã³n":8958,"Ġcandidate":8959,"Ġliver":8960,"Ġstopped":8961,"Ġpark":8962,"Ġprediction":8963,"ĠJud":8964,"Â²":8965,"some":8966,"improve":8967,"Ġwear":8968,"Ġspan":8969,"Mem":8970,"IB":8971,"Ġpad":8972,"Ġdemonstrate":8973,"Ġplanets":8974,"Ġregist":8975,"PRO":8976,"ician":8977,"Ġspatial":8978,"Ġowner":8979,"ĠKnow":8980,"Body":8981,"ĠLord":8982,"Ġmomentum":8983,"ĠScient":8984,"ĠDesign":8985,"Ġcircumstances":8986,"Height":8987,"oster":8988,"entry":8989,"ithmetic":8990,"gence":8991,"Ġcolour":8992,"Ġevolved":8993,"mas":8994,"ĠJose":8995,"models":8996,"Url":8997,"VAL":8998,"Ġconfirm":8999,"Ġapplying":9000,"ctic":9001,"Ġtit":9002,"ĠFederal":9003,"Ġstorm":9004,"Ġrisks":9005,"arios":9006,"Ġhealthcare":9007,"Ġartificial":9008,"ĠMont":9009,"Ġoverl":9010,"Ġconversation":9011,"Ġsimulation":9012,"heric":9013,"Ġastronom":9014,"Ġrub":9015,"onia":9016,"Command":9017,"fol":9018,"Ġhospital":9019,"Ġdiagnosis":9020,"Ġattempts":9021,"Two":9022,"entity":9023,"------------":9024,"scill":9025,"Ġmerely":9026,"ĉĉĉĉĉĉĉ":9027,"Ġaer":9028,"ĠAdditionally":9029,"ĥ½":9030,"Ġdocuments":9031,"Ġtube":9032,"mathcal":9033,"Ġevil":9034,"Ġ55":9035,"Ġjustice":9036,"Ġmarriage":9037,"ĠMoon":9038,"Ġgar":9039,"Ġalloc":9040,"700":9041,"ali":9042,"Ġwarming":9043,"Ġfault":9044,"ĠInit":9045,"riers":9046,"Ġreasoning":9047,"ĠSign":9048,"Ġours":9049,"sts":9050,"Ġdescript":9051,"Ġregardless":9052,"ĠIll":9053,"Control":9054,"Ver":9055,"Ġwriter":9056,"Ġtradition":9057,"sstatic":9058,"ĠÂ±":9059,"ABLE":9060,"command":9061,"Ġnotation":9062,"sequence":9063,"itational":9064,"Ġuniversal":9065,"cribe":9066,"price":9067,"Ġtheoretical":9068,"ĠScott":9069,"Top":9070,"Ġpictures":9071,"Ġalpha":9072,"Ġtelling":9073,"Just":9074,"uke":9075,"Ġ978":9076,"Ord":9077,"ynthe":9078,"Ġremote":9079,"Ġrocks":9080,"Ġentered":9081,"Server":9082,"ymph":9083,"diff":9084,"high":9085,"ä¿":9086,"peror":9087,"claim":9088,"^{\\":9089,"Ġmatters":9090,"Resource":9091,"ĠPubl":9092,"keys":9093,"ĠNative":9094,"ĠCanadian":9095,"Ġethnic":9096,"uting":9097,"ĠWik":9098,"esides":9099,"Ġpup":9100,"Ġmaintaining":9101,"Ġ}}":9102,"Null":9103,"night":9104,"Ġtf":9105,"uality":9106,"being":9107,"Ġdust":9108,"stop":9109,"xFFFFFFFF":9110,"Ġjourney":9111,"Ġ(-":9112,"asma":9113,"Impl":9114,"eps":9115,"anches":9116,"xford":9117,"Ġ1997":9118,"session":9119,"Ġseparated":9120,"Ġinsurance":9121,"Ġwaiting":9122,"osh":9123,"ĠNewton":9124,"Rad":9125,"150":9126,"Ġvalidation":9127,"Ġcoefficients":9128,"ĠEvent":9129,"Ġsuperior":9130,"Ġcash":9131,"ATA":9132,"Valid":9133,"2012":9134,"SV":9135,"Ġspending":9136,"Ġcomprehensive":9137,"hentication":9138,"Ġequilibrium":9139,"BE":9140,"Ġsolved":9141,"hot":9142,"Ġdiabetes":9143,"According":9144,"Ġpromin":9145,"social":9146,"ĠAcadem":9147,"attr":9148,"ĠNO":9149,"\"])":9150,"Ġattribute":9151,"Ġextend":9152,"Ġfinished":9153,"Ġbomb":9154,"Ġdioxide":9155,"Ġvulner":9156,"Ġpod":9157,"aded":9158,"stud":9159,"Ġmountain":9160,"INSERT":9161,"NE":9162,"Book":9163,"Ġequals":9164,"Ġfarmers":9165,"erals":9166,"174":9167,"Ġsubtract":9168,"Ġmobile":9169,"Ġignore":9170,"Ġprecise":9171,"icate":9172,"Ġprofession":9173,"Ġdisk":9174,"2010":9175,"pin":9176,"rior":9177,"inline":9178,"123":9179,"ticle":9180,"Ġintellect":9181,"Ġabsence":9182,"ĠðŁ":9183,"ĠIndians":9184,"Ġstom":9185,"ona":9186,"ĠAnn":9187,"Ġlaunch":9188,"Ġsen":9189,"Ġlands":9190,"Ġstronger":9191,"Ġgraphs":9192,"Ġpersons":9193,"svg":9194,"Ġposts":9195,"Ġprocedures":9196,"access":9197,"Ġstem":9198,"ĠMean":9199,"ĠFre":9200,"Ġimmediate":9201,"ĠRights":9202,"bel":9203,"æŀ":9204,"Ġconverted":9205,"cp":9206,"Ġarrived":9207,"Ġfossil":9208,"bas":9209,"labels":9210,"Ġdrink":9211,"bound":9212,"Ġcentre":9213,"Ġconserv":9214,"Ġclaimed":9215,"Ġtrip":9216,"icker":9217,"Ġlowest":9218,"Supp":9219,"effect":9220,"(\\\"":9221,"Ġcrop":9222,"oom":9223,"uing":9224,"Ġroughly":9225,"Solution":9226,"Ġstands":9227,"Ð½Ð°":9228,"Ġextensive":9229,"arks":9230,"Ġum":9231,"Ġbiggest":9232,"thread":9233,"green":9234,"Ġgramm":9235,"ja":9236,"ĠSep":9237,"RR":9238,"Ġdeeper":9239,"ĠBack":9240,"Ġcommunicate":9241,"ĠNorthern":9242,"Empty":9243,"tn":9244,"ione":9245,"Ġfunding":9246,"echo":9247,"Ġpreced":9248,">{":9249,"ĠDown":9250,"Ġdesire":9251,"Ġease":9252,"Ġtempor":9253,"Ġsan":9254,"library":9255,"Ġcaptured":9256,"dem":9257,"handle":9258,"Ġimprovement":9259,"PM":9260,"2014":9261,"illing":9262,"got":9263,"Ġvertices":9264,"Ġdefense":9265,"Ġlegs":9266,"empty":9267,"Ġchronic":9268,"ĠTNode":9269,"izz":9270,"bind":9271,"Ġtranslation":9272,"imals":9273,"Ġdirections":9274,"ĠTask":9275,"Ġphotos":9276,"Ġtom":9277,"ĠPan":9278,"Ġ/&":9279,"SQL":9280,"AI":9281,"Met":9282,"store":9283,"Ġtrained":9284,"Ġworst":9285,"2011":9286,"Ġreferences":9287,"riculum":9288,"Ġadap":9289,"Ġcharged":9290,"Ġturning":9291,"ĠAC":9292,"Ġbusinesses":9293,"ìł":9294,"SL":9295,"ĠReact":9296,"Ġwavelength":9297,"forward":9298,"Sw":9299,"Ġhier":9300,"ĠStar":9301,"ancer":9302,"Ġdriven":9303,"isely":9304,"brid":9305,"ĠMa":9306,"Ġencourage":9307,"Ġcompr":9308,"Ġgrew":9309,"develop":9310,"uri":9311,"Ġfasc":9312,"Ġgather":9313,"iac":9314,"sey":9315,"oving":9316,"å¹":9317,"Ġdecay":9318,"Ġdeliver":9319,"osc":9320,"ĠThree":9321,"Ġdealing":9322,"Ġsurfaces":9323,"ĠPrinc":9324,"ĠMo":9325,"ĠTop":9326,"\"}":9327,"Ġrely":9328,"Find":9329,"Ġhate":9330,"xl":9331,"ĠAnswer":9332,"æĶ":9333,"ĠSD":9334,"Ġequally":9335,"Ġwaters":9336,"Ġharder":9337,"Ġimpacts":9338,"Ġclub":9339,"rible":9340,"Ġluck":9341,"Ġcav":9342,"teen":9343,"Ġintervention":9344,"avor":9345,"éĹ":9346,"front":9347,"Ġemployees":9348,"Common":9349,"tml":9350,"Ġcomplain":9351,"ĠWrite":9352,"å½":9353,"elihood":9354,"ALL":9355,"Ġrealized":9356,"Ġelected":9357,"Ġmeasuring":9358,"final":9359,"small":9360,"Ġawareness":9361,"ĠRNA":9362,"instance":9363,"Variable":9364,"Ġamb":9365,"peering":9366,"Ġbott":9367,"Ġperfectly":9368,"olt":9369,"Ġattributes":9370,"Ġprincipal":9371,"Ġsampling":9372,"æį":9373,"cv":9374,"rained":9375,"Ġleadership":9376,"Ġregister":9377,"Ġfell":9378,"Ġvariations":9379,"Ġcapac":9380,"charge":9381,"Ġwatching":9382,"ulin":9383,"ÑĪ":9384,"Ġchromos":9385,"eras":9386,"Ġtight":9387,"ĠChildren":9388,"ĠCult":9389,"Stack":9390,"Ġcombat":9391,"ĠÐ´":9392,"Ġdebug":9393,"KEY":9394,"Ġthor":9395,"ĠFil":9396,"Ġstupid":9397,"Ġcrisis":9398,"ĠPop":9399,"fold":9400,"Ġda":9401,"Ġ).":9402,"Ġengage":9403,"Ġphenomenon":9404,"gression":9405,"Ġpython":9406,"Tree":9407,"SM":9408,"Ġcorner":9409,"Mark":9410,"Ġ\\(\\":9411,"ĠThrough":9412,"ĠNum":9413,"Ġintroduce":9414,"Spe":9415,"Ġpapers":9416,"ĠĠĠĠĠĠĠĠĠĠĠĠĠĠĠĠĠĠĠĠĠĠ":9417,"Ġanywhere":9418,"city":9419,"Ġstudying":9420,"*,":9421,"utor":9422,"ĠReal":9423,"layer":9424,"Ġneutral":9425,"Ġdisag":9426,"ëĬ":9427,"hetic":9428,"Oh":9429,"Ġsurgery":9430,"Ġinstruments":9431,"uv":9432,"ideos":9433,"Ġmaxim":9434,"Ġmonitoring":9435,"orous":9436,"Ġ180":9437,"ĠSil":9438,"rition":9439,"kkmli":9440,"STR":9441,"Ġicon":9442,"ĠParis":9443,"Ġelectronic":9444,"æİ":9445,"Ġles":9446,"ĠCurrent":9447,"Ġhouses":9448,"Ġthreshold":9449,"ï¸":9450,"Ġreliable":9451,"Ġshel":9452,"Ġprettyprint":9453,"ĠAgain":9454,"Ġcareful":9455,"plicate":9456,"Ġnegot":9457,"ĠÎ²":9458,"Ġ39":9459,"Ġsteel":9460,"tor":9461,"Ġconsumer":9462,"ounce":9463,"roat":9464,"Ġdefend":9465,"Ġfemales":9466,"jav":9467,"Ġ101":9468,"ĠTechnology":9469,"El":9470,"Ġnutrients":9471,"atern":9472,"rovers":9473,"ĠItalian":9474,"Ġdeviation":9475,"Ġbreast":9476,"Ġnoticed":9477,"Ġinstant":9478,"Ġhabitat":9479,"ĠBur":9480,"Ġoperate":9481,"Ġfewer":9482,"Connection":9483,"Ð¾Ð´":9484,"Ġeastern":9485,"fish":9486,"Ġinflation":9487,"696":9488,"Br":9489,"rection":9490,"ĠSometimes":9491,"dataset":9492,"everal":9493,"Configuration":9494,"oples":9495,"etry":9496,"Ġsubs":9497,"Ġcas":9498,"Ġdocumentation":9499,"AGE":9500,"Ġstructural":9501,"namespace":9502,"ĠConsole":9503,"ĠMuse":9504,"wiki":9505,"Ġ160":9506,"Ġlaunc":9507,"pay":9508,"Ġnotion":9509,"reland":9510,"ÙĦ":9511,"ĠBefore":9512,"bled":9513,"Ġconstraints":9514,"Ġdogs":9515,"Med":9516,"ĠForce":9517,"CF":9518,"Ġtargets":9519,"ĠTom":9520,"jo":9521,"black":9522,"Ġnine":9523,"Ġconve":9524,"Ġassociation":9525,"irectory":9526,"Ġ1960":9527,"Ġreaders":9528,"Ġreduces":9529,"Ġfold":9530,"Ġafford":9531,"wc":9532,"mann":9533,"poolInfo":9534,".'":9535,"ĠCirc":9536,"Don":9537,"Ġleaf":9538,"mo":9539,"ippet":9540,"Ġ44":9541,"Ġrepresenting":9542,"Ġbones":9543,"edu":9544,"achment":9545,"Ġdominant":9546,"ani":9547,"Ġincred":9548,"ruction":9549,"ĠAdv":9550,"Ġregul":9551,"ashed":9552,"Ġconstantly":9553,"Ġpollution":9554,"ĠSV":9555,"Instance":9556,"ĠNaz":9557,"ĠNext":9558,"Ġagriculture":9559,"ĠIran":9560,"Ġ{{":9561,"zone":9562,"Ġoccasion":9563,"ĠMap":9564,"Ġwarning":9565,"Ġforests":9566,"anta":9567,"Ġflows":9568,"dr":9569,"Ġtwenty":9570,"Ġ1996":9571,"uals":9572,"Ġcow":9573,"ĠEastern":9574,"Ġsharing":9575,"åı¯":9576,"è§":9577,"cers":9578,"Ġchannels":9579,"Ġvariance":9580,"__(":9581,"Under":9582,"esis":9583,"Ġsaved":9584,"Ġhorse":9585,"iations":9586,"BUG":9587,"Ġaudio":9588,"Ġhomes":9589,"clusions":9590,"move":9591,"Ġfoundation":9592,"Ġrecip":9593,"è¡Į":9594,"las":9595,"ĠReport":9596,"ĠPsych":9597,"install":9598,"agers":9599,"Ġmaintenance":9600,"Ġacknow":9601,"(){":9602,"ĠRoyal":9603,"pend":9604,"Ġcultiv":9605,"Ġmigr":9606,"Ġweights":9607,"deed":9608,".).":9609,"Ġtelevision":9610,"DD":9611,"Ġagents":9612,"cache":9613,"Ġteams":9614,"ipse":9615,"Ġconventional":9616,"note":9617,"Ġble":9618,"Ġarbitrary":9619,"Ġmatrices":9620,"Please":9621,"Sm":9622,"Gu":9623,"Ġdecline":9624,"ĉĉĊ":9625,"Ġinjury":9626,"Ġmarg":9627,"ialize":9628,"ĠCat":9629,"Person":9630,"Ġtexts":9631,"224":9632,"Ġbyte":9633,"ERE":9634,"Ġokay":9635,"Ġnan":9636,"766":9637,"?)":9638,"706":9639,"month":9640,"Ġmoist":9641,"ĠDat":9642,"Before":9643,"ĠProte":9644,"ivery":9645,"deg":9646,"Ġpaths":9647,"gry":9648,"upt":9649,"Ġversus":9650,"ito":9651,"ĠAB":9652,"ĠBible":9653,"INE":9654,"Ġtrend":9655,"2007":9656,"ĠTri":9657,"Ġrepeat":9658,"Ġdaughter":9659,"bing":9660,"Stat":9661,"pread":9662,"Ġstruggle":9663,"asets":9664,"Ġpartners":9665,"Ġbind":9666,"Ġmorph":9667,"Ġabilities":9668,"Ġlimitations":9669,"Ġampl":9670,"?âĢĿ":9671,"Our":9672,"extern":9673,"Ġmovies":9674,"Ġhus":9675,"ĠEffect":9676,"Ġvehicles":9677,"Ġbear":9678,"ĠAbout":9679,"Ġfrequencies":9680,"Ġrecovery":9681,"ĠPass":9682,"Ġcontents":9683,"MAT":9684,"Ġadequ":9685,"Ġinterior":9686,"Ġforth":9687,"180":9688,"Ġhal":9689,"Ġcv":9690,").</":9691,"ĠIntroduction":9692,"Ġsod":9693,"Ġpermanent":9694,"enger":9695,"ailability":9696,"ffered":9697,"Cor":9698,"ê°":9699,"746":9700,"ĠBattle":9701,"æĹ¶":9702,"stac":9703,"Ġchief":9704,"pow":9705,"Ġrgba":9706,"}}{":9707,"Ġbonds":9708,"tab":9709,"Ġbeat":9710,"Ġxmi":9711,"Ġsomehow":9712,"Ġsharp":9713,"120":9714,"making":9715,"Ġfeels":9716,"Ġliterally":9717,"Ġ\"\",":9718,"Ġincorrect":9719,"Ġeigen":9720,"Ġtank":9721,"aks":9722,"Ġexecution":9723,"Ġsyndrome":9724,"åĵ":9725,"ady":9726,"ĠInput":9727,"Ġdirected":9728,"render":9729,"Ġpaying":9730,"Ġton":9731,",'":9732,"icago":9733,"Which":9734,"Ġimproving":9735,"Ġshadow":9736,"Ġaggreg":9737,"vo":9738,"Ġquantities":9739,"Ġmolecule":9740,"Ġwalking":9741,"}\"":9742,"Ġconsult":9743,"Range":9744,"tf":9745,"Ġcontribut":9746,"none":9747,"ucose":9748,"Ġcrow":9749,"ĠVirginia":9750,"Ġvolcan":9751,"apor":9752,"VA":9753,"ë¡":9754,"MI":9755,"Ġtraits":9756,"Scu":9757,"Ġquadratic":9758,"ĠÐ¸":9759,"ä»¥":9760,"Ġsuddenly":9761,"2008":9762,"Ġdenomin":9763,"ĠFrancis":9764,"}=":9765,"Ġadvantages":9766,"Ġhandling":9767,"Category":9768,"requency":9769,"ein":9770,"Ġseeds":9771,"webkit":9772,"Ġinfected":9773,"rolog":9774,"ĠCommit":9775,"Ġholes":9776,"ìŀ":9777,"ĠPerson":9778,"ĠDar":9779,"ÐµÐ½":9780,"}</":9781,"Ġdistances":9782,"Hz":9783,"ropical":9784,"Ġcontrad":9785,"ĠHall":9786,"when":9787,"ĠDid":9788,"Ġiniti":9789,"Ġoscill":9790,"Ġpump":9791,"ëĭ¤":9792,"Ġheads":9793,"Ġsquares":9794,"Pat":9795,"omatic":9796,"}}\\":9797,"Ġsuppose":9798,"ĠCall":9799,"ĠLi":9800,"Ġmarried":9801,"Ġapparently":9802,"Ġmob":9803,"ĠFire":9804,"Ð»Ð¸":9805,"(--":9806,"delete":9807,"Ġcontribution":9808,"Target":9809,"ĠRandom":9810,"Ġpointed":9811,"ĠOK":9812,"Buffer":9813,"ariant":9814,"Fixed":9815,"Location":9816,"specific":9817,"Left":9818,"Vector":9819,"ĠLess":9820,"raining":9821,"ville":9822,"Ġstor":9823,"Ġstreet":9824,")?":9825,"Ġcolonies":9826,"2009":9827,"Ġstead":9828,"Ġnic":9829,"NG":9830,"Ġexplicitly":9831,"Ġinfer":9832,"ĠCON":9833,"ĠMedic":9834,"ĠIV":9835,"Ġrenew":9836,"password":9837,"ĠDC":9838,"ĠIreland":9839,"Ġpassage":9840,"friend":9841,"Ġ1995":9842,"havior":9843,"ĠBank":9844,"/\"":9845,"ĠOxford":9846,"esian":9847,"Types":9848,"683":9849,"Ġconfirmed":9850,"Ġfan":9851,"Ġ41":9852,"Ġarrang":9853,"Ġinfrastructure":9854,"Ġorth":9855,"Ġvessels":9856,"uple":9857,"Ġcircular":9858,"Unit":9859,"Ġmal":9860,"hematic":9861,"Ġrevers":9862,"Ġcurrency":9863,"Sign":9864,"ipped":9865,"Ġbreaking":9866,"si":9867,"Ġdispl":9868,"Ġabandon":9869,"Ġmarkets":9870,"Ġminimal":9871,"Ġtrace":9872,"Ġpanel":9873,"bered":9874,"ĠNAS":9875,"atible":9876,"![":9877,"Ġepisode":9878,"ĠConst":9879,"Ġtensor":9880,"Ġoperators":9881,"Ġsphere":9882,"Ġphrase":9883,"Ġcham":9884,"ĠPMID":9885,"Ġplug":9886,"Ġinequality":9887,"ĠEarly":9888,"Ġbunch":9889,"olars":9890,"ĠHTML":9891,"Ġtel":9892,"Ġregional":9893,"HT":9894,"Ġbeings":9895,"Ġlistening":9896,"è¦":9897,"Ġdialog":9898,"Ġconfusion":9899,"ĠIns":9900,"Ġensuring":9901,"Ġrobust":9902,"hyth":9903,"Ġrarely":9904,"Ġ99":9905,"idents":9906,"Ġpasses":9907,"books":9908,"Ġdefinitions":9909,"Ġplain":9910,"Ġsongs":9911,"ĠLast":9912,"Ġcaught":9913,"delta":9914,"aka":9915,"Ġatomic":9916,"254":9917,"Ġenum":9918,"ĠPlay":9919,"rick":9920,"hal":9921,"ĠCR":9922,"Ġequality":9923,"Ġtoxic":9924,"Ġsensitivity":9925,"Ġdy":9926,"Ġcompens":9927,"ĠHistor":9928,"ĠGlobal":9929,"Ġdream":9930,"DTO":9931,"Ġ:)":9932,"techn":9933,"Ġmapping":9934,"Ġapplic":9935,"tery":9936,"Ġterror":9937,"alities":9938,"Ġgained":9939,"Ġunus":9940,"ĠCA":9941,"Ke":9942,"Ġnerve":9943,"MR":9944,"Arg":9945,"Ġmine":9946,"Ġheavily":9947,"Ġmechanics":9948,"Ġcategor":9949,"Ġassembly":9950,"sel":9951,"forcement":9952,"Ġcov":9953,"Ġfro":9954,"ĠChange":9955,"uf":9956,"blems":9957,"ÐµÑĤ":9958,"åİ":9959,"artifactId":9960,"Ġhyd":9961,"ĠAccess":9962,"bot":9963,"there":9964,"Ġguard":9965,"Ġmixture":9966,"Cost":9967,"omething":9968,"ĠTim":9969,"1666":9970,"groupId":9971,"Ġdx":9972,"Ġinstances":9973,"Ġsav":9974,"////////////////":9975,"Ð¾ÑĤ":9976,"Ġfalls":9977,"ĠLake":9978,"prot":9979,"Ġargued":9980,"Ġweird":9981,"ĠDig":9982,"Ġcycles":9983,"Ġrelax":9984,"ĠSystems":9985,"Ġele":9986,"cyclop":9987,"Ġisolated":9988,"ðĿļ":9989,"èĢ":9990,"Ġwheel":9991,"Given":9992,"ĠSource":9993,"ĠProblem":9994,"Ġordinary":9995,"ĠAL":9996,"Ġflux":9997,"loor":9998,"accur":9999,"Integer":10000,"ĠExamples":10001,"Ġrecurs":10002,"TYPE":10003,"Template":10004,"EMA":10005,"VID":10006,"uz":10007,"Ġsight":10008,"Ġgravitational":10009,"Ġsitting":10010,"Local":10011,"Ag":10012,"oop":10013,"ìĦ":10014,"ĠLeague":10015,"Ġdivis":10016,"Ġinsights":10017,"DC":10018,"ĠWomen":10019,"theless":10020,"Doc":10021,"}-":10022,"Ġlens":10023,"ĠLinear":10024,"Ġ43":10025,"Ġstroke":10026,"ĠJun":10027,"istence":10028,"Ġlip":10029,"ĠSQL":10030,"Ġgrown":10031,"Ġalgebraic":10032,">();":10033,"Ġ###":10034,"ĠLib":10035,"Ä±":10036,"Ġfashion":10037,"Ġ2022":10038,"eval":10039,"Async":10040,"Ġexponential":10041,"iest":10042,"Ġtranslate":10043,"ĠTake":10044,"results":10045,"Param":10046,"Ġarc":10047,"Ġincomp":10048,"DIR":10049,"Ġjav":10050,"ĠCommission":10051,"Ġscales":10052,"Ġhaz":10053,"ĠCreat":10054,"Ġsentences":10055,"oves":10056,"Once":10057,"ĠâĶ":10058,"eries":10059,"Ġbridge":10060,"Ġintegrated":10061,"Ġmarine":10062,"Parameter":10063,"ĠBase":10064,"Ġlandscape":10065,"Ġgradually":10066,"ubble":10067,"Ġupdates":10068,"ĠPhysics":10069,"Ġmusical":10070,"endment":10071,"Ġ×":10072,"Ġreson":10073,"Ġchlor":10074,"Ġfails":10075,"plus":10076,"ishment":10077,"Ġadvert":10078,"Ġtribes":10079,"Ġdial":10080,"rine":10081,"Ġcreative":10082,"Ġdefect":10083,"Ġpara":10084,"Ġell":10085,"xd":10086,"Ġparad":10087,"Ġdecreased":10088,"account":10089,"abric":10090,"ĠScot":10091,"Ġboundaries":10092,"Ġbrowser":10093,"Ġ\"^":10094,"Ġblind":10095,"ativity":10096,"Ð½Ð¸Ðµ":10097,"imet":10098,"'][":10099,"ĠBrown":10100,"Ġweapon":10101,"]\\":10102,"ĠFour":10103,"rating":10104,"hist":10105,"about":10106,"bad":10107,"Ġapplies":10108,"ften":10109,"ĠÎ¸":10110,"CTION":10111,"Ġmarks":10112,"ĠLanguage":10113,"ĠToday":10114,"Ġhur":10115,"ĠNews":10116,"ĠDifferent":10117,"Ġchallenging":10118,"Ġmaintained":10119,"ĠÏĥ":10120,"ti":10121,"Ġstyles":10122,"Ġfavorite":10123,"ĠYet":10124,"ĠLeg":10125,"ĠpH":10126,"ĠDen":10127,"Ġdetermining":10128,"Ġchecking":10129,"Ġfounded":10130,"Ġwing":10131,"placement":10132,"ĠBre":10133,"Ġlayout":10134,"structor":10135,"batch":10136,"2006":10137,"$(":10138,"alloc":10139,"ĠQuestions":10140,"ĠÐº":10141,"opol":10142,"inn":10143,"Ġbag":10144,"Ġspecify":10145,"Ġtissues":10146,"DO":10147,"CG":10148,"chrom":10149,"Ġforming":10150,"Ġbrown":10151,"Ġgenerations":10152,"Ġnerv":10153,"FS":10154,"Ġmand":10155,"Ġtreatments":10156,"Ġencoding":10157,"Ġdecom":10158,"Ġproportional":10159,"Ġconcentrations":10160,"Ġsports":10161,"fast":10162,"Ġsemi":10163,"ĠMP":10164,"Ġmerg":10165,"Ġlessons":10166,"ĠSpring":10167,"ĠIfxGtm":10168,"etal":10169,"AY":10170,"Ġtransaction":10171,"ĠNode":10172,"Abstract":10173,"Ð¶":10174,"Ġkeeps":10175,"ĠHit":10176,"feren":10177,"ĠÎ»":10178,"etics":10179,"ĠProb":10180,"filename":10181,"Ġyounger":10182,"ĠDespite":10183,"Ġlic":10184,"Ġmouse":10185,"operator":10186,"=\"_":10187,"razil":10188,"sol":10189,"Ġtre":10190,"Ġassumptions":10191,"ĠUI":10192,"irds":10193,"Ġdestruction":10194,"=[":10195,"Ġhall":10196,"Ġ250":10197,"ĠStreet":10198,"Ġclassified":10199,"overflow":10200,"Ġoptimization":10201,"Ġstrange":10202,"1746":10203,"Ġintr":10204,"Ġending":10205,"ascript":10206,"ĠLight":10207,"yal":10208,"ĠLab":10209,"Ġdesigns":10210,"Ġalive":10211,"isted":10212,"Ġedition":10213,"Ġwitness":10214,"ĠVen":10215,"Ġdifferently":10216,"oung":10217,"Ġdisplayed":10218,"Ġperception":10219,"agger":10220,"ynamic":10221,"ĠColumb":10222,"blob":10223,"Ġadds":10224,"Ġinsects":10225,"primary":10226,"ĠMad":10227,"Ġpurchase":10228,")\"":10229,"idity":10230,"eller":10231,"1111":10232,"country":10233,"Even":10234,"Ġmigration":10235,"history":10236,"ami":10237,"ois":10238,"ĠApple":10239,"sys":10240,"hidden":10241,"rif":10242,"Ġarrest":10243,"#~":10244,"uated":10245,"ching":10246,"Ġprepare":10247,"try":10248,"ĠCambridge":10249,"Ġaqu":10250,"Ġ1994":10251,"ĠProduct":10252,"ĠLim":10253,"insert":10254,"iously":10255,"original":10256,"Ġtact":10257,"Ġstomach":10258,"Ġevolutionary":10259,"Ġcontrovers":10260,"...\"":10261,"ĠFlor":10262,"Ear":10263,"Ġcomparing":10264,"Ġnitrogen":10265,"Ġscr":10266,"Ġtall":10267,"Ġempire":10268,"Ġimplications":10269,"ptic":10270,"Ġassuming":10271,"Ġimmigr":10272,"Ġsummar":10273,"atar":10274,"///":10275,"Json":10276,"including":10277,"ostic":10278,"ĠExp":10279,"Ġprotest":10280,"percent":10281,"Ġsyntax":10282,"dest":10283,"Ġpit":10284,"illed":10285,"Ġpuzz":10286,"raq":10287,"Ġfalling":10288,"Ġdiscipl":10289,"Ġmanufacturing":10290,"Ġcompact":10291,"Ġcarrying":10292,"Ġ49":10293,"Ġchick":10294,"Ġtip":10295,"ĠInf":10296,"ĠDO":10297,"âĶĢâĶĢâĶĢâĶĢ":10298,"Ġencoun":10299,"Ġinstitution":10300,"Rate":10301,"Ġgases":10302,"localhost":10303,"idential":10304,"++;":10305,"Ġ'',":10306,"prop":10307,"ĠStudies":10308,"formance":10309,"Ġtrials":10310,"otted":10311,"ĠMS":10312,"ĠViet":10313,"Ġsymmetry":10314,"ĠSO":10315,"Ġ'%":10316,"Ġinvestigate":10317,"prote":10318,")).":10319,"Ġadjacent":10320,"Ġmice":10321,"vin":10322,"Ġharvest":10323,"/>":10324,"Ġ47":10325,"iy":10326,"Ġacceler":10327,"iratory":10328,"Ġlosses":10329,"Ġneck":10330,"Ġgradient":10331,"250":10332,"Ġexpanded":10333,"una":10334,"Ġpartner":10335,"ĠOS":10336,"ĠJSON":10337,"kl":10338,"comb":10339,";(":10340,"Ptr":10341,"Ġdeploy":10342,"ĠAustralian":10343,"Ð½Ð¾":10344,"Ġfed":10345,"haust":10346,"Ġlect":10347,"ĠNa":10348,"Ġfinish":10349,"Ġsmallest":10350,"Ġmetabol":10351,"Ġaccident":10352,"ĠMuseum":10353,"Ġofficials":10354,"ears":10355,"Ġans":10356,"Ġinformed":10357,"åĴ":10358,"ĠNever":10359,"Ġanymore":10360,"ignment":10361,"Ġorgans":10362,"plugin":10363,"roc":10364,"eenth":10365,"ç½":10366,"ĠWal":10367,"ĠHy":10368,"Ġparse":10369,"Ġparas":10370,"ĠParliament":10371,"Ġbranches":10372,"ĠObama":10373,"Cheat":10374,"regular":10375,"Ġsensor":10376,"Ġbrand":10377,"Ġcutting":10378,"shadow":10379,"iments":10380,"Ġapproximation":10381,"Full":10382,"Ġexamine":10383,"ĠKorea":10384,"ruption":10385,"Ġillegal":10386,"they":10387,"Items":10388,"uum":10389,"Ġeditor":10390,"idal":10391,"Ġthank":10392,"isk":10393,"Ġnearby":10394,"Dist":10395,"Format":10396,"Ġintervals":10397,"Ġft":10398,"blog":10399,"gray":10400,"Ġcovers":10401,"Ġæ":10402,"Ġgiant":10403,"ĠSimilarly":10404,"Ġfinds":10405,"Nav":10406,"oose":10407,"ĠOcean":10408,"TER":10409,"ĠWay":10410,"Ġcraft":10411,"ĠTry":10412,"ĠEp":10413,"104":10414,"also":10415,"Ġprovider":10416,"Ġrequests":10417,"Ġages":10418,"ĠCPU":10419,"gthen":10420,"äºº":10421,"Ġsole":10422,"estyle":10423,"Ġregularly":10424,"Ġcort":10425,"razy":10426,"Ġstores":10427,"Ġpreferred":10428,"çİ":10429,"itage":10430,"Ġparagraph":10431,"wp":10432,"Equal":10433,"hips":10434,"ĠGeorg":10435,"ëĬĶ":10436,"Gui":10437,"Ġartists":10438,"Ġperforming":10439,"xF":10440,"Ġhell":10441,"don":10442,"................":10443,"ango":10444,"Ġdirector":10445,"ç§":10446,"kind":10447,"ĠLicense":10448,"ĠIndust":10449,"Ġuniversity":10450,"clin":10451,"ï¸ı":10452,"ĠCamp":10453,"prefix":10454,"fb":10455,"omal":10456,"Ġprecisely":10457,"Ġloan":10458,"mintupdate":10459,"Ġ---":10460,"GET":10461,"Ġgeometric":10462,"âĢĻ.":10463,"ĠWall":10464,"Ġelif":10465,"Ġstrugg":10466,"Effect":10467,"Ġcombinations":10468,"ĠEth":10469,"Ġserves":10470,"izers":10471,"Ġformulas":10472,"Ġtriangles":10473,"backs":10474,";)":10475,"Ġ600":10476,"Ġnoun":10477,"users":10478,"idespread":10479,"Ġsteam":10480,"Ġfertil":10481,"Thanks":10482,"Ġindustries":10483,"perm":10484,"xs":10485,"Enc":10486,"Ġborrow":10487,"âĢ¦âĢ¦":10488,"ni":10489,"two":10490,"Ġsought":10491,"Ġrac":10492,"ĠLibrary":10493,"Ġcubic":10494,"Ġheter":10495,"Ġexperts":10496,"Ġinvestigation":10497,"Ġmanager":10498,"Ġbare":10499,"Ġresem":10500,"imm":10501,"Ġregulation":10502,"Ġaccessible":10503,"Ġ56":10504,"Ġ72":10505,"Ġmatches":10506,"íķĺ":10507,"offset":10508,"Î²":10509,"ĠArea":10510,"Ġwhenever":10511,"Ġrural":10512,"Ġprey":10513,"ĠIrish":10514,"Ġwriters":10515,"emon":10516,"Ġranges":10517,"Ġcrypt":10518,"Ġchemicals":10519,"tok":10520,"ĠWord":10521,"ester":10522,"Ġcheap":10523,"Ġguns":10524,"sigma":10525,"Ġasc":10526,"Ġdrinking":10527,"tles":10528,"Ġcolonial":10529,"Ġoral":10530,"Ġindicating":10531,"ãĥ¼":10532,"Ġdates":10533,"361666":10534,"Ġalbum":10535,"kt":10536,"Ġundefined":10537,"ascular":10538,"Auth":10539,"Ġ____":10540,"ceive":10541,"Ġsvn":10542,"^\\":10543,"Ġnewsp":10544,"Ġvaccine":10545,"Ġlibraries":10546,"cha":10547,"gressive":10548,"Ġfilms":10549,"ĠNature":10550,"Ġourselves":10551,"sur":10552,"ucl":10553,"Ġthrows":10554,"174696":10555,"Ġcontroller":10556,"ĠMartin":10557,"ceil":10558,"ĠPath":10559,"Ġneurons":10560,"Ġmic":10561,"CodeAssembler":10562,"ĠTimes":10563,"comment":10564,"2005":10565,"instein":10566,"Ġgranted":10567,"adc":10568,"Ev":10569,"Ġ52":10570,"Ġpeoples":10571,"Ġexisted":10572,"Ġvaries":10573,"rivial":10574,"Ġofficers":10575,"Graph":10576,"Ġsomebody":10577,"Ġdecade":10578,"leq":10579,"ITY":10580,"ĠNations":10581,"endor":10582,"Ġviewed":10583,"Ġseriously":10584,"ysical":10585,"Ġ++":10586,"Like":10587,"ĠAtlantic":10588,"Ġshorter":10589,"Ġsending":10590,"irtual":10591,"arer":10592,"Ġedit":10593,"å¯¹":10594,"dart":10595,"Inv":10596,"ĠCore":10597,"Ġfaced":10598,"Ġcorresponds":10599,"åĴĮ":10600,"Ġworldwide":10601,"ĠCopy":10602,"GA":10603,"Ġdropped":10604,"likely":10605,"heast":10606,"Ġracial":10607,"0001":10608,"Ġemit":10609,")|":10610,"Ġnumpy":10611,"Ġconsciousness":10612,"operation":10613,"ĠEngineering":10614,"boost":10615,"275":10616,"expr":10617,"Ġexport":10618,"Ġsad":10619,"Every":10620,"ÂłÂłÂłÂłÂłÂłÂł":10621,"ĠBab":10622,"Ġ..":10623,"ĠSupreme":10624,"hered":10625,"Ġsatellite":10626,"oust":10627,"Ġ46":10628,"dim":10629,"-.":10630,"Amount":10631,"Ġreceiving":10632,"Draw":10633,"arma":10634,"Ġspiritual":10635,"unique":10636,"cols":10637,"ĠTO":10638,"Ġdistinguish":10639,"Ġju":10640,"ĠJeff":10641,"rons":10642,"Ġmatching":10643,"Ġenabled":10644,"ĠJoseph":10645,"Ġfrequent":10646,"ĠManagement":10647,"Ġoptical":10648,"Ġcontributions":10649,"[:,":10650,"å±":10651,"Ġsupplement":10652,"Ġislands":10653,"ãĤĴ":10654,"ĠNASA":10655,"Ġperm":10656,"Ġfaces":10657,"ĠĠĠĠĠĠĠĠĠĠĠĠĠĠĠĠĠĠĠĠĠĠĠĠĠĠĠĠĠ":10658,"Ġcurves":10659,"Ġâī¤":10660,"Ġpreval":10661,"Ġcommands":10662,"-->":10663,"Ġsubstances":10664,"Ġremoving":10665,"wa":10666,".]":10667,".<":10668,"ë¥":10669,"å®ļ":10670,"NET":10671,"essions":10672,"Ġconsideration":10673,"aped":10674,"Ac":10675,"Ġhab":10676,"Ġvideos":10677,"Ġtaste":10678,"MB":10679,"mes":10680,"amely":10681,"Look":10682,"Ġkilomet":10683,"lation":10684,".\",":10685,"lower":10686,"Ġhurt":10687,"dp":10688,"Author":10689,"Ġbought":10690,"Ġlosing":10691,"Ġdecreases":10692,"ados":10693,"reset":10694,"Ġdemocracy":10695,"Ġcircles":10696,"istically":10697,"ktop":10698,"Ã¨":10699,"Ġengines":10700,"Ġpsychological":10701,"SIZE":10702,"bes":10703,"language":10704,"URE":10705,"tool":10706,"Tool":10707,"Ġlob":10708,"Ġaccurately":10709,"Ġ54":10710,"ĠModern":10711,"ÑĢÐ¸":10712,"Ġphoto":10713,"Ġfacilities":10714,"Ġinject":10715,"åĢ":10716,"Ġtends":10717,"Ġsuspect":10718,"Ġsurprising":10719,"Ġvocabulary":10720,"Ġcomputation":10721,"à§":10722,"ĠStudy":10723,"Ġflash":10724,"*.":10725,"margin":10726,"Ġcriminal":10727,"Ġangular":10728,"Ġsuit":10729,"Ġamplit":10730,"Ġtons":10731,"Ġallerg":10732,"Ġrising":10733,"Ġfeeding":10734,"ĠSolution":10735,"factory":10736,"Ġdeaths":10737,"Ġloading":10738,"ĠCommittee":10739,"Second":10740,"Ġbeneficial":10741,"dl":10742,"ĠThank":10743,"ĠCard":10744,"Ġcollapse":10745,"Ġtransmit":10746,"ĠAppro":10747,"acher":10748,"Ġblank":10749,"Ġseparation":10750,"Ġannounced":10751,"Ġsuffering":10752,"Ġnervous":10753,"Ġproven":10754,"Ġfant":10755,"Ġwidespread":10756,"eness":10757,"apsed":10758,"Îµ":10759,"Ġobj":10760,"ĠChicago":10761,"Ġtransparent":10762,"=\\\"":10763,"Ġtract":10764,"uma":10765,"Ġamazing":10766,"Ġimmun":10767,"Ġsupplies":10768,"Ġvitamin":10769,"Ġcharges":10770,"ĠHor":10771,"ORT":10772,"ÏĦ":10773,"security":10774,"Ġoverride":10775,"Ġchecks":10776,"ĠHIV":10777,"comput":10778,"Ġbatt":10779,"Ġwrap":10780,"Ġmasses":10781,"PDF":10782,"Ġfucking":10783,"auge":10784,"ilateral":10785,"ogether":10786,"ĠOrig":10787,"Ġflying":10788,"ĠVersion":10789,"Ġna":10790,"Ġ'/":10791,"ĠDivision":10792,"Ġinvasion":10793,"Ġstrike":10794,"åĪĨ":10795,"Ġnucleus":10796,"Ġwa":10797,"ĠHi":10798,"Ġcooling":10799,"foo":10800,"ĠCarolina":10801,"Ġchose":10802,"application":10803,"Ġcombine":10804,"Ġmas":10805,"ova":10806,"Ġadministr":10807,"Ġmodify":10808,"Ġassets":10809,"Ġsubstantial":10810,"stein":10811,"IME":10812,"dfrac":10813,"Ġmedian":10814,"Ġcoin":10815,"Ġcapabilities":10816,"arest":10817,"meta":10818,"'])":10819,"chain":10820,"Ġabuse":10821,"Ġirr":10822,"Ġglucose":10823,"èĩ":10824,"ĠQuant":10825,"Ġanalyzed":10826,"aussian":10827,"MT":10828,">:":10829,"Que":10830,"Ġindirect":10831,"ĠDutch":10832,"ãģĻ":10833,"Ġ1992":10834,"Ġcopies":10835,"John":10836,".:":10837,"Ġok":10838,"ĠOtt":10839,"Ġcrew":10840,"EMAIL":10841,";-":10842,"oured":10843,"onald":10844,"azz":10845,"Found":10846,"Ġresolve":10847,"oa":10848,"ĠbalanceOf":10849,"strap":10850,"Ġpresentation":10851,"ftware":10852,"ĠSem":10853,"ulator":10854,"iral":10855,"Ġsimultaneously":10856,"Î¸":10857,"Ġemergency":10858,"Ġplasma":10859,"Ġ1950":10860,"Ġ1993":10861,"è¦ģ":10862,"Rect":10863,"Ġcalcium":10864,"azine":10865,"ĠApplication":10866,"ĠFlorida":10867,"Ġessay":10868,"Bas":10869,"=-":10870,"Ġdemands":10871,"oir":10872,"Ġstrain":10873,"depth":10874,"romagnetic":10875,"Ġdesert":10876,"omer":10877,"Ġsocieties":10878,"Ġgeneric":10879,"ando":10880,"ouds":10881,"Ġbio":10882,"ĠThough":10883,"agen":10884,"ĠSpecial":10885,"ĠUnit":10886,"Ġdot":10887,"Ġtransportation":10888,"ercise":10889,"Ġvictory":10890,"Ġconstructor":10891,"Ġfought":10892,"Ġthereby":10893,"Ġmirror":10894,"Thus":10895,"tan":10896,"ĠNetwork":10897,"Ġconfused":10898,"okes":10899,"Ġmacro":10900,"524":10901,"Ġtrends":10902,"Ġtemporary":10903,"ashes":10904,"Ġspr":10905,"Ġgenerator":10906,"ifiers":10907,"Ġprominent":10908,"uts":10909,"Ġcodes":10910,"ĠSP":10911,"support":10912,"Ġsilver":10913,"Ġrequirement":10914,"Ġdedicated":10915,"Ġbeta":10916,"ressive":10917,"Ð²Ð°":10918,"Ġteen":10919,"ĠCub":10920,"gov":10921,"Rev":10922,"Ġvotes":10923,"ĠON":10924,"Ġnewly":10925,"shot":10926,"libsvn":10927,"Ġbread":10928,"Ġbreaks":10929,"Ġcompl":10930,"ĠVict":10931,"har":10932,"Ġcommitted":10933,"ĠIraq":10934,"oggle":10935,"Ġtone":10936,"Ġsoul":10937,"ë¡ľ":10938,"Ġanalyses":10939,"Ġreply":10940,"Further":10941,"ĠGuide":10942,"Ġspl":10943,"ori":10944,"Ġboys":10945,"Ġissued":10946,"aml":10947,"Ġcounting":10948,"Ġearliest":10949,"Ġorientation":10950,"#,":10951,"Ġarithmetic":10952,"emia":10953,"ĠPerhaps":10954,"ais":10955,"icul":10956,"Ġacquired":10957,"Ġvarying":10958,"activ":10959,"Ġhusband":10960,"always":10961,"2004":10962,"Ġguidelines":10963,"illion":10964,"Ġeverybody":10965,"Ġvillage":10966,"Ġpresents":10967,"Ġevaluated":10968,"aired":10969,"Ġlearners":10970,"Ġconsiderable":10971,"pons":10972,"clear":10973,"ĠFace":10974,"cerning":10975,"Ġdescribing":10976,"Ġconsequence":10977,"Ġparticipate":10978,"Ġdiver":10979,"aler":10980,"Ġbroke":10981,"ĠMove":10982,"Ġposit":10983,"Ġbreathing":10984,"ĠIssue":10985,"ÑĤÑĮ":10986,"flu":10987,"Ġmurder":10988,"Ġyields":10989,"Ġuncertainty":10990,"BI":10991,"105":10992,"Ġchest":10993,"Ġmagnet":10994,"ĠRh":10995,"Ġpolyg":10996,"equals":10997,"ĠExpl":10998,"gex":10999,"Ġintu":11000,"Ġmetrics":11001,"Home":11002,"isting":11003,"Ġcoffe":11004,"Ġintern":11005,"Ġunlike":11006,"ĠHill":11007,"Ġrivers":11008,"Ġlaunched":11009,"verty":11010,"2001":11011,"Ġwound":11012,"opher":11013,"auc":11014,"Ġhide":11015,"Ġcolony":11016,"ĠPos":11017,"âĢĻ,":11018,"Ð¾Ð±":11019,"Ġmail":11020,"Ġmeaningful":11021,"Ġselling":11022,"wered":11023,"ĠPot":11024,"Ġeffectiveness":11025,"Ġpoverty":11026,"Ñİ":11027,"ĠWithout":11028,"Sur":11029,"screen":11030,"çī":11031,"Ġ1991":11032,"ented":11033,"padding":11034,"Ġstations":11035,"letion":11036,"Ġvot":11037,"Ġreaches":11038,"Ġprefix":11039,"Ġauthorities":11040,"LAS":11041,"äºĨ":11042,"Ġsorry":11043,"icious":11044,"zip":11045,"odynam":11046,"Ġthinks":11047,"Ġinherent":11048,"Ġfunc":11049,"Ġpermission":11050,"iology":11051,"controller":11052,"ìļ":11053,"Ġvow":11054,"ima":11055,"Ġeverywhere":11056,"Ġlaid":11057,"Ġgenerating":11058,"Ġchecked":11059,"Ġcandidates":11060,"ĠIndeed":11061,"Ġcarb":11062,"ĠNettles":11063,"Therefore":11064,"Writ":11065,"arith":11066,"Ġamino":11067,"ĠJac":11068,"Ġexecuted":11069,"Ġdies":11070,"NaN":11071,"itance":11072,"Pool":11073,"HO":11074,"Ġfunds":11075,"Ġdefines":11076,"lean":11077,"Handle":11078,"elect":11079,"Ġautonom":11080,"aland":11081,"(*":11082,"ACK":11083,"cup":11084,"\"));":11085,"ĠVe":11086,"Ġalert":11087,"ceptions":11088,"Ġcomputed":11089,"Ġfacing":11090,"Ġentries":11091,"Ġburning":11092,"Ġidentification":11093,"Ġdraft":11094,"unte":11095,"Ġantic":11096,"Ġsuffer":11097,"buffer":11098,"aylor":11099,"ĠFouts":11100,"Ġmedications":11101,"sex":11102,"Ġnest":11103,":/":11104,"selected":11105,"Ġremoval":11106,"ĠValley":11107,"WriteLine":11108,"Ġprintf":11109,"hs":11110,"ERROR":11111,"People":11112,"Ġremind":11113,"ĠArchived":11114,"ĠMel":11115,"Ġregulations":11116,"ĠConfed":11117,"yan":11118,"century":11119,"olves":11120,"ĠMaterial":11121,"Ġmistake":11122,"wargs":11123,"ifer":11124,"processing":11125,"CRE":11126,"Ġrepository":11127,"ibl":11128,"Ġplenty":11129,"ĉĉĉĉĉĉĉĉĉ":11130,"Ġcurriculum":11131,"Ġcontam":11132,"WS":11133,"Ġlegit":11134,"ĠInteger":11135,"ji":11136,"Ġquiet":11137,"Ġdose":11138,"Ġingred":11139,"Ġkit":11140,"Option":11141,"role":11142,"Ġwindows":11143,"Ġxml":11144,"éĻ":11145,"Ġions":11146,"Names":11147,"oked":11148,"Ġdin":11149,"Ġbrings":11150,"ĠWrit":11151,"amine":11152,"Ġlaboratory":11153,"Expression":11154,"Î½":11155,"Ġgly":11156,"Finally":11157,"UD":11158,"Make":11159,"BM":11160,"Ġexhaust":11161,"GC":11162,"Ġmodeling":11163,"report":11164,"chat":11165,"fin":11166,"Ġregarded":11167,"æŃ":11168,"çľ":11169,"ĠBrazil":11170,"ĠGrade":11171,"Ġpersonality":11172,"Ġmarketing":11173,"Ġexecute":11174,"æĸ¹":11175,"Ġpenal":11176,"ĠIdent":11177,"Reference":11178,"Ġidentifying":11179,".|":11180,"Ġinfant":11181,"ĠNA":11182,"Ġcrack":11183,"esome":11184,"PO":11185,"Ġoffering":11186,"domain":11187,"uis":11188,"Ġcup":11189,"ĠField":11190,"Ġreflected":11191,"Ġreaching":11192,"***":11193,"lan":11194,"coln":11195,"ĠNatural":11196,"-%":11197,"Ġdeleg":11198,"ĠPolit":11199,"Ġhousing":11200,"Ġeveryday":11201,"ben":11202,"ĠïĢ":11203,"Ġcoffee":11204,"HA":11205,"dark":11206,"ieval":11207,"Services":11208,"prec":11209,"900":11210,"ĠProfess":11211,"Ġ\"-":11212,"Ġmanual":11213,"Program":11214,">)":11215,"formed":11216,"Ġinvalid":11217,"icide":11218,"Delete":11219,"brew":11220,"Ġbiology":11221,"Ġbat":11222,"Ġdance":11223,"bow":11224,"}+":11225,"Ġenv":11226,"ĠKar":11227,"rid":11228,"ä»¶":11229,"sun":11230,"bul":11231,"Ġpdf":11232,"ĠPalest":11233,"ĠPrint":11234,"ĠMen":11235,"Ġhat":11236,"Ġattend":11237,"Ġverify":11238,"Ġreflection":11239,"Ġlikelihood":11240,"isons":11241,"\\\":":11242,"Ġmeter":11243,"ortion":11244,"Ġlaser":11245,"Ġoccurring":11246,"Ġfer":11247,"Ġadvent":11248,"ĠAngel":11249,"Ġavailability":11250,"Ġweren":11251,"Ġintense":11252,"ĠBoard":11253,"Ġregime":11254,"Ġopposition":11255,"bn":11256,"åįķ":11257,"Tag":11258,"Ġ'@":11259,"advant":11260,"Ġpartition":11261,"Ġmodules":11262,"Ġtension":11263,"rf":11264,"uer":11265,"Ġvibr":11266,"Ġfract":11267,"Ġmild":11268,"Ġperceived":11269,"Ġdevelopers":11270,"Ġclusters":11271,"amps":11272,"Ġbuying":11273,"Ġinsight":11274,"Ġphenomena":11275,"Ġplanned":11276,"Ġdiscrete":11277,"xe":11278,"Ġlegislation":11279,"Ġwrites":11280,"ĠLoad":11281,"Ġsettlement":11282,"Ġintention":11283,"arse":11284,"ryption":11285,"printf":11286,"ĠCast":11287,"ĠFood":11288,"pad":11289,"ublished":11290,"ĠUnfortunately":11291,"ãģĹ":11292,"Ġ51":11293,"ellar":11294,"Ġseeking":11295,"ĠLow":11296,"Ġsingular":11297,"Ġtrading":11298,"stable":11299,"ĠEq":11300,"Ġthorough":11301,"Ġbringing":11302,"ogenic":11303,"cient":11304,"Ġprohib":11305,"dependency":11306,"Ġdelivery":11307,"fi":11308,"pendicular":11309,"Ġsurve":11310,"ACE":11311,"Ġru":11312,"èĥ½":11313,"vc":11314,"upload":11315,"Ġelsewhere":11316,"Email":11317,"Ġempir":11318,"azy":11319,"Ġcontributed":11320,"ĠÎ¼":11321,"Ġcongr":11322,"Ġ'./":11323,"Ġparams":11324,"Ġintake":11325,"Ġdictionary":11326,"ĠØ":11327,"terior":11328,"Ġdistinction":11329,"Ġtur":11330,"Return":11331,"Ġnose":11332,"Ġexploration":11333,"Ġpseud":11334,"wikipedia":11335,"WORD":11336,"Ð¾Ð¼":11337,"LC":11338,"Ġassignment":11339,"Ġviruses":11340,"ynasty":11341,"login":11342,"è¾":11343,"Ġcourses":11344,"Definition":11345,"Ġchildhood":11346,"cout":11347,"ods":11348,"Vol":11349,"Ġadapted":11350,"rivers":11351,"ĠAsian":11352,"Ġdisput":11353,"ethe":11354,"omega":11355,"Ġpossibilities":11356,"âĢĺ":11357,"Ġ----------------":11358,"irth":11359,"iece":11360,"Ġcreatures":11361,"Ġmedication":11362,"Ġstuck":11363,"ificate":11364,"Ġ01":11365,"Ġgenome":11366,"ï¼ī":11367,"Collection":11368,"Ġassistance":11369,")[":11370,"ĠLink":11371,"ema":11372,"arts":11373,"INFO":11374,"STAT":11375,"xA":11376,"SF":11377,"ĠSecurity":11378,"Ġadm":11379,"ĠImport":11380,"Ð»ÑĮ":11381,"rival":11382,"ĠSecret":11383,"Ġcab":11384,"Ġdistributions":11385,"Ġlingu":11386,"chen":11387,"ĠSeries":11388,"Account":11389,"ĠSwed":11390,"ĠLinux":11391,"Ġconsumers":11392,"Google":11393,"aze":11394,"Ġalleg":11395,"ĠNavy":11396,"Hash":11397,"ĠLabor":11398,"toString":11399,"EG":11400,"fx":11401,"Ġfinger":11402,"Ġattitude":11403,"Ġtries":11404,"ĠIntegr":11405,"ìĹĲ":11406,"Pan":11407,"Î»":11408,"ĠSolutions":11409,"Ġscholars":11410,"Ġfur":11411,"Ġeliminate":11412,"!)":11413,"Ġreplacement":11414,"wait":11415,"Ġ85":11416,"cribed":11417,"Ġinnovation":11418,"through":11419,"Ġunlikely":11420,"reek":11421,"Ġexhibit":11422,"ìĿĺ":11423,"Ġpitch":11424,"Ġlengths":11425,"fection":11426,"Session":11427,"ì§":11428,"may":11429,"iana":11430,"Ġhunting":11431,"Dr":11432,"ibration":11433,"Props":11434,"Dep":11435,"Ġheating":11436,"cludes":11437,"ĠPRO":11438,"Ġconsisting":11439,"HD":11440,"wall":11441,"Ġradi":11442,"Ġdividing":11443,"igm":11444,"Ġdiscrimination":11445,"raud":11446,"ĠSenate":11447,"ĠCross":11448,"/(":11449,"Ġemployment":11450,"ett":11451,"Ġjudge":11452,"ĠAuthor":11453,"shared":11454,"Ġmining":11455,"2003":11456,"')\\":11457,"Rest":11458,"Ġfiber":11459,"ko":11460,"Ġpriority":11461,"plane":11462,"Ġputs":11463,"adder":11464,"ĠSolar":11465,"Ġ53":11466,"Ġongoing":11467,"SU":11468,"Ġcopper":11469,"Ïģ":11470,"Ġfragment":11471,"Cap":11472,"Ġhousehold":11473,"found":11474,"Ġdifficulties":11475,"dm":11476,"fac":11477,"Ġqueue":11478,"ĠFoundation":11479,"Ġinflammation":11480,"Ġbands":11481,"Ġsegments":11482,"Ġcoding":11483,":\\\\":11484,"ĠIcons":11485,"Ġroutine":11486,"ĠPortug":11487,"redit":11488,"Ġincident":11489,"Ġeld":11490,"orses":11491,"ĠBul":11492,"ucks":11493,"ï¿½ï¿½":11494,"Ġscenarios":11495,"Ġms":11496,"Ġattempted":11497,"Ġorganism":11498,"Ġpreparation":11499,"Ġherself":11500,"otypes":11501,"Ps":11502,"Ġnamely":11503,"Ġdigest":11504,"Ùħ":11505,"Ġhook":11506,"Ġdense":11507,"Ġcoverage":11508,"Ġsensory":11509,"Ġcontemporary":11510,"ĠFed":11511,"Ġprocessed":11512,"Ġstere":11513,"NC":11514,"Utils":11515,"Ġposted":11516,"Ġpra":11517,"contact":11518,"Ġlights":11519,"console":11520,"Ġappreciate":11521,"VO":11522,"ĠEss":11523,"Ġdil":11524,"Ġfunctionality":11525,"Ġmanifest":11526,"Ġbreeding":11527,"Ġinduced":11528,"Ġ\"@":11529,"Ġrecording":11530,"æį®":11531,"Ġsuggesting":11532,"||||||||":11533,"Ġrefused":11534,"Ġrectangle":11535,"áº":11536,"Ġterminal":11537,"Ġrobot":11538,"æĮ":11539,"Ġsuperv":11540,"é¢":11541,"BB":11542,"Ġkick":11543,"ĠOffice":11544,"seq":11545,"ĠBern":11546,"Ġreveal":11547,"Ġyouth":11548,"viously":11549,"Random":11550,"Ġvacuum":11551,"ragment":11552,"Ġoverw":11553,"earing":11554,"Grid":11555,"(\"/":11556,"Ġpayment":11557,"xis":11558,"ĠIfxScu":11559,"plant":11560,"Ġscatter":11561,"equal":11562,"orient":11563,"Fore":11564,"Ġfing":11565,"ĠRock":11566,"Ġaddresses":11567,"ĠSearch":11568,"Ġexercises":11569,"Ġpurs":11570,"bat":11571,"bro":11572,"Ġencounter":11573,"ĠBra":11574,"Ġserial":11575,"EC":11576,"Ġcounts":11577,"Ġacceptable":11578,"Ġasks":11579,"article":11580,"norm":11581,"Ġspecialized":11582,"Ġroyal":11583,"ĠSir":11584,"ĠLO":11585,"Ġanten":11586,"ugg":11587,"driv":11588,"rolled":11589,"inals":11590,"Ġpray":11591,"Ġmeta":11592,"Ġarchae":11593,"Ġdefining":11594,"Ġoccupied":11595,"ĠLee":11596,"ĠBased":11597,"Area":11598,"Ġenables":11599,"Ġfrust":11600,"Ġdisturb":11601,"ĠBob":11602,"Īĺ":11603,"Ġaward":11604,"Dialog":11605,"Ġneighborhood":11606,"Ġtens":11607,"Ġloaded":11608,"Ġrevenue":11609,"ĉĠĠĠ":11610,"consc":11611,"Ġpoison":11612,"Ġgods":11613,"chers":11614,"Ġquarter":11615,"Ġcovering":11616,"Ġfloating":11617,"Ġglo":11618,"rounded":11619,"eping":11620,"Ġreproduce":11621,"Ġemotion":11622,"Ġseat":11623,"Ġdating":11624,"Channel":11625,"Ġclassic":11626,"cin":11627,"Ġmodes":11628,"rectangle":11629,"Ġrestaur":11630,"Ġvo":11631,"Ġchemistry":11632,"ĠTotal":11633,"cloud":11634,"Ġsees":11635,"vs":11636,"Ġtick":11637,"ĠNorm":11638,"execute":11639,"Ġrestricted":11640,"Ġcalculus":11641,"âĨ":11642,"Ġmerge":11643,".$":11644,"MD":11645,"rust":11646,"Ġalph":11647,"Ġcomfortable":11648,"æĪĲ":11649,"Ġtraditions":11650,"reams":11651,"ĠMinister":11652,"Ġgarden":11653,"etration":11654,"abling":11655,"Ġignored":11656,"Ġmetals":11657,"ĠSyn":11658,"Ġmuse":11659,"Big":11660,"Ġcrazy":11661,"eros":11662,"Ġcoastal":11663,"Ġflexible":11664,"nc":11665,"Ġrepresentative":11666,"ÐµÑĢ":11667,"Ġintermediate":11668,"Ġvariant":11669,"ila":11670,"Ġwal":11671,"global":11672,"Ġrecover":11673,"cury":11674,"ĉĉĉĉĉĉĉĉĉĉĉĉĉĉ":11675,"ãĤĭ":11676,"ivered":11677,"sharp":11678,"History":11679,"Ġpars":11680,"Ġvoting":11681,"Ġenorm":11682,"ĠAcademy":11683,"who":11684,"Ġquot":11685,"Ġcenters":11686,"$$\\":11687,"SET":11688,"ä¹Ī":11689,"ĠHTTP":11690,"ategy":11691,"tools":11692,"ĠEr":11693,"36166654":11694,"Ġ256":11695,"_\\":11696,"vari":11697,"ĠPoland":11698,"Ġrit":11699,"track":11700,"Ġhybrid":11701,"ometer":11702,"Ġovercome":11703,"square":11704,"contract":11705,"Sk":11706,"Ġ74":11707,"sen":11708,"Ġjavax":11709,"Ġapproved":11710,"Ġconvenient":11711,"Ġdestination":11712,"Ïĥ":11713,"irus":11714,"vi":11715,"Ġcube":11716,"ĠAmong":11717,"oston":11718,"inator":11719,"Ġprecip":11720,"SCU":11721,"è¿Ļ":11722,"çĲ":11723,"Ġelections":11724,"ador":11725,"ĠĠĠĠĠĠĠĠĠĠĠĠĠĠĠĠĠĠĠĠĠĠĠĠĠĠĠĠ":11726,"Ġshaped":11727,"Ġliberal":11728,"ĠFOR":11729,"Ġhint":11730,"Ġpromoting":11731,"Play":11732,"ĠArticle":11733,"kernel":11734,"mn":11735,"ĠRepublican":11736,"forms":11737,"eor":11738,"ĠCommun":11739,"Ġattacked":11740,"Ã±":11741,"ancel":11742,"cyclopedia":11743,"Ġclients":11744,"Ġecosystems":11745,"QU":11746,"ĠGreece":11747,"Ġmotivation":11748,"ĠMachine":11749,"ERS":11750,"âĸĪ":11751,"Job":11752,"La":11753,"raid":11754,"Ġutility":11755,"DT":11756,"iological":11757,"Ġsymmetric":11758,">;":11759,"Ġacute":11760,"Ġrhyth":11761,"æĸĩ":11762,"download":11763,"engine":11764,"LI":11765,"Ġbalanced":11766,"Ġemerged":11767,"ìĬ":11768,"channel":11769,"Ġtumor":11770,"ĠDise":11771,"Ġunw":11772,"Ġinteractive":11773,"Ġglac":11774,"Ġfruits":11775,"Ġnobody":11776,"cover":11777,"eric":11778,"Ġreturning":11779,"ĠÐ½Ð°":11780,"Ġprinted":11781,"Ġlymph":11782,"pert":11783,"Ġfever":11784,"Ġcot":11785,"ĠVector":11786,"widget":11787,"Ġestimation":11788,"ĠAz":11789,"ĠPDF":11790,"ĠSuper":11791,"Ġappointed":11792,"GR":11793,"é¡":11794,"Ġchoosing":11795,"Ġdual":11796,"Ġfilters":11797,"Ġdefeat":11798,"Display":11799,"ĠEdward":11800,"Ġlets":11801,"Ġminerals":11802,"Ġsmoke":11803,"take":11804,"Ġanimation":11805,"agues":11806,"Ġ58":11807,"Ġintest":11808,"Ġunusual":11809,"Dir":11810,"ÑĦ":11811,"omain":11812,"Ġgreenhouse":11813,"Ġprinting":11814,"ĠPak":11815,"Only":11816,"fff":11817,"Ġentertain":11818,"Ġpushed":11819,"Ġchat":11820,"Ġgrain":11821,"Ġcursor":11822,"Ġcalculating":11823,"speed":11824,"ĠOp":11825,"yer":11826,"perature":11827,"á¹":11828,"Store":11829,"Ġfetch":11830,"igger":11831,"Ġfunny":11832,"itarian":11833,"rrd":11834,"rowth":11835,"questions":11836,"III":11837,"iger":11838,"Ġmutations":11839,"Ġpatch":11840,"ĠComputer":11841,"ĠHarry":11842,"Ġemission":11843,"mb":11844,"Ġintellectual":11845,"ĠFROM":11846,"opath":11847,"Ġbath":11848,"Results":11849,"Ġindependently":11850,"Ġabsorption":11851,"mos":11852,"Ġdepartment":11853,"å¤§":11854,"ĠIndex":11855,"was":11856,"119":11857,"ICE":11858,"gorithm":11859,"Ġlicense":11860,"profile":11861,"ductor":11862,"Sing":11863,"ĠLincoln":11864,"Ġrepair":11865,"Tim":11866,"Maybe":11867,"ï¼Ī":11868,"chromium":11869,"squ":11870,"Ġarise":11871,"Delta":11872,"Ġexpectations":11873,"iner":11874,">'":11875,"Ġpromise":11876,"clean":11877,"Ġpartially":11878,"ographical":11879,"ĠReturn":11880,"ventions":11881,"Ġboot":11882,"Ġrandomly":11883,"Ġadequate":11884,"Ġprofessionals":11885,"HTML":11886,"Po":11887,"Files":11888,"ologically":11889,"ĠJohnson":11890,"ĠEN":11891,"2666":11892,"Ġdegrad":11893,"Ð½Ñĭ":11894,"apon":11895,"ĠCre":11896,"Ġatmospheric":11897,"ĠSn":11898,"ĠCustom":11899,"rooms":11900,"Ġstrengthen":11901,"Ġtransferred":11902,"necess":11903,"Params":11904,"Orig":11905,"(!":11906,"Ġwinning":11907,"ä¼ļ":11908,"Period":11909,"Ġsettled":11910,"component":11911,"Ġ59":11912,"phant":11913,"Ġowned":11914,"Ġphysically":11915,"ependent":11916,"Ġruled":11917,"Ġpor":11918,"snippet":11919,"ensed":11920,"ĠHig":11921,"Ġcoinc":11922,"Ġglob":11923,"Ġfifth":11924,"\\,":11925,"usal":11926,"ĠWood":11927,"Ġoct":11928,"Ġconsec":11929,"LV":11930,"Opt":11931,"Ġrib":11932,"Ġbacterial":11933,"pur":11934,"Pop":11935,"ĠZealand":11936,"unct":11937,"endif":11938,"Ġfluct":11939,"76657":11940,"rene":11941,"\"?":11942,"Ġinfluences":11943,"views":11944,"ĠResponse":11945,"sns":11946,"urable":11947,"CV":11948,"]))":11949,"Ġconqu":11950,"Ġabol":11951,"Ġtechnological":11952,"assets":11953,"Ġsweet":11954,"Ġtelesc":11955,"Ġschedul":11956,"ĠĠĠĠĠĠĠĠĠĠĠĠĠĠĠĠĠĠĠĠĠĠĠĠĠĠ":11957,"Ġharmful":11958,"107":11959,"ograms":11960,"Ġmes":11961,"ĠExcel":11962,"uels":11963,"Ġpreventing":11964,"Ġparam":11965,"Ġproductivity":11966,"mega":11967,"Ġfabric":11968,"Ġintersection":11969,"ĠMO":11970,"ĠFar":11971,"ieve":11972,"ìĿĦ":11973,"aaaho":11974,"Ġweigh":11975,"Ġepid":11976,"Ġartist":11977,"ĠHitler":11978,"izon":11979,"Ġperpendicular":11980,"108":11981,"native":11982,"9706":11983,"ĠLocal":11984,"DI":11985,"CI":11986,"ĠRam":11987,"Ġsha":11988,"6174":11989,"anna":11990,"ĠColl":11991,"ÃĤ":11992,"Ġresidents":11993,"Ġsevent":11994,")*":11995,"Score":11996,"Ġsimplify":11997,"Ġengaged":11998,"å¸Ĥ":11999,"Ġbuck":12000,"ĠÂ°":12001,"ĠIM":12002,"Ġmineral":12003,"Ġbiom":12004,"Ġphon":12005,"766572666":12006,"actic":12007,"Ġcha":12008,"iÃ³n":12009,"Ġ(<":12010,"Ġminimize":12011,"Device":12012,"weet":12013,"law":12014,"ocom":12015,"bell":12016,"Ġfriction":12017,"quired":12018,"ĠSand":12019,"Ġhumanity":12020,"Ġparticipation":12021,"Ġvictim":12022,"arters":12023,"ĠMah":12024,"Ġtutorial":12025,"2002":12026,"iii":12027,"ĠSelect":12028,"orted":12029,"Ġ??":12030,"Ġethical":12031,"Ġemphasis":12032,"Ġ63":12033,"Drop":12034,"ĠAsk":12035,"Ð¾Ð³":12036,"folio":12037,"Ġwww":12038,"upiter":12039,"Ġcollective":12040,"ĠPolish":12041,"Ġexamined":12042,"Ġviolent":12043,"km":12044,"Ġbases":12045,"Ġpersonally":12046,"Args":12047,"ĠAmazon":12048,"Ġconcerning":12049,"Ġprivile":12050,"è´":12051,"Ġwars":12052,"integr":12053,"asses":12054,"Ġconflicts":12055,"Ġrounded":12056,"Obj":12057,"Ġ```":12058,"Ġrespiratory":12059,"Ġrice":12060,"Ġdefeated":12061,"lic":12062,"Ġpregnancy":12063,"utable":12064,"closed":12065,"Ġworker":12066,"balance":12067,"ĠUpdate":12068,"Ġimaging":12069,"Ġactively":12070,"Ġelementary":12071,"Ġaccommod":12072,"ãģ«":12073,"Ġsimpler":12074,"Ġguarantee":12075,"Ġcum":12076,"clos":12077,"Ġvisited":12078,"Ġ57":12079,"Ġtips":12080,"Ġboat":12081,"Î¿":12082,"åĪ°":12083,"Ġsister":12084,"coin":12085,"69636":12086,"Bean":12087,"translate":12088,"Ġcommission":12089,"ĠShould":12090,"awa":12091,"Ġearthqu":12092,"Ġconvention":12093,"Ġratios":12094,"Ġnarrative":12095,"Ġboxes":12096,"loader":12097,"LASF":12098,"Ġmortality":12099,"ogeneous":12100,"Ġ(\\":12101,"Ġnur":12102,"ĠGre":12103,"peat":12104,"cence":12105,"Ġschedule":12106,"Ġinspired":12107,"ONE":12108,"Ġaddressed":12109,"AF":12110,"Ġmock":12111,"agan":12112,"Ġarrays":12113,"Ġmoisture":12114,"Ġoutputs":12115,"Ġfarming":12116,"ASE":12117,"program":12118,"classes":12119,"ĠAction":12120,"metrics":12121,"Ġspoken":12122,"ĠJo":12123,"mers":12124,"ĠFall":12125,"Ġdiagonal":12126,"ski":12127,"Ġestablishment":12128,"7469706":12129,"Ġdenominator":12130,"ĠPur":12131,"ailing":12132,"ĠMur":12133,"standard":12134,"à¹":12135,"Ġsystematic":12136,"Ġserving":12137,"Ġstabil":12138,"riz":12139,"ĠException":12140,"Ġconclude":12141,"Ġtowns":12142,"6174683":12143,"69636174696":12144,"arding":12145,"Ġmammals":12146,"pip":12147,"uda":12148,"connected":12149,"Calcul":12150,"Ġblo":12151,"PD":12152,"Ġtreaty":12153,"ĠCould":12154,"Ġ66":12155,"Free":12156,"atio":12157,"Ġ1989":12158,"ju":12159,"Ġdys":12160,"ĠWould":12161,"because":12162,"Ġpixel":12163,"plotlib":12164,"Ġoverwhel":12165,"hm":12166,"Ġhonor":12167,"elfare":12168,"ĠSciences":12169,"Ġpipe":12170,"Ġflowers":12171,"à¥į":12172,"Ġhack":12173,"gamma":12174,"Ġcats":12175,"Age":12176,"Ġautism":12177,"initial":12178,"Ġinhabit":12179,"Ġplatforms":12180,"tebr":12181,"ĠGermans":12182,"ç±":12183,"ĠHam":12184,"plates":12185,"Ġenemies":12186,"Ġnamespace":12187,"ika":12188,"Ġcourts":12189,"Ġdetermines":12190,"Ġje":12191,"Ġbarrier":12192,"Ġplates":12193,"Ġmerch":12194,"Ġliv":12195,"ĠEinstein":12196,"angers":12197,"ĠIslamic":12198,"scss":12199,"Ġtracking":12200,"English":12201,"connection":12202,"Ġaimed":12203,"DataFrame":12204,"ourier":12205,"inson":12206,"ĠĠĠĠĠĠĠĠĠĠĠĠĊ":12207,"ritical":12208,"umped":12209,"Ġreserv":12210,"106":12211,"Parent":12212,"wan":12213,"ĠHa":12214,"ĠTree":12215,"ACC":12216,"PATH":12217,"ĠRemember":12218,"Ġintelligent":12219,"Ġsoph":12220,"ĠMicro":12221,"Ġarmed":12222,"Java":12223,"tip":12224,"xB":12225,"ulative":12226,"Ġclothing":12227,"Settings":12228,"rant":12229,"apes":12230,"ĠAN":12231,"Ġpeer":12232,"ximate":12233,"Ġsq":12234,"ĠConference":12235,"Ġdipl":12236,"Ġguidance":12237,"Day":12238,"Lear":12239,"Ġloud":12240,"ĠFeb":12241,"Ġsubstr":12242,"ĠExplain":12243,"Ġengaging":12244,"Ġcivilization":12245,"FAULT":12246,"iterator":12247,"atal":12248,"'))":12249,"Ġgauge":12250,"Ġpulled":12251,"ĠDemocratic":12252,"MAX":12253,"World":12254,"HS":12255,"ĠInterest":12256,"mov":12257,"Ġframes":12258,"ĠAlexander":12259,"Float":12260,"iva":12261,"quir":12262,"Ġ*)":12263,"Ġspeeds":12264,"Ġexamination":12265,"Reader":12266,"Ġquote":12267,"ĠIR":12268,"---|":12269,"commit":12270,"ĠDue":12271,"Ġsodium":12272,"=\"\"":12273,"ĠCell":12274,"Ġhtml":12275,"bserv":12276,"Ġconcluded":12277,"ĠOnline":12278,"ati":12279,"Ġentering":12280,"ĠEnt":12281,"itar":12282,"Ġdoctors":12283,"yyaau":12284,"record":12285,"Ġrefuge":12286,"ratio":12287,"Ġcompile":12288,"Ġwithdraw":12289,"xE":12290,"Ġscalar":12291,"Ġdamaged":12292,"asant":12293,"olester":12294,"Ġefficiently":12295,"flag":12296,"Ġimprovements":12297,"memory":12298,"leting":12299,"Ġ10000":12300,"ĠGL":12301,"etc":12302,"Ġphilosoph":12303,"Enum":12304,"capacity":12305,"æ³ķ":12306,"Ġul":12307,"Ġgrammar":12308,"ĠPut":12309,"ĠShort":12310,"Ġdeeply":12311,"102":12312,"Ġdollar":12313,"Ġforever":12314,"Password":12315,"Ġ2023":12316,"111":12317,"isition":12318,"productive":12319,"Ġkingdom":12320,"asket":12321,"Ġdrill":12322,"Ġinterpreted":12323,"ä½ľ":12324,"Ġmarginal":12325,"Ġsynthesis":12326,"portion":12327,"ĠChristians":12328,"Ġpert":12329,"station":12330,"WE":12331,"Ġswit":12332,"FixedString":12333,"éĿ":12334,"Bit":12335,"192":12336,"Ġsynchron":12337,"lif":12338,"rightarrow":12339,"Ġê°":12340,"à¤¾":12341,"Ġtransformed":12342,"ĠMajor":12343,"ĠEnter":12344,"Ġwearing":12345,"Double":12346,"health":12347,"ATG":12348,"Ġsoc":12349,"Ġisot":12350,"rin":12351,"ols":12352,"ĠSimple":12353,"åī":12354,"à®":12355,"between":12356,"ï¬":12357,"pub":12358,"Ġballs":12359,"ãģĦ":12360,"Ġencouraged":12361,"issues":12362,"ĠÐ·":12363,"Ġaside":12364,"IRQ":12365,"ĠRoad":12366,"Ġfellow":12367,"Ġnonlinear":12368,"ê³":12369,"Ġweakness":12370,"ĠNumbers":12371,"]),":12372,"ĠWars":12373,"Ġofficer":12374,"aaaza":12375,"âĸĦ":12376,"Ġbutter":12377,"}`":12378,"Ġaccompan":12379,"Ġsuffered":12380,"Ġsimulations":12381,"Ġswim":12382,"rock":12383,"Ġamplitude":12384,"Ġlogger":12385,"ĠVisual":12386,"Ġmountains":12387,"prob":12388,"ĠìĿ":12389,"sters":12390,"ĠUk":12391,"Ġfn":12392,"ĠDemocr":12393,"ĠChristianity":12394,"ĠBest":12395,"ä¾":12396,"Ġescap":12397,"Tra":12398,"Debug":12399,"Ġminority":12400,"Ġembedded":12401,"Profile":12402,"Ġtong":12403,".(":12404,"Ġmyst":12405,"Ġimplicit":12406,"Ġrod":12407,"Ġ67":12408,"loop":12409,"Matrix":12410,"ĠMid":12411,"Ġenzyme":12412,"FILE":12413,"ĠCommand":12414,"ç®":12415,"Ġvulnerable":12416,"Ġmoderate":12417,"Ġlifestyle":12418,"\"\"\"":12419,"Imp":12420,"Ġdress":12421,"è¡¨":12422,"Ġrequiring":12423,"onday":12424,"Ġexped":12425,"ĠScotland":12426,"Consider":12427,"ĠIF":12428,"activity":12429,"nu":12430,"Ġsatisfy":12431,"amilton":12432,"Ġroutes":12433,"sequently":12434,"|-":12435,"rupted":12436,"adel":12437,"ocent":12438,"Ġpreferences":12439,"Document":12440,"ront":12441,"Ġath":12442,"Ġadmit":12443,">-":12444,"Ġbonus":12445,"Ġtok":12446,"Ġtendency":12447,"Ġ1920":12448,"keras":12449,"Ġgalaxies":12450,"unday":12451,"Ġduty":12452,"Ġrejected":12453,"Ġplots":12454,"Ġdelivered":12455,"Ġcontrolling":12456,"High":12457,"ĠYoung":12458,"ĠSupport":12459,"engers":12460,"ĠNE":12461,"lvm":12462,"Ġfulfill":12463,"Ġlungs":12464,"iodiversity":12465,"Ġreporting":12466,"Ġafraid":12467,"Ġreads":12468,"orms":12469,"ĠÐ¼":12470,"ĠPractice":12471,"3333":12472,"changed":12473,"Ġforgot":12474,"Ġsolver":12475,"Ġsulf":12476,"Ġimplementing":12477,"Ġbroadcast":12478,"Ġrepet":12479,"ĠRest":12480,"Ġsurprised":12481,"Ġupload":12482,"Ġaffecting":12483,"ĠSmall":12484,"ĠCost":12485,"Ġloved":12486,"placeholder":12487,"Who":12488,"Ġthickness":12489,"Ġvegetables":12490,"aria":12491,"IX":12492,"Ġvictims":12493,"Sec":12494,"Ġrotate":12495,"Ġstops":12496,"Ġopinions":12497,"fields":12498,"iotics":12499,"Ġroof":12500,"1999":12501,"ä½ķ":12502,"require":12503,"Ġprovin":12504,"Ġsorted":12505,"ĠTre":12506,"}^{\\":12507,"Ġmood":12508,"ĠBlue":12509,"Ġsunlight":12510,"Ġsurprise":12511,"agram":12512,"uto":12513,"uming":12514,"ĠUr":12515,"Ġpsychology":12516,"ĠStill":12517,"addr":12518,"abeth":12519,"ĠTaylor":12520,"Section":12521,"epsilon":12522,"Ġgalaxy":12523,"hemistry":12524,"ä¸Ģä¸ª":12525,"Ġtalked":12526,"chi":12527,"Ġrespective":12528,"<?":12529,"Ġconstants":12530,"ë¥¼":12531,"ĠVolume":12532,"Ġconservative":12533,"good":12534,"Â´":12535,"ĠBit":12536,"Ġsuscept":12537,"Ġsensors":12538,"counts":12539,"Ġconclusions":12540,"Ġbeauty":12541,"(()":12542,"Ġjur":12543,"POST":12544,"quant":12545,"ĠLater":12546,"Ġtropical":12547,"Will":12548,"ĠBasic":12549,"Ġminus":12550,"ders":12551,"Av":12552,"Ġhex":12553,"Î¹":12554,"Ġpreserve":12555,"conv":12556,"ympt":12557,"Ġdistant":12558,"002":12559,"LOG":12560,"}>":12561,"çº":12562,"impl":12563,"Ġfo":12564,"Ġcoins":12565,"fare":12566,"bean":12567,"âĢĶâĢĶ":12568,"={{":12569,"ä¸Ĭ":12570,"izable":12571,"Ġdecor":12572,"merge":12573,"econom":12574,"issance":12575,"Ġthreads":12576,"LP":12577,"ĠUnderstanding":12578,"Ġtangent":12579,"Ġtooth":12580,"aver":12581,"Ġviral":12582,"Ġabnormal":12583,"gems":12584,"asts":12585,"Year":12586,"Ġstood":12587,"Ġwra":12588,"ĠQueen":12589,"Ġrecycl":12590,"735":12591,"prise":12592,"Policy":12593,"ĠDraw":12594,"Active":12595,"Ġscroll":12596,"Route":12597,"Ġdatasets":12598,"Ġfocusing":12599,"Ġ1930":12600,"ARY":12601,"auses":12602,"prime":12603,"logger":12604,"Ġirre":12605,"Ġterritories":12606,"ĠVictor":12607,"uclear":12608,"ASS":12609,"FE":12610,"coll":12611,"ĠPakistan":12612,"Ġdrops":12613,"ysics":12614,"Python":12615,"Di":12616,"ĠMethods":12617,"Ġenzymes":12618,"Ġdrain":12619,"rape":12620,"ĠSelf":12621,"ĠSeveral":12622,"çĲĨ":12623,"Ġrom":12624,"ipation":12625,"Ġven":12626,"Ġconvey":12627,"Copy":12628,"ĠMusic":12629,"pret":12630,"Ġentities":12631,"ĠDeterm":12632,"register":12633,"ĠWikipedia":12634,"uler":12635,"Ġforecast":12636,"ald":12637,"Ġopacity":12638,"Models":12639,"Ġunem":12640,"cli":12641,"ynthesis":12642,"Ġlocally":12643,"Ġslower":12644,"Ġip":12645,"ĠThird":12646,"ĠArg":12647,"optim":12648,"Ġnavigation":12649,"istant":12650,"ĠOP":12651,"Ġmathematic":12652,"ĠÏĦ":12653,"}\")":12654,"Ġreferen":12655,"iem":12656,"Ġtransmitted":12657,"Ġstrategic":12658,"Ang":12659,"Ġroads":12660,"å¥":12661,"Ġepoch":12662,"Ġprobabilities":12663,"queue":12664,"Ã§Ã£o":12665,"Ġalle":12666,"neum":12667,"Ġoccasionally":12668,"ĠCare":12669,"åıĳ":12670,"medium":12671,"Ġpainting":12672,"yroid":12673,"ĠMedia":12674,"vereign":12675,"returns":12676,"Ġvice":12677,"olesterol":12678,"Ġengineers":12679,"Ġster":12680,"Ġfactory":12681,"PRE":12682,"Ġfusion":12683,"Ġliber":12684,"ä½¿":12685,"PH":12686,"Ġham":12687,"ĠBang":12688,"Classifier":12689,"Ġminds":12690,"ĠEquation":12691,"Ġsale":12692,"379":12693,"Ġpaint":12694,"Ġlbs":12695,"Pay":12696,"Ġwider":12697,"Ġdenote":12698,"Ġsaving":12699,"ĠProblems":12700,"aaz":12701,"Ġaver":12702,"Ġrestrictions":12703,"ĠJim":12704,"Ġgrant":12705,"reference":12706,"Phone":12707,"Ġbom":12708,"2022":12709,"Cur":12710,"Ġpointing":12711,"ĠStatistics":12712,"åĩº":12713,"Ġfocuses":12714,"nee":12715,"ĠIT":12716,"merce":12717,"roup":12718,"Ġrelate":12719,"stackoverflow":12720,"settings":12721,"ĠWhether":12722,"Ġsyll":12723,"Ġsteady":12724,"irable":12725,"ĠSar":12726,"sized":12727,"Ġincl":12728,"itic":12729,"ĠEquations":12730,"ochond":12731,"resentation":12732,"Ġentropy":12733,"Ġodds":12734,"ĠHas":12735,"async":12736,"Ġpoem":12737,"Ġscientist":12738,"Ġimmigrants":12739,"ĠIncre":12740,"Ġaccord":12741,"Ġchair":12742,"Ġvaried":12743,"ĠPrice":12744,"ograp":12745,"prov":12746,"Ġprofound":12747,"UC":12748,"Ġfunctioning":12749,"160":12750,"Ġoptional":12751,"Ġdiscussions":12752,"Ġdisabled":12753,"Ġvolunte":12754,"ĠCase":12755,"eting":12756,"ĠÂ£":12757,"driver":12758,"ĠEs":12759,"ç¤":12760,"thal":12761,"Ġvegetation":12762,"Ġfootball":12763,"iture":12764,"anean":12765,"layers":12766,"'].":12767,"Goods":12768,"uction":12769,"Ġwings":12770,"Ġcellular":12771,"taining":12772,"rh":12773,"Ñī":12774,"Ġindigenous":12775,"Ġproposal":12776,"Ġbull":12777,"Ġgear":12778,"ĠMaths":12779,"Ġhabitats":12780,"annotation":12781,"Ġsmoking":12782,"OU":12783,"uten":12784,"Ġworship":12785,"Ġmanaging":12786,"ĠĠĠĊ":12787,"Ġclosest":12788,"Ġdecent":12789,"Ġusername":12790,"Ġinvestigated":12791,"dam":12792,"elve":12793,"ĠFunctions":12794,"Ġtargeted":12795,"Ġpublication":12796,"short":12797,"ĠWild":12798,"Ġreset":12799,"ĠAndroid":12800,"ÑĤÐ°":12801,"aters":12802,"Ġhorses":12803,"worth":12804,"Ġfemin":12805,"Ġreferring":12806,"Ġexcessive":12807,"103":12808,"Ġcrash":12809,"Ġincent":12810,"ĠZh":12811,"initely":12812,"etter":12813,"ç±»":12814,"Ġcompetitive":12815,"continu":12816,"Ġacknowled":12817,"except":12818,"Ġelastic":12819,"pathy":12820,"Print":12821,"ordinate":12822,"\">&":12823,"ĉĉĉĉĉĉĉĉĉĉĉĉĉ":12824,"âĸĦâĸĦ":12825,"bage":12826,"notations":12827,"Values":12828,"Ġcircuits":12829,"ĠBooks":12830,"Ġelectromagnetic":12831,"Ġapps":12832,"OO":12833,"Ġmanually":12834,"Ġcomputational":12835,"ivo":12836,"Chapter":12837,"runtime":12838,"figsize":12839,"should":12840,"Ġreput":12841,"Ġnn":12842,"comfort":12843,"Ġconsent":12844,"Ġhasn":12845,"have":12846,"Ġcerem":12847,"Ġappend":12848,"video":12849,"Ġdisadvant":12850,"ĠPolicy":12851,"Ġbulk":12852,"Ġcylinder":12853,"âĢ²":12854,"olute":12855,"ĠBoston":12856,"Ġthrown":12857,"ĠMatrix":12858,"uzzy":12859,"ĠStan":12860,"ĠCond":12861,"Ġapplicable":12862,"igan":12863,"016":12864,"ĠâĬ":12865,"ï¸ıï¸ı":12866,"Aud":12867,">\",":12868,"ushing":12869,"agle":12870,"Ġranging":12871,"ĉĠ":12872,"Ġmoments":12873,"ĠIde":12874,"Ġbees":12875,"ĠConnect":12876,"ĠSoftware":12877,"ĠĠĠĠĠĠĠĠĠĠĠĠĠĠĠĠĠĠĠĠĠĠĠĠĠĠĠĠĠĠ":12878,"}&":12879,"Ġkidney":12880,"Host":12881,"<<":12882,"ĠConvert":12883,"ĠPrime":12884,"argo":12885,"Ġpicked":12886,"ĠMuslims":12887,"Ġexplaining":12888,"ĠUnlike":12889,"Storage":12890,"ECT":12891,"ĠHom":12892,"Ġresil":12893,"Ġrelief":12894,"SELECT":12895,"Details":12896,"Ġchances":12897,"Stand":12898,"Ġdrives":12899,"Ġflour":12900,"ORY":12901,"ITH":12902,"Iter":12903,"Ġelabor":12904,"ushi":12905,"Ġcompression":12906,"objects":12907,"Cache":12908,"ãģ§":12909,"otor":12910,"created":12911,"Ġtill":12912,"ĠRay":12913,"ruby":12914,"Ġtiming":12915,"âĤ¬":12916,"ĠPred":12917,"Ġfurn":12918,"Ġhabits":12919,"elly":12920,"ĠTrump":12921,"rak":12922,"ĠKn":12923,"Ġgay":12924,"Ġrating":12925,"IGHT":12926,"1016":12927,"ĠMexican":12928,"ĠDaniel":12929,"LY":12930,"pages":12931,"atur":12932,"ĠJackson":12933,"osaur":12934,"Ġ'<":12935,"ĠEU":12936,"ulse":12937,"Ġtags":12938,"ĠGra":12939,"Ġ!==":12940,"operative":12941,"Ġenormous":12942,"[-":12943,"Ġ800":12944,"CPU":12945,"lie":12946,"Ġarts":12947,"ĠEnc":12948,"Library":12949,"Err":12950,"ĠÎ³":12951,"prom":12952,"Ġoccas":12953,"å¿":12954,"Ġreviews":12955,"Ġtrav":12956,"Ġnotable":12957,"ĠDB":12958,"Ġspeaker":12959,"Ġagencies":12960,"Ġscrew":12961,"Ġtort":12962,"Ġpill":12963,"Ġlogarith":12964,"Ãł":12965,"ĠRs":12966,"Ġremainder":12967,"Ġloyal":12968,"Does":12969,"Ġplugin":12970,"aggle":12971,"Mus":12972,"ĠScholar":12973,"ĠSuppose":12974,"Ġdominated":12975,"War":12976,"tics":12977,"ido":12978,"tensor":12979,"Ġclothes":12980,"Ġlap":12981,"rand":12982,"UID":12983,"holders":12984,"Ġpound":12985,"Ġdisplays":12986,"ĠMong":12987,"asi":12988,"essages":12989,"hma":12990,"plier":12991,"Ġgrows":12992,"Ġscholar":12993,"hl":12994,"ĠÎ´":12995,"Ġmistakes":12996,"Ġperiodic":12997,"Ġsovereign":12998,"FOR":12999,"Ġdimensional":13000,"ĠWilson":13001,"ymmetric":13002,"END":13003,"ummy":13004,"ĠNC":13005,"Ġintersect":13006,"Ġultimate":13007,"each":13008,"Ġpredators":13009,"Ġsignature":13010,"Ġcord":13011,"Ġassembl":13012,"ĠEll":13013,"ylvan":13014,"Ĥ¹":13015,"PASS":13016,"Ġcrust":13017,"åĳ":13018,")}{":13019,"nx":13020,"Ġsophistic":13021,"xC":13022,"ĠFacebook":13023,"attice":13024,"accuracy":13025,"alker":13026,"Equals":13027,"Ġ[\"#":13028,"analysis":13029,"Ġcollaboration":13030,"()))":13031,"ë¦":13032,"èĩª":13033,"):\\":13034,"Ġexecutive":13035,"çĶŁ":13036,"General":13037,"ĠMulti":13038,"Ġinvented":13039,"Ġclouds":13040,"jango":13041,"athan":13042,"ALSE":13043,"Ġconnecting":13044,"Ġconsecutive":13045,"Ġprojection":13046,"bial":13047,"ĠServer":13048,"Op":13049,"Ġsubmit":13050,".__":13051,"ĠTE":13052,"ĠMes":13053,"isdom":13054,"onial":13055,"ĠHum":13056,"character":13057,"ernels":13058,"Ġownership":13059,"ãģĹãģ":13060,"Ġ62":13061,"Ġobjectives":13062,"buf":13063,"Ġapi":13064,"Ġanch":13065,"Ġrays":13066,"Ġinev":13067,"PP":13068,"Ġcorn":13069,"agine":13070,"ĠContent":13071,"clipse":13072,"Ġarrival":13073,"Ġexpanding":13074,"hus":13075,"Ġow":13076,"à¦¾":13077,"Ġadoles":13078,"Yeah":13079,"groups":13080,"Ġalien":13081,"èµ":13082,"limit":13083,"human":13084,"Ġoutline":13085,"gered":13086,"Cond":13087,"Ġ98":13088,"Ø±":13089,"Ġseparately":13090,"MC":13091,"Ġmultiplying":13092,"Ġensures":13093,"Ġgut":13094,"NOT":13095,"Ġtransactions":13096,"rose":13097,"percentage":13098,"ansas":13099,"getElement":13100,"aine":13101,"Ġtrem":13102,"Ġremarkable":13103,"Ġlanding":13104,"æµ":13105,"Ġcable":13106,"Ġenhanced":13107,"Ġrings":13108,"109":13109,"Ġreign":13110,"wd":13111,"Ġdens":13112,".),":13113,"Ġsimplest":13114,"izabeth":13115,"Ġlifetime":13116,"charg":13117,"ĠSaf":13118,"forced":13119,"ĠVietnam":13120,"Ġcomplications":13121,"Ġ97":13122,"mus":13123,"Ġpiv":13124,"Ġimplements":13125,"cussion":13126,"shaped":13127,"erion":13128,"Ġsubsequently":13129,"Ġasp":13130,"Ġlang":13131,"ught":13132,"Ġwage":13133,"negative":13134,"Ð»Ðµ":13135,"ĠHead":13136,"Ġmos":13137,"Ġeconomics":13138,"Jan":13139,"Ġfolks":13140,"Ġfacilitate":13141,"ĠCOVID":13142,"Ġadaptation":13143,"Tab":13144,"iotic":13145,"herical":13146,"ĠCommunic":13147,"cmd":13148,"ĠWel":13149,"ĠEval":13150,"Ġoldest":13151,"heres":13152,"Ġma":13153,"npm":13154,"lvmama":13155,"calcul":13156,"Ġchamber":13157,"Enter":13158,"Ġstrictly":13159,"Ġlift":13160,"Ġsport":13161,"Engine":13162,"Comput":13163,"Ġrepresentations":13164,"Ġpub":13165,"built":13166,"fun":13167,"Ġ(*":13168,"[\\":13169,"Ġìŀ":13170,"ĠFA":13171,"categ":13172,"embed":13173,"outlined":13174,"Ġ125":13175,"Ġbench":13176,"Ġorigins":13177,"Ġembry":13178,"Ġanalyzing":13179,"ĠLie":13180,"ĠKenn":13181,"ĠVan":13182,"è½":13183,"Ġcoc":13184,"Ġabundance":13185,"Mapping":13186,"Ġdelta":13187,"AHP":13188,"Ġhomework":13189,"ĠLead":13190,"Ġimperial":13191,"Ġknock":13192,"()\\":13193,"larg":13194,"Ġmaths":13195,"Ġpilot":13196,"TF":13197,"Ġconference":13198,"Ġinsulin":13199,"Ãº":13200,"Ġencountered":13201,"door":13202,"vst":13203,"ĠArm":13204,"Ġathe":13205,"Ġthreats":13206,"ĠDam":13207,"insic":13208,"Ġarranged":13209,"Ġaims":13210,"Ġprofessor":13211,"Ġcallback":13212,"usercontent":13213,"Ġlogin":13214,"Ġexceptions":13215,"Ġdescend":13216,"Ġraising":13217,"Ġtape":13218,"Ġcopyright":13219,"Ġgraphics":13220,"Ġrevision":13221,"ĠIslands":13222,"Ġvi":13223,"otherapy":13224,"Ins":13225,"Ð»Ð°":13226,"æķ°æį®":13227,"Ġphases":13228,"Var":13229,"Ñĸ":13230,"ĠâĪļ":13231,"TD":13232,"hour":13233,"Ġreflects":13234,"ĠBusiness":13235,"ĠGaussian":13236,")^{":13237,"zo":13238,"enable":13239,"dependent":13240,"etes":13241,"Ġprovince":13242,"ohyd":13243,"ĠAdminist":13244,"achus":13245,"130":13246,"Ġvirtually":13247,"Ġtexture":13248,"ĠBox":13249,"ĠNotes":13250,"job":13251,"Ġarrangement":13252,"ĠSize":13253,"large":13254,"Ġpoliticians":13255,"Ġreadily":13256,"athered":13257,"ocytes":13258,"Ġlos":13259,"Success":13260,"osex":13261,"Did":13262,"anner":13263,"Ġmissed":13264,"Ġreproduction":13265,"ruit":13266,"Ġdisplacement":13267,"cluster":13268,"tle":13269,"Ġdip":13270,"quire":13271,"Ġ'\\":13272,"Ġsheets":13273,"Ġoh":13274,"ante":13275,"Ġgenerates":13276,"Ġcarrier":13277,"Ġdoct":13278,"efficient":13279,"Ġterrible":13280,"ĠCB":13281,"Ġmutation":13282,"Ġ1940":13283,"osphere":13284,"ĠABC":13285,"Ġconsume":13286,"ifference":13287,"agent":13288,"ATT":13289,"Ġvon":13290,"plicity":13291,"Jo":13292,"bid":13293,"Ġsimilarity":13294,"Ġtherap":13295,"arded":13296,"ĠUnivers":13297,"6666":13298,"Ġspell":13299,"subset":13300,"Ġfingers":13301,"AV":13302,"Ġoutbreak":13303,"verted":13304,"Ġpulse":13305,"Ġoblig":13306,"Adapter":13307,"ĠSym":13308,"Ġìł":13309,"PerBlock":13310,"Ġ1988":13311,"Ġsorts":13312,"Ġabsorb":13313,"ĠProp":13314,"Windows":13315,"Ġtraject":13316,"Ġfiction":13317,"ĠSupp":13318,"Ġhang":13319,"Ġabsorbed":13320,"ĠGuard":13321,"118":13322,"Ġecological":13323,"115":13324,"Ġfits":13325,"æĸ°":13326,"Ġmol":13327,"8080":13328,"230":13329,"Ġlogs":13330,"FR":13331,"Ġnm":13332,"Flag":13333,"ĠÃ©":13334,"Ġemployee":13335,"Ġ\\$":13336,"dots":13337,"Vadc":13338,"rule":13339,"Ġindices":13340,"ĠÄ":13341,"Ġcere":13342,"Ġempirical":13343,"Anonymous":13344,"æ¯":13345,"ĠHash":13346,"Ġlegend":13347,"pn":13348,"ĠHamilton":13349,"Ġprovision":13350,"necessary":13351,"Ġphotograph":13352,"Ġ84":13353,"Selector":13354,"ä¸ĭ":13355,"ĠDictionary":13356,"Ġskip":13357,"æ²":13358,"åħ¥":13359,"jections":13360,"159":13361,"release":13362,"Ġdrivers":13363,"Ġdecreasing":13364,"ĠCompar":13365,"LR":13366,"ĠAssembly":13367,"navbar":13368,"uther":13369,"Ġattributed":13370,"Ġwhites":13371,"Ġdependencies":13372,"]],":13373,"ĠResources":13374,"ĠMechan":13375,"Ġprivacy":13376,"ĠÏģ":13377,"ĠGar":13378,"ĠCalculateFunding":13379,"ĠProduction":13380,"Ġdisagree":13381,"Font":13382,"Ġcrystal":13383,"Ġcd":13384,"ĠMedical":13385,"Ġlying":13386,"iah":13387,"factor":13388,"prod":13389,"999":13390,"sa":13391,"ĠKorean":13392,"ĠDefault":13393,"Ġignor":13394,"star":13395,"Ġcurrents":13396,"\\\")":13397,"pectives":13398,"oli":13399,"Ġtokens":13400,"Ġmodul":13401,"Ġexcited":13402,"ceans":13403,"Ġ140":13404,"ĠMember":13405,"Runtime":13406,"Ġkinetic":13407,"ĠFamily":13408,"Ġconsp":13409,"ĠReading":13410,"Login":13411,"PG":13412,"\\$":13413,"Ġsuggestions":13414,"Ident":13415,"âĸĪâĸĪ":13416,"Ġgast":13417,"ships":13418,"Connect":13419,"aska":13420,"Video":13421,"Ġagency":13422,"racle":13423,"JSON":13424,"ĠMessage":13425,"Ġarrive":13426,"Ġaug":13427,"itled":13428,"ĠJustice":13429,"mented":13430,"Selected":13431,"ĠReturns":13432,"Ġhits":13433,"ĠRail":13434,"åıĸ":13435,"region":13436,"Ġaxes":13437,"114":13438,"Ġrent":13439,"aya":13440,"urations":13441,"loading":13442,"distance":13443,"Ġio":13444,"will":13445,".**":13446,"Ġpredomin":13447,"Ġpresum":13448,"conscious":13449,"Ġautomatic":13450,"ÙĨ":13451,"Ġbot":13452,"Ġ(#":13453,"Ġillustrate":13454,"ĠMic":13455,"story":13456,"Ġphysic":13457,"Ġaccomplish":13458,"Ġcust":13459,"since":13460,"Ġbehavioral":13461,"Ġ09":13462,"Ġstreams":13463,"ĠBoolean":13464,"Ġvessel":13465,"hyd":13466,"seed":13467,"æĬ":13468,"Ġ1987":13469,"energy":13470,"Ġinert":13471,"thur":13472,"iov":13473,"ĠHard":13474,"ĠSud":13475,"Ġdispos":13476,"Ġevident":13477,"ĠChristmas":13478,"æĭ":13479,"Ġaddressing":13480,"Ġderive":13481,"175":13482,"ĠOk":13483,"Ġappeal":13484,"Ġextracted":13485,"Ġ61":13486,"¸°":13487,"144":13488,"Ġreceiver":13489,"Ġretrie":13490,"}=\\":13491,"exper":13492,"ĠAndrew":13493,"ĠKeep":13494,"ĠEvolution":13495,"ĠLittle":13496,"Ġforcing":13497,"Ġcorporate":13498,"Ġfans":13499,"About":13500,"ĠLew":13501,"bec":13502,"Ġsimilarly":13503,"wind":13504,"Ġdemocratic":13505,"Ġconstitutional":13506,"Ġpole":13507,"ĠEgyptian":13508,"Ġchains":13509,"ĠCart":13510,"Ġengagement":13511,"Ġlogging":13512,"Ġbounded":13513,"erge":13514,"Ġearn":13515,"itals":13516,"ĠOs":13517,"Ġdisaster":13518,"Ġdepict":13519,"entials":13520,"|\\":13521,"dialog":13522,"Ġsearching":13523,"details":13524,"Ġadmin":13525,"tests":13526,"circle":13527,"docker":13528,"ĠGit":13529,"Ġexploring":13530,")||":13531,"æľ¬":13532,"Ġinvolvement":13533,"Ġcancel":13534,"Normal":13535,"Ġ\"../":13536,"Ġdramatic":13537,"ĠBCE":13538,"Parser":13539,"Ġ76":13540,"ĠINFO":13541,"Ġrealistic":13542,"Ġartifact":13543,"Ġpixels":13544,"mac":13545,"Queue":13546,"Ġplanes":13547,"ĠFront":13548,"Ġnearest":13549,"Ġ08":13550,"Ġpartly":13551,"Ġbars":13552,"ĠFollowing":13553,"Ġsediment":13554,"00000":13555,"Ġphy":13556,"Ġthreatened":13557,"åŃĺ":13558,"Ġprimitive":13559,"Ġdomains":13560,"Ġspoke":13561,"Ġdimin":13562,"ixel":13563,"Ġcod":13564,"=\"/":13565,"tri":13566,"ĠâĪĨ":13567,"ĠStudent":13568,"Ġpushing":13569,"mun":13570,"Ġrecommendations":13571,"versely":13572,"Ġconvin":13573,"appy":13574,"Based":13575,"ç½®":13576,"irit":13577,"enda":13578,"Ġheaders":13579,"tocol":13580,"selection":13581,"ounder":13582,"ĠAltern":13583,"Ġresolved":13584,"ĠNeg":13585,"ĠBlood":13586,"ylvania":13587,"oline":13588,"lass":13589,"unar":13590,"Ġpoetry":13591,"Ġtough":13592,"compiler":13593,"iano":13594,"Ġgran":13595,"Ġconsistently":13596,"ĠMaster":13597,"olidation":13598,"Ġbelieves":13599,"Ġpermut":13600,"scopic":13601,"Ġthemes":13602,"javascript":13603,"CheatEntry":13604,"Quant":13605,"erranean":13606,"ĩĴ":13607,"ĠResult":13608,"Ġbold":13609,"Ġfi":13610,"olith":13611,"Ġannoy":13612,":-":13613,"Ġresc":13614,"ShowAs":13615,"Ġadopt":13616,"TEST":13617,"ĠBetween":13618,"ĠSequ":13619,"Ccu":13620,"ĠArist":13621,"ĠEncyclopedia":13622,"Black":13623,"Ġiteration":13624,"rends":13625,"Ġisolation":13626,"Ġreceives":13627,"Ġsufficiently":13628,"ĠAntar":13629,"cession":13630,"Ġlar":13631,"Ġspecification":13632,"Callback":13633,"ĠLo":13634,"uy":13635,"izza":13636,"()`":13637,"Properties":13638,"east":13639,"ĠNob":13640,"eld":13641,"ĠFuture":13642,"sha":13643,"Ġspeakers":13644,"Ġsmell":13645,"ĠDescription":13646,"ĠUlt":13647,"508":13648,"Space":13649,"Ġanswered":13650,"Ġheli":13651,"Ġjet":13652,"Ġcombining":13653,"EndBlock":13654,"Answers":13655,"Ġtranslated":13656,"Ġneu":13657,"Enumer":13658,";\"":13659,"ugs":13660,"Microsoft":13661,"åĲİ":13662,"ĠUniverse":13663,"olver":13664,"imated":13665,"aki":13666,"etts":13667,"watch":13668,"Ġspectral":13669,"cam":13670,"generate":13671,"ĠMedit":13672,"ĠKen":13673,"Serv":13674,"Ġdisp":13675,"Similar":13676,"Ġ02":13677,"Ġstake":13678,"Ġfriendly":13679,"Ġunexpected":13680,"Ġcattle":13681,"Ġgro":13682,"Ġtraveling":13683,"Ġ1986":13684,"Ġnutrient":13685,"Ġopens":13686,"urches":13687,"ê°Ģ":13688,"ĠPay":13689,">#":13690,"Ġsuck":13691,"Ġlambda":13692,"obic":13693,".&":13694,"Ġcompletion":13695,"Ł¥":13696,"ĠBerlin":13697,"Ġdrought":13698,"Ġdialect":13699,"Ġfleet":13700,"QUE":13701,"parameters":13702,"Ġwine":13703,"````":13704,"Dem":13705,"Ġthroat":13706,"bits":13707,"relation":13708,"iams":13709,"ĠIndones":13710,"xD":13711,"Ġhormone":13712,"syn":13713,"essment":13714,"Panel":13715,"ĠBall":13716,"117":13717,"Ġsessions":13718,"ained":13719,"Ġmarker":13720,"desc":13721,"Ġarrow":13722,"ĠCoast":13723,"ĠLev":13724,"Ġsurrounded":13725,"Wrap":13726,"(\"\\":13727,"Ġperimeter":13728,"Ġbatteries":13729,"Serial":13730,"Ġhoney":13731,"Ġsys":13732,"Native":13733,"Close":13734,"Join":13735,"Conf":13736,"ĠBush":13737,"ĠKh":13738,"Ġgang":13739,"resource":13740,"Ġcurious":13741,"ĠEmperor":13742,"204":13743,"Ġsurvived":13744,"ellular":13745,"Ġwelfare":13746,"Ġcrimes":13747,"Ġcontributing":13748,"Ġ224":13749,"ĠEdition":13750,"PER":13751,"Ġconfront":13752,"Ġol":13753,"ĠDarwin":13754,"idae":13755,"(`":13756,"Ġfest":13757,"Ġ\".":13758,"tk":13759,"ĠHaving":13760,"Ġmeal":13761,"Ġ1945":13762,"bour":13763,"ĠWas":13764,"}},":13765,"ĠColumbia":13766,"Ġenabling":13767,"LD":13768,"ĠSN":13769,"Ġflags":13770,"ĠTreaty":13771,"^^":13772,"ĠDark":13773,"ĠApplications":13774,"Supply":13775,"Ġvolumes":13776,"ĠLos":13777,"Ġregulate":13778,"achers":13779,"ToString":13780,"iser":13781,"Ġexplanations":13782,"ĠLu":13783,"Ġcommitment":13784,"Ġtou":13785,"<!--":13786,"Ġgit":13787,"uffle":13788,"Ġprogression":13789,"Ġprevention":13790,"Ġstones":13791,"Ġapproximate":13792,"Ġalphabet":13793,"Cam":13794,"iley":13795,"attered":13796,"semble":13797,"Linear":13798,"oen":13799,"ĠSquare":13800,"Ġpurely":13801,"DNA":13802,"Ben":13803,"Ġcalendar":13804,"material":13805,"Loader":13806,"ĠEnvironmental":13807,"Ġcontexts":13808,"Ġzones":13809,"Ġcollision":13810,"Ġpanels":13811,"Ġangry":13812,"Ġfet":13813,"Ġcholesterol":13814,"Ġstraightforward":13815,"ĠJon":13816,"Ġgray":13817,"Ġlabour":13818,"around":13819,"ĠSure":13820,"Ġrestore":13821,"icking":13822,"stats":13823,"Ġabandoned":13824,"Ġsearc":13825,"Ġsupplied":13826,"Ġpharm":13827,"{(":13828,"igo":13829,"iki":13830,"Ġfavour":13831,"Logger":13832,"Ġinterventions":13833,"angel":13834,"eneath":13835,"Ġgest":13836,"written":13837,"Bind":13838,"Ġporn":13839,"WR":13840,"Ġpreference":13841,"ĠPeriod":13842,"wave":13843,"ĠLat":13844,"Invalid":13845,"Ġscenes":13846,"jud":13847,"ĠFund":13848,"SHIP":13849,"ç¬":13850,"LED":13851,"epoch":13852,"365":13853,"Ġcataly":13854,"ĠGeorgia":13855,"pot":13856,"Ġintegrity":13857,"cost":13858,"Ġinclusion":13859,"Ïī":13860,"113":13861,"ĠÏĨ":13862,"ths":13863,"Ġmile":13864,"Ġaccompanied":13865,"Ġscal":13866,"ĠAncient":13867,"away":13868,"Ġliterary":13869,"Ġcompatible":13870,"Ġwake":13871,"Ġtongue":13872,"Ġfishing":13873,"Ġerosion":13874,"orus":13875,"Ġinduction":13876,"Ġregistered":13877,"778":13878,"VD":13879,"cross":13880,"Ġparliament":13881,"Ġtreating":13882,"Ġtemporal":13883,"Ġ{'":13884,"flat":13885,"irector":13886,"Ġaggressive":13887,"amount":13888,"Ġsupern":13889,"Ġho":13890,"ĠPA":13891,"Ġshares":13892,"ĠHo":13893,"Ġderivatives":13894,"adic":13895,"ĠAdam":13896,"}$.":13897,":\",":13898,"Ġlake":13899,"\"/&":13900,"week":13901,"ĠPlace":13902,"Ġtied":13903,"Ġpolynomials":13904,"your":13905,"ĠArctic":13906,"tags":13907,"apters":13908,"Ġcommittee":13909,"Ð°Ð½":13910,"ĠBa":13911,"Ġspacecraft":13912,"360":13913,"ĠOkay":13914,"acks":13915,"ĠExec":13916,"ĠDecl":13917,"Ġpreserved":13918,"ĠÏī":13919,")])":13920,"Background":13921,"Mac":13922,"Ġmemor":13923,"Ġinterference":13924,"Ġgrounds":13925,"Ġclause":13926,"Sn":13927,"ĠThink":13928,"Ġindicator":13929,"Ġbaseline":13930,"Ġasset":13931,"Ġpunishment":13932,"Ġfir":13933,"Ġburden":13934,"quality":13935,"Ġrose":13936,"ĠNazi":13937,"Ġextraction":13938,"asters":13939,"ĠServices":13940,"ĠBon":13941,"Record":13942,"ĠDistrict":13943,"beat":13944,"Ġ%>":13945,"ĠAnaly":13946,"ĠInvest":13947,"ĠDoug":13948,"\">$$\\":13949,"ĠMathematical":13950,"internet":13951,"ĠAsh":13952,"ĠJones":13953,"erving":13954,"Fields":13955,"ĠMD":13956,"ĠuseState":13957,"Ġdocumented":13958,"Ġextinction":13959,"Mean":13960,"Ġdeposits":13961,"Ġconvergence":13962,"Ġmature":13963,"policy":13964,"Ġalignment":13965,"Good":13966,"Ġmixing":13967,"issue":13968,"Memory":13969,"acer":13970,"=\"@":13971,"Ġpandas":13972,"Ġ83":13973,"Ġtrou":13974,"___":13975,"rank":13976,"Ġcolleagues":13977,"science":13978,"Ġvalidate":13979,"datetime":13980,"Ġattempting":13981,"curs":13982,"Ġbrack":13983,"ĠClear":13984,"raine":13985,"'\"":13986,"æı":13987,"Ġbroader":13988,"githubusercontent":13989,"Move":13990,"ĠAli":13991,"ĠPear":13992,"ĠHoly":13993,"External":13994,"Ġwondering":13995,"Ġsecre":13996,"Ġprotecting":13997,"ĠMediterranean":13998,"floor":13999,"throw":14000,"Ġ78":14001,"lr":14002,"lov":14003,"Ġbother":14004,"140":14005,"Ġloops":14006,"Ġsimplified":14007,"learning":14008,"Ġtranscript":14009,"=$":14010,"Ġcomparable":14011,"ĠTurn":14012,"ĠClimate":14013,"]}":14014,"143":14015,"VariableType":14016,"ĠLE":14017,"Ġcasual":14018,"Ġ69":14019,"prev":14020,"Ġlabeled":14021,"ĠFrancisco":14022,"Power":14023,"Ġestablishing":14024,"Ġwelcome":14025,"pres":14026,"ĠSI":14027,"ÙĬ":14028,"ĠForest":14029,"Ġmatplotlib":14030,"Ġ110":14031,"Ġfibers":14032,"OB":14033,"Ġdependence":14034,"uscript":14035,"ĠPri":14036,"achusetts":14037,"pair":14038,"Ġobserver":14039,"Ġparalle":14040,"Ġconditional":14041,"Ġvapor":14042,"ĠERR":14043,"Ġmemories":14044,"ĠHun":14045,"ĠGrid":14046,"Ġsettlers":14047,"Ġillustrated":14048,"Ġscar":14049,"Ġblame":14050,"ĠCopyright":14051,"stage":14052,"divider":14053,"Ġmilit":14054,"Ġrabb":14055,"Ġcontinuing":14056,"ĠBeing":14057,"IVE":14058,"æ¸":14059,"Ġconcentrated":14060,"124":14061,"Ġâī¥":14062,"psy":14063,"»¿":14064,"Ġlimiting":14065,"Ġadoption":14066,"Ġunt":14067,"Take":14068,"enum":14069,"ela":14070,"burn":14071,"2023":14072,"Ġrealm":14073,"Ġfuels":14074,"ĠPhot":14075,"equiv":14076,"disabled":14077,"Ġpyram":14078,"Ġ88":14079,"IAL":14080,"Ġgrains":14081,"Ġ./":14082,"ĠTyp":14083,"Ġquantitative":14084,"Ġvarieties":14085,"idate":14086,"Ġcapability":14087,
[...]
